builtin.module {
  func.func @snax_main() -> (tensor<560x360xi32>, tensor<560x360xi32>) {
    %0 = arith.constant dense<"0x52F4A484E973E25375027BE0DE6C8EDBD61B3C3A561C94D140939ED1246BDD5FB2D248A0DC86534B0566C36B5673449648564C63D5F9E38BF5998A28F525090CF7839A13F3588C4C9FFB0DE7B9F769C274201C691187EA01FC074443D45A5F5A38589A99B1B8EB3CC7354E82735E401A70CD3F5DAB44F01242BA6C214E29DA92F46FBE8F3443514CB3906A913D9FD38C252B1169973EDC345572FEBB3D506B0BC748D8DBA48DC4C5F7110B14D811868B4DC68E8D91D3AFB88CA6126DD8294E388151C1BD2D60EE5564C1266AABB40101797891291F4EFE8CFA2472D227A3B913671FB76893598B8CCDF1FFB8138A2B203A52B7AB3D239B5510A3060F63A97C1D687A438E4245AF03B45667BEC023DDFC819A539D2025CAA21047FD167E683A764B34191C6C69CD418669BD1156F8D92EE29EED5541BC1FCC9FD5C02954458740EA15940D221185D998568174CBE54FB3B36331C177CA012347419530BA2333DE7E0FF89977E92A2AF1CB3A4EB863D52281C3DCA0CF709654CA2522696D15D1B54771D7C0CC8ACDF5D7406E6D444BC28F9E66CB1EBD3A835574C25309A5B3701F81F8BB768875A82BCD8C326DF74A6BD0F1F296125FB4B4C3182A98E6EC8587244B0E86E2047E8715D63DF6D9E7DF59AE806566828EAE3AC4346F888ADF6F1F77CD633C85023DC25804EB40CF2936A158F9B709B862A728B7D14AA3FBF7D58C0C13E336D71BEDF5484174F21F68289CDA9B7C45AB9E6D580D4BF2E484CFCDAD11E53744A3B339A68E96DABE37FAC130A1DE828954DBEECD0CA17801427808956EBFB2AF771042A5022A48AC52DE8E911CF2738303C9156E0E78C59C62DEBBC883B212B9465F6B7D6A9DB56644D8A06D6E2492DFD200F1EEBCA6888585618255D019F23A088BE0AD992CD1549BCA7A916623A226667435F93D5B029CEE9283B3E2722361E18BED65338203C125F473BAE0281A1C03E87B889E5D060D00A6368D9E8AC41A16E4BBE685928A192B0C8E71459CC54F6EF041CE32197DF7BB6A579ED0BB4D5FC6882B90E887BDCE3AF21FBA2FF8AA6AB9033C6B2E4505B9A7A036B4709FCECFA8C7A79860F0E9BA411533BAB73D73A784588627F1D648CD0DB2B1204AC9B12F168ED5C7FD7A110E768A689E82CD7CE5AECE0EA11BAD56166922414DEFDC55CA1CC668E3A2FBBB02F56FCBC7E46E0587B6E209E074C3514434F79727F02C217BDCB3AF0E5EF2375E3405C54BBB8B47848E6C7755F0EF9F3C560C2B3F5350B619A5D5675B8C8032021FE02C61A03A6B638B0CA29B64C8F4AB5AA4345D0E7AFB1E7094F14CD02DFEC421056C30500A1A2FD3694511FC63A4B6161B1BF9295BDDDFB5683C8FFA5B833B4B09CBD6974977B589E569FD7CAE8E90C31B8F296641AB5F54D27E837472C59E0E82CA92854DFA0FD8CB31E50FE08F3C5BDD809846CAC17317D17CAD88B9815E6259F5AAC661B2C45C66413C72AFC56FDC81F24B57E1C6D3E89DCF3574042FA04ED5C529AFA42AF9A83473A751D040B25584D51A0BD612409EF8D84CB856611B5D2E65F11004951D6880206DD9E0400136579149209A8C615B5DA11588843F3A17D0EF202EB1AEEEDF1B5D9AAF063F211DA0E92F264DF6C36941EEE4BF24EFDA068B4CC85285DBF8C3BAF0A75F13E4F9CEAD09F83AF18A42A1714B8D81D102451002312999B211F11FD7DDF95237C1E2583FC4537021EC14FC6425DBC9535C944C2B66C0B25DA23804702AAF640AD6AB5758DA7DF04DE21B5A5BDD8EABF17875FC59F357FFC5036ED75AE50BFAED37DB89509AAFF07EF3B7729317A5592A37E4A1FBDE8BD07EDDE22FB4C6025F24212C915ED3B415CB2DD6346E285CC87B363B4AD48B0A4B9A261836D20EA8026976FBCC637B958955DE64BDFAF66E69233D1BD520D077A33D1402D4405F057A1D032BFDC8C37165F57138D5F5E78E2569FA760A650C8D7394E2DC0BCDEC439177726B9DB406121EFD6B05E7EBE986EA7A7456A98861186A039EDB3472CB133021B78CB0B2F0E7B0ECD22A6016EB9D52FB4C4AA10E226FBDD2520A251A5FC237252CA7745E17F9172781AF6D39A515FA8AEA7DB6C7EB76EF45BF575D9688198D004785EA412B475F2A24B66E2A3289F399F344916FA766B8C519A9D1AC0239C17735229725C81657FC5DD151E5DE72B14704EF5B29A93EBC6D479293D5EBA0C483C4F376330831A837C58196A91EA87E740C9F8512D437032132F77D93E974A73648C0A8ADB99CC080357AB6DAF0592C2E89E841669C337168707ED8E5098FA212EF72B9A2F875278249350B1CFCE59BF35C8081DC9AD7B102D1B0FD45ABF2A05CA8B8DC8848A0E84178A0E6ED33B74D26A3F2D5436A53B6C8A3A04C5720787486D323CE31837EB47954BD95057DA0CA99AC1B040A28CB49D741652B51689B2B6D9C498F5B599727BB2D2F2006AFAD1164F6D976632CE93B4D8B538FD680C4BD8B1D1E6402670F37CEAADFD40045A7A2424A890DB3D5CC187ACCF9C2551DDCD1D03749FD64FABA9BF608263A7B5DDB9F2243F00D5B19EC05F0F64FEFA6A21E5F1A34D861F8D3F72C9E818AB96856937E90E055077A3DD010A3318DA2F1F934B4D81DE3DA1D394B32219847FE4C2BAE86FE75AD869D26CECA505C2D33C70814014FE6D412321856DA2877759975489DC46B42727885CEB46466FCA152039458F050A11E074C41239A754A01A812E97E72F26B74F7212242E16B4E30F817AA4AC098E11182B484D71FFB89AA8BBDCA61476C0A9CBE72E53876BF2D303330BA49A792C883CD92137B1E92B3983EBF52E104641B4A744B18FC5AC3C301F9E46A78AF0F22A45A33F3FA68F0DC455002EA66559F92DE7C7142B47C6C3B6825570A47F7B97A02AC0CE8C7DD5713BDEC06902CB2CAEAB749CCCAEA6D37070C4ACCF07B630F93A7369150E66D7B3E93B582BB162D18F10B47855C498AA37B135CBB14045C3B159FB24CBB8031DC676C3D4AD2D0D9A1108AEB2C1F1644563EFFDD5F2710EB0136B41A2CE25346960E48201DE96CE810FF92F995518A14F26392796859F16F89D538D8F75A65A20765D504C445C658155906F9AF2B6B36B0555A220970A4F39A55EEC3AD6061FE2A44A40906DC67A96F98D0D4E0DB242057B9E77C87C3EE69C51B70DE19EC180767F72AEA65E54888D9973174A72CD4F3C485D6AC651C301AB5C3D4F4AC50ED7BC6A22781692163C9F0C9B999C402BA641C44A39342CBE057F8FE777A52B856598961FEFD184B3A7A3D0110043D946389C5382AE9FEC244AD9297365F9CD381176E6B7E9D57A5DFE7FEF012AA04FF73A4083A3E91BCA6499A8A288B95EE930597C5FDBD2CB218CE1F6FDBE8D3D4A9FC01C65123877AEF1551EB799A68C0B2085FDCAF19FAE8047B654309D90A5FA5A959F40E8F7844F0A785691EA252E81E81FCD3204D82E2CEF895CB0556A9F68B27FD7024BA499272A1C59C8128DC619B17B7813FDC399CDD30D3B308320C33C88A038A847EE604BE597A83DCF06114CA06B92590543EE24970402F4D2DBA33C5904F04B82E3BA5185776C13068D3B078E50FBB65431E233CB02FE081F500034D79FE25A44B18883A9E44D75ED7F819CEC69EEB40E47EC0D645AE6AB9828201A84D3138BEC4157DCB9FDFF296DCD57C104B184F415D978F306675674273F15E3FD686D8C39956791B451D12249C013E4DCC092E3F4D41B9792F67DCD39F8080DF55FC245D0D4589356A9AB3BCE0AAD0DBB40F288DB645FDE169DA71F515D34E6FA233BCF6D9E67E153CBB5959AEBE44826276E04443109A04A9529FF059C294AEFCC9E620A2B7369F33C26AE230EED699B9FD1FBDF1E3E21237D9A4D5B01BFC2090FE503A2CC96517002ABA9964EBA33A33F64E86A353F8B169F29A7CC35C38727A5ACFE2D71F7C437DEB11ACFB7A48D494323998C07DCC3A2754E9D88885D4F31C843C6DE466050AACD3562CD942F2C320A9E131FF0D0B5A11D8F95327E426733C2CD385F9F76279162072956AF3D3B5C24BEDDC5FD5F093E70F11593EACCE89752D9F5FD30A04C4607BDDE050880BEA06365EFC37CB051860CFF77D78D8DA12CED73F4DD0BE07D4B97712DC629844F0DFA0E5E9CB79B16B71CAF88186E76A4ADBCD4F88D39503A836F584CCE21D3345A8EC8379A50D8D71395DEB4E026B77EA834685F947B70D23124622B6C4533EE2D9E14793BFC4D39834CED0EDE0FE9E7E8358056B2FB50451FD91C802F2D6A04DA5B1F9B933DB6205991068D682DF8DD1E8C38A67BAAE0CD699CC5EA399F1B8F9BCA2F43F77A374A0DD3DB846A51D3956FA3C77CB458B062FD01A8AF1DC5CEFC092D2E7B63E47711448E503C5D242728D32E6C9D27D5758A5FC0AAAB325A995958BFAAD1A72529DFE8144838A1B2FCE2505FCCEEF1B3AA7BB3CB35E12B5EA237346E5FE85B5C406A78F8270A93AE838A2A4BFE7B9E62BC444008C8AF84DC89E5449054B146CE62D4FF4A7C5A3E28B567647AE191FFB0D23D140D9310230DEAEBAAF0DB3D0CD8C587DC19494CB6A8AEA134562AD42C6662E104C2161D4DF5756C9D158AB10BBDB89DED2A36B5CE7D2F330916C0894316B89773470E6C6E0BDCA1C03244C87DA8D140573A39C9CA38F456A045D5D6976BF078C401821578072652ED474DC500A413D2C18A10742F8A1FB15A28EBE4D7582252FB72A3D6797FCAD1631A8CDE768A7DED965E53C8FE4C329B6326A0DD1594899C81F19704EBFF47E17B7A0665100B3CCE480EF3785BD955AD240CED962BDBDE9729E9B6144DB45F8137B7605B75AC0F02533B3AE33D464FFDA68EAD2616D54C391D6EB432E66B94D9559FFE7094680CF5B129E0724E0EEF9CAC8FCFEC119D679698A18BC67DF2A7AC1A1192C14D23469365D250F0B0EB9EF876877E58A4B7E5137D10D7E8765F95FBDA84CDF7917D156C7C21C47932B3A4DA020B54DC35058C0E186B0DB8899D11A0F8BAABB55CFA9878B48DEFB9B04711975557EB175260C2A1C8C72D6B787582FAA1F4F28AE04EC051CAD246393DEDA01EC38C8B179436A586229081F05EBDADE937D02C1117CF4100DCC1F33843CB85DA32D14135A8F1119B2F474C3487AA36E1284C58C0749457807210CACE41A8DD1D9693DC90E77ADB9F3B340AA3D85D958B8FAA2536279D66511D1ECB83A71009B6E7D7524FF0286B6990B88FDC216560C6562BFBAD8A05F84869FAF23B64E58E376FC02D5841090C9B416DFD188CDD4C851B66D6FCE949522D52932A09284430BAC1951DAE3E6B9E865CF092EDA529ED8B3A33093B1C8360039C96A9A228E743F4449D60D87A6B18F2B4639F8337A36E874710711AAAAE9757E6040AB60E7166EC226BB83BED012542A0CB4F062E31C919AFDCA1F9DDBDC675EE1B9DA520E25F9D466C20B94BB253A3D3104FD568BC71C645F54D5376A0FB09BAFE680FBF239E7B09A216B1BBED9FE41B615DD9025C97ACCBDD3A96F4AA50052106E9166DA990352B2F7AD976BFA3478713C3B443F7CB3A09F9DE3F241451DA9525A5D9B8469CEA8F665E6CD6FEF46315DC2C61D092F6EF3B590D2AD883FE69881A618ADC6289E99235C7C91FEF236F724536DC79F00B044566B2C269F040D88AFAEC05316BF61E0E7B59C1BD417509BEFD9E87557305D535077A78E0F9CF68C81898DAB309895438A348DBFEDC3AF43E4759E18033B0131B30DDAA687B1EF36B5AE076080DAAA3342D72630FDAC4DFF5AC58162BE62968DC4D9AE05B324859F8C3DB2D87BB36120C7958B4339895B5B787BEF1311082CBEA924EC88CE40FBA3F6EA63E1C2AAC5FC6DC3C0AECCE0450DC23AA14F88A1852C88AE765FF2E5B42CF86F77C5F081A90911B35414633BC89C07A8F43B6943E1F120FD0AFB2CA82458067004B10C8854ABA19719EC1F57485FDF1DA2A6565ECE1BFA28774655968FBCA34EAC14312C1EFE864A3B2C718CB38942BD76B06CB5FF870F56FCCE44B4EABA040483E043951AF846D31073494AE087C8C928A47A32291B2C13B9A6F61514792EFC190585E89A2507719C2B862DE292751287BF465A43FA97885E493079A8E7CBD8D20FBF7EA4DAEC4A228B6D552924073BF24BB5A05E5613757D639CF9BB19CCCAE6121F12ECE7BC67A3D40628758CD285BCB03EAD063023A2B8C6AC2FA59FCFBBB575A957ED37FD2C68012EC179C969FBAA6AF69CC5503521FF5BDA7213585F28B687CD06D08B53AD3835EA71DBA1DF9DA93E682970ED9A9F6B4553129E62DFCCB31AFE54B286F3EC4D6229A4183B410AEC3F9F3574E3F2A1CB2B72593830242F141657C1A79A825A687362FA29DC587D9970C5BB8FA44E4EEE77FFC638B97BCC0587707CC518F21DFF8C7ECD220DCD19BEDB76D3FA8121CA025C484EA55E6D15E12F27A7B4664B3F3B60FAAB878ADD22853D4FD7DE224BA7AA0C806A7906A7A6DB8DF3C851081F2E86B403E68D920F7EC29B339BEECD54CBE39824C079439BE3B40BB5B776B42E771AF2731911C88B35B89F42715C0336A6D5EE3199274E566D64EDF9072ADB85251E791E330C6396009482F3A17C6DB58AA081E8169F873EB3050D4856BE63FC95D7BF926D3F9FACE2CD66B70E05EB5EE586383F2ED096F796F477104D48C2C0A03D73AE2EE0B4216F9A5857E9F1AC4CBD2714B60211E457D4896C4BF78C75852322DE4CDFE340469512B7D586A35352CAF552A1750E379CF6159EE5A8F0561AB6D10C6FE4F89E5C8B70ADAEEEDD15C5FBD2715016339A29064009A5984ABEDAE1A98DAB873F3A3775C91C8CD39FE0DEA9E9EC084F4F1E795397B761C202EC7D789DA5576D069ECC4CF271B46B9A043EA5E500F5693DA124293A0F1D3AF1612993AC45DC8CB94660316FFD96CE274876E7EDA2C5ED7448A8CC2F723B98EA054B88B4288426C0B82D5EA9B8CFD08ED4E1874735D22178B4EC3912A0CFA6D78CE8C794CF11E9199AA6371112585A4E9936A37E5EDAF9E272DFC62B36E7B82958F74BD01372424BACCA3272B848E7349AF5B952145D6E60B27D963FB81E3E67CA387D34E5F36BCE153F14A5EF85BA9F8F0213315BE05AE6F54303ADCE4D126A7A13F9FFAABFBD177800D6ECBFE118C9869D5776E1550D622F9A53959EBBE9E312A0DE0264EE98985F11A5C3D1726839BB4E409DA1C723CE925195829F8FB8100DF4C12DECBF61E03EC191189538082A2D80B59921567A6E4AA7D8410ABEA849712FAD22619EAB20C081D8AF3A153121F677E2DC7091426F714A023420808582BF995FA5E0700CBB5B2EFB5678BEF6065D03E44FCE1D8428D555A6DF752C4E2ACFCF0D76C359D231A5506012CCE1412B8A49AF66B1E5A40BDF9FD582AB1A067C29ADF59CEF62A0040BA51E6781C07EE79FDA7C17ECDD92A149E2EB38BC0CF39C0C8558A9D17AB6B8AB17076451D935B3C80B94618EBA4847D00DB4256A6E47B1EA7CCD117683374D6A98A79E6FD70C35BD7C89FD112F2DAF2F323AD508358AE0C35AE5CF35C9B34489C88A8F3A60439D8AF76AC81410C99F195A5F863016581571FDD58D6022BE1E06A30BDD8464FC4FCA267164CBB784645E6EB86CC643DFA1AD709E89A786E3402B016C31660200C1BECA75ACB62BEE5AC70A55D7CFB3D9CADD5DB2FB477C16B9BE83786E5F1A6A1A6837C9312CC7A6581A724F9C1E3795470DE3E765D32F8EB8F199E81759AC904752967874CFA75427CC7AC0417D4786553DE80A0CFA10DD032B9554728181027762E87DB57D5CF149F7F28648B757B73340ADB0CF85FC2EEB25D0B05414654CF02924086344AED265566E8E1D194AE14AEA241AA519FF6B69140C208530CDAFB808EEA6D1ECB191CD7C8B799047E6F988B9B70110DC1D3B8C42D1732035EE0CAB86BC805F676A43A57202E32AF7681D8F0B8870BF41CBEE02CB17BEA0EEA503499C01CCA4E42B5933F10E94375CB250AEF83C9B14690F9AAB098A5A5C508161041544E24C5F093126408AD7A4A0400C6832BBF424B0F618E12429881E8F8ED58D92A1459E3A6372545DD53D63934CC820628727960738F324C151B4BD901EED752D5E09789390BB090F1BE6A7F0FE9B942EB2CEBECDF545F63594D5AFF356D4E15AB0C977F9D3A82FDD651D2F31317D9DBA20A7DCA54B1949B71C970FD8A76C4A41E2648B2FBD67BB8853EB2C6CE8878C506A3B8C3985FE613E1AAD22AFC367FD48109BE02F192F41C8A4D47B61561E2BBDD453E288D06C45932D54BAE1E12215242A5732CCC8098FA9B709B3987E7A873AC3A63FCC0826B54762793F195D2AADE57D4FEF1295F4F47CD4286D8078A851895F8228914A9396F83E1A15AE7D9037E76C968A23B0B72178355CED136D02DACA6012786BB652F7F66BCADE5435D2E5DD2719DDA71AAFD41E85ECD92B3B8113321EC58D6DA5E29385F2CB1F4E1EA09C12E1E63525447641796F5E2688DDE9A16C01FBD53736A3D99C977C78050B1EDBC08B8E97B158CA13E52F589D3DF6F0DD70DD1102379281946922A6AC1FB10C47AA63BF01733ED8526C056CB492DF07D7D4C0A475ADF21E01C114CF1526A3DBC46B314E918E23C84B00A36B4A8E515D357A17E08A45BFA56FFA4709AB333A7ADA3B2CEB4D2316154E3FFF1B69B00C1DE67510CFD7AE5E6C68BDE8C686951BC8810379C5E9D04C39E8FEBFCDE9602D66C4D14A98D774CAAAE70F441D75EA17FCDB1EC8F4B37E9753B1A55EA9EDF1541088CFD0CA579FE1186039F5B384F01BD8D8E6BA365C98BB4AFB3E659059303BE997ADA7C2FEE6628F60E425AC3C3B93DA091C1E9EF5FA1167A952C3E16352E236A90C4DC5046C760F527E49CD51806F9781EC4EC8E7C55BF816A8B57EAF0B8D3C643AB4E1C32C4A2781A568F1DA1DAF0D1412DE7638E317FE3AB1BC1BE3A6D405DD622D3E8265A66815437B7845B6BFC032E8954DBED833B4E8178D7B961DE601CFDE6DC0325C7E5BBD5A70427E3C4F64B4B2C88B251969E8297302E6980C2E19D5C6ACFDA0C0EC72DDA33994EC8FA0FBFF09C8A5EC941959A7F26810074CF2EC7D4C86A2DB17D3721BD6B73B5A248FCE6BBF09B8E98011031690E7522DF07B50C02213AC34E9B6DA4BA1151C5DEF9B26FC13AE909C209019994F4DD36CE7FDB2974A91593880AF9187FF1B163A666C0148BB47E811DAFF0813EF779142816CC5F2849E25FC002EDA9523A63C882C70F39DC42FDECA527E3FB73F76930DF9FB329612633F88994E6D49CD568B9593258D286551A3861B790EE29503EE327EC2E603B5322CA98B6B6FA901A4C9C64C87202231125C53DCD6D6E24ED97C658B346AA33A4F549A0FF6B9EE9131CF1AA705A89FA68722BF4D5203B546E41D18B8D932BA0479889C322125C649C989D2636EDECE8947F91333D4AA1CC70C889B3B980564120953595044D948D8088D771620935F975DD7D674E91A3EA4E60BC060FC30B0BFE8657D54489FDBD271FF05E15555662AB7722DC9E99EAD3C59A964B37591620643A33685120CC5A22F0F1E57EDCB6DFF76736D18923486B0CC8F6370A7269B38FAB5DC93D80ECE081D5541D00ED046F665269CA132E9734979861134C5DECB6F97E5A29A738DB4ECB9FF26E3E4103CE4F9329A8BE236A9D4D87B986631BBEE692A58A71B5CC1F9E21282E51A16CA75D42C34655385C56DDFAD0A083A5822C8B732B692771B8C1EF7EE4F9531A415E96FC6D6E52FD05AF000E68FCAE2152D02F1E099B574E66855B4FA9582193E6013E37B7A968266D1EEF651616F4DB296CACA6DE34FD93B6B3D5F969A7D304F1E5E61A637F76C2BA97B2FF0CF7BE1902FFB2E2EE2774B3728DE6F405D88705F79A453C0B690DB92DA0BE33F1DEE7CC57910B33AED535C063087EA79BC1EF355528FE77CA8B2DFE0A3E7F10752286F7A52F09028B3FCC52490DB2BDF52A42F58A226EA989DF6A2EEA6CF05C2A250E2BAF5A81C74EAB4EB3A58B2834C0F39C885981D236933C26FF56CE85C2A9020D9B6C3A65E2DA0BC7C906A4BA464F5CE96CCCBA524B9CCC8E4E216A3BCD364122B25C3EF1E17E3418F04D8FC97FF0DC6D18390A436C0CFD12173DD77EF128C1CFB66C69676485F238A978AB5827764A1F23F3594A336AD1921BBC73BB98158C5E289C1D59232BA4FE9D6AAC14B85D070D752F60CB1B946BBDDFACEB5F5FFE3CFFFCF759AADB3AA9AC7B21D4A946932A6B8D02D5053BAE6601B9B8CB1913E23D02AD62121DD4DE836BCE9EEE6010E2433312E3660A93FB72E1255D035C65E45653DCDE315B5ED70B3413AC6C0AB83BF2BA168FAD2A9425415F68E0D86EF958B9663CBECD6A9199F971F4CEC855910FBBF6EC7915C7EBFFE0BA204CF2D6E955891C5338A53FE929E04F30848590BF2AE7421A76F5F14AB2BC79809F41710FEB48A17318A48F863207588D38B307E9F767AB9549D9B4E77B5082327CF4DB3D5159F9F373BBB64101EDBD2B93633A3C3190895AB9E8732BC0CEE4AF0F6EF952F330BDE3D33CADA7A7982567CB8B4B16E0787B6DFA1FB8E4B15D4EBB579FE05B76152344CC1E5134A2964AF6AC43A7974E2DA28DE752202D656D87071E9AEB0B0E184B1F5A7EB488C09B7A8FC064E6FB51367F46E46ED4BF7E1EA639218ED90BDD5E25D843BF30285A288E615D98531C1A4043C5505DBE2212F985F724494F08A41BBEF27D78B3DDAB0FB578468F563693394E04AA7CAEA809D8CFF87AA45CF43D7CD9CFDCAAD661338F3204DAB45E5570ADEBE8415F4B6A88A488798FD9FB1EF505A146E80108320817DCBE0FEBC124A7C8EEB80B2E6D1A8597D227BEE253918BEEA1F4E2798A10B045C8F4CD276901F9809182EAAADE799B673E1917134E843D9E3C81F035FFDFA6304D01302556BB0DD8E0C0FB72DC557889E2562FE3B6E5BC4B7DCE5F7B4F9CCFD3C1A1FF5DA7E985664EFA322288E458927685C39CA56ECCEE8DCCD5B91DA5358D99FFFB73D5E9C1BF46357A47B276F516712B74D5012D6EF02B32730A1B612CE3542AA3ED61658E3D36F8A2F45DAAA1DFF2DE031E389B3F9524DF57863249656A23332BA965E71FD0A5E2CABB330FD76BF67486072DD1DC2CD52BA7640BA014E8FE938430BE6AFE257F09AD85FD3BBEBFC26AF362F0E13E11C6012DE27EF371C379E1F914665CB1D86FB18246351A2486701B8542D293673B9C883EB91BDC5E6AD4A871A2D8A02E88D8DB171FFDC9B0EF6CF5F677AB6C03CA1BDB4D6AEF2483577B2EE415C71472732959D049126BF57BE679807B2DFB7BA2CF43A6424CAE0670F29CE94CAC2818E27930CD1C044327D5B4413C05D61EBC13DE9A156701E4AA6E421BAADC01B3CA1DD9FCDDA329547DA75117CD2E8A6428477E65619655B9011F1AC4C27BC63C5C2C1161BEC94730C695962BFDE7C57FDD44A563C48E5DA8A26C4559C2D6C4C0B6679C03D7ECDFDB33DA21822A26322F204A1896E9117762A501065C07D74F1E8B055648147D2F26BC6FFF45E346FD444A090106A2ACF1345C40FE973A47CCDC9DAEB14AB7C97180A662713F8D787AF056C7E21FF82EFA02111D4716CAA1ED51544F539838873B148B7220567688A01D242D6C627E87DB70FF0C4305FD62C4CA267DE623DBCFC4034D1BB3EF9C40508E4FC627149698013DF096B453A91EE0DD32E385A3DAF9700638114124D3F97214CD25EC37C5265E46C969387CA3526EA30DF4F2C35993FEB42733857FF0808A40BF4A085AAB9BEF19F9860E27819FF6A03D19046AE25043105AC763607071BF3622428BD2C20A7BF612455EC52ECB92396CE858C50C86F550F871B18B2F4BD34AD097ECEE08789573A41DC6BFF4C85E2648389C8AB0BA744E6EB615107C887F3D080B8DB8D2A003EC889CCDABEC9377AF8511EFA33FE2AD2FC7D7BE63125F3B33D6FC6F8C569698AE59F5AAA3AB913FC98825D09576B5808302FE00DB1764FFAA7E12ABAC3512F070C544AE2518639D06DE003FF37C729AAEC02A0F8246ADED699DBCD65CE1543E8D57C0C61E1651AAF3B21B12EF803ECF8B4D82F5B43686D448E78F05807CE62412321F8CD14432783F89DF63279D502B3C737FBDECA04478FD72148BDACD5AE9B904AA4312773732CEC4824F0D4712CD711486D46DF5CABFD09B19AE95F219D99C1166982ACC8EE4E87A89660DC086DF7034AC771998420C26239D93DCBB53FE8C292346AFF43DDBEE286E2B4BF2BEC5F87B036D09D5482565F290EB32C5A4E19E765E8D312A9AE2778089FA3FD5FDA1A7BDFE6629B4660B7A5E739457110DB95567D842B68C238914CD2AA02BF85F52A981F10003C5FE8589F5CA9AD6872A1D46846859BD8B709E8D43993522D6850AD8B9355B29F7B099664DD7C6AF2F139380EE2A3B92EABA3F5D5EA4B8CF24DBD81E41D174BA39C681FC66DFB8867F5B1C44BE103C44200453D8CA0F1F7C30373A88EFE73E43D8EB7DD6FA1AB6C3CCE25BDBDBBDAACD98463ADE4B6AE95B9ADB0FB4DABE414EFCFCA07595B0B9E8B5ABBC647825BE80B155378042D27DEAB967C9ACEC83029886190F0D5332B3E6717F2A40DBDD9539BCB6506F0B355BA102344CE7959F3388D0572F88154B3153325A8F23B584E60497668DE100302D9CE4827B2B8E6A32DCAA810C1219420A69D03BC258760C14FEBB58DEAB94D5FE643C61637F003E82178CBBBE2BF76F6FC7CB52A0BCF77BAAF523453DA2A2C0BDDBE154BEDC0EAB7196B16420AAC23932883C61683093636E2F0991F4613AD56ADB59850E054417179B3D549E6F86E2EF0D363CD53F94A0C2D343141425AF9AA5BE8ABFBAC88E4EBE880261ED37C068288D89B4FB298968F6DD2CA5E4C41DB0D30F83F3A608D9242D7261E9BD6C49FBAC797935C4F53CED4672B930ADB1B63B16927DE6D202F80F4294B21DC39A22F00A8E34E15CE8A0C49E04DA3AC6B0854BEFCA4015AE65EF40D34D9D60038EBBFE0DB49A5DA764AC591F0C7FFF25063BB281425B4262739EF2381200352188DE5F8AB6CFF6EEC528B533706E36BB63FC3A35C0C0749FD9B378A0B228CBA9BC8184EBFF6C334B7E5CD30B5599A497AA3A2CEF0B25F73DA2DB839265F49EAC53484A921DE2982918AC7153C8096077985F6C2D7D49394841E613961F6FFDAD1C5799B7BAF55C6A2C9AB641F71B5DC38042472741CB891D3F9BF16D8F7D8DDB2BDCBC1D34893820F2C67194A937B8D1C561415321CD66E391E427182A0D98D85EE9453E02570BE2F6189D35153F1381190EAA57D1EA9113266D2607751F23BCD896C797DEA5C6C93801CF82D7E4CD94865343D64672592C2B0E73C5F0BEFA7D6636F1178E8A65C80017290390458615F03C51AC6D34A371BB2295057402009A770DED16149EB28844C0960BE3BF52CD0363B4F27A159AEE5F2B1112A3824853B4EF8095653EE8375EA1713C437E7C69FD0B56AA5458DDE81AE279C015BFD0A7027BD04611A1E24D8C41191E98FC1120F84934310B405869ADEF84A7654DB577CD43B402F1B8E9BC97C23E3E6C4BF158747AD5A634F7D75389409379A245A444D4CB7FCB55800E9908BD949B52C985E78C3E87CF816E203E7C8AE9D1235E19901528014A150E2A437651BF52046BB1A06D15298948A76F7A06EE6D69A70562ABB311A6EF12C28632007E7F314F44C245F5D3DD7CF4FF5DC2A2E035AA411ACC3F95ED0340468D5E9091CCA7BD6BFB96E2B0BE9634A6C20D59117C6FBAB56A58C9F974A8EC24DCC2FD4E22CBFE11DEC0A9712A0B44FD816208612B1D45E8C707E6D6EF01CD5E4FD578B739265EC0BCA2BB327AA645CDD28EBC30466F747CF4CBDA1CF1FD54880414CCFF3A323B1A203DD0DD9E01573CD0CDEDDBF09432E85D757BF8911C0FB2CA562E87C4E0A1A830119FA5EB19151AF6BC8FE26AFDBC74330F3C7F3C2ECCEB573C3D99524A7B49063A257F979F6B4D03D6569706A16663981D6ABE3F69E2BAF477EFA7CE1221F50E2AB0EEC17A71F5D948C4C40C37BFCB2EBE09B6BF116B61FEFE3A14D3CEE6BF3FF19317BCF1F24EA7856E51F9DEEC7FB10E0A2DE63B7F5FD80FB6B5835AD764A4AF8F2B5DA7E4391A218738C45FDFFF24674A04D2D3F4685C7CD4B8B7AEE31BC5E5032BA08785757285D758F1DCAFEF60697799B2BB57EB0306F1846A605460A5DA2B21371767B45D148683D61836637BCA039B38B2F333D5E12F2AEE2CC3D1C8450DA47A6E09B53A951D98541D05725B9F40F929A80B81311A17B3EDE22C5FC22B36378096A56B49F3670A8FDC999F30D9AAFFAEAF35D6F5E5DADB92C248F5DAFD9EB4CF5B4F057B1BB22D4FA8923264BB6EC09EB284BF5D4A26E640090731824517A86583A6F312D9CDD6BF9C08F20B5AAF4169D10080F6D1B79F3BDAD2CD074CC289067BE26CBDCA6AD778AFB4FC9EF60B8EA5960E29116F2C270FDF3033AA46DC8D8BD26D9E6083E62BCAC5E30D784073AE5D9826F675843FB40453E08F7E650998D5063FA6FA4DAEC5027D2D242BFF977D85A52FB80EEE421CECE93A8576257DA17D9591BC63187E205C75EFA9BD497EDECF1EDC9DC8AA364305B18975B2943838B4A7D7D1D92EA3DB676FEF487C6721D7996C9405B82CBEB70B9A7D45206DCE21739E0E38CE2434D3E169871651BFAB6A76350B41740472FC4B4F818D925AC9E42F2ED5C05D65F53E5E75315E5BB34C4C53BEAF9928A6E9EF421CCF0002136D8638390FC4E7618C11B2E19522E33A701D2DAA620990A49C69C0902C993678A3976DCFADA1F7ABD7B58861CF983DC9D089887AA54282E72DC61F806CD1B6C6D1718FEDF94A390695244A2081B4C7E14898E3BB033DABB20D00BC1A2EE3E08BAFB15AC451DEFC89D97FCEB6D1611698316415F09A30A23A3F94A9ACE774A197897287A6983F88E410F3BCDE54914E843A1CB2BB387AFE658205E0503DC4DDD50991DED979EF6122005D536E5AB99E0C224DE2A259CE4230BDBB2F7316E7CD73760E81D1E5E26AFAA9DCB2E95C1F08100B72A51BD1DD18D677C4C64FF663ADEA5ED3204A87106ACE04F61C62DF0D202545C3C62E18B3E803CD48ED40013BF321634C3797B909222F503B0420A643F4F77B67BA9A6581C4703C82CFA0C009EB4BEEC696761C3FD451DB8951845CDCE0552EEC770B78B6D3F0F06FDBDBC725F2E4A4399475B6EA61B744F9C55C7B959899FD864CC79F6E3129C7BB61E7DF01DD4636066C286D350062CF9D6CC4C4C8C6FA3580A2CF29EFE86B1960CEDA90EF5F45C8893D7462C48B98C3EEF3DA051FB0918B0B3CAC58DD1C3B399934136EFA62ECA5F691C755EC1671B1268027054EA158B8198E1AD6FEA8F7190CC416F5F0866BF1A4703AA5543A3262213151CCB7187E4A7B9CE0E7CF236F524A22069E330D2321C855DC0721483E30781ECCB71CF5B81B121E8561111B4FF95D7289A8E73B94892603F944563097CCE8B11885EB8FF107C71B93C7EE809EE3E8AA5963ED2A775B95AB8ABD5F468183337B0878E01DD0977E540B81EDFE9F7E644A9D5AB12D6B3DB9D2C5DA331FA169AD1B23DF2B97818173AA491827A3054B5DD9112CAC0108FE1189AC0E6AD56C1052EA82A80FF4F7D93896D7B8822D547C1FCEC3DFA623448BDF54EF845F3C07E6568C68F59EB7710954C18636DC61191D1D712D7006932EEA30DD785F246F0D0771C028D8E9C848733888CDA178D41B850C16C793A6C4C439DA83FED15BBC37EBFFDB03CC00A73E666B6FA7A2C1B561D9D1DC7C234D66DF5C30DA26DB7D147302B08C35F42367B76428E122D15C761AEC6629395F31713AFC18CBA92E7BCD9725520A1FD38C68859160B342B41FE6EE38BF25FC7BFFE02F958150E9129B45216D0D6DC48102A78D3DA7EAAC4E884410AB76CA7DFDD8D2ECC76D977893D52483AE61DB6042A94E9E5F274E545FBCDE3C0D67A8597CC846813BCAB0D21EEA893155DC31AF91F346030F042EF11BD742A3B12907D5B3183AD01F9B492D284E70F762EC0C4C4DA59480D7B685737409BBC37E8B402380CCBD0CC7EFC6D3A706B8D543D2028FAB773D34707ADA4B6B525C15936C10DCEADF42FEEF41C2C59774632AB482FD201DA3997F083593A714FA9AD02477D797ABE1751785066A1C178BF1FDBC68589F41C7053BE4E038635D87E6EA956B3106D38E072087A1F98551B5ADCB28098AEA2DF30C4883A5987CF02C244BCAF2067A43EC8DD80B22130CDFBE6B70567937A649A3ABC7DFE65B22B54566779933ABBCED5A287B9C013AC48DD02AF851E5045DBD3951B675AE14554FEBA62C572575944E3DD21F26BBD4DBCE3B2C0AFEB3437407C38987582409701943FC30220BF41EFFEB405BA4893E8080BAE333CCE2B71A6926A68033A20972D97E1C46F24877EFEDF477AF6386315C05E8680E319C08E7D68BD6BB74E46026012FC1120695CC4CBBF09129E5BB0C3D864ACD65F1DE87E0A887D3A69AC0E64A6D57C71161E0104B9C75813D610AF844A2200C5BB208B39F4A93F95A1C7E04A4E901CDE1FD24115F4BAB849603996B0869DA5F614AEC7A38FF1AD16A2FD4409123B2ABED9FF6C47FEA20B1DEE1349E24E6985839E6F54C44D8E7BD2F4F7A0A186A74FBA74F22E2E9856CE5544AD99E770A89DE35E25B257AB15DADD79F276725ADDFEA229C2C14D2F0DBCA8774B611129F5E23FAAF843D87B7CA1036C73C818C35BBDF31B19BBC3ADED308354D4BF58FB22B58400B3FD5AA7C63A799CA57CC751B8FBDE7C7C672EBB53AEAF8DCAFCEDE8715158E9625F03DDAF45A703720AA41DF6EB67D4CCA49A64E86474CAA1E630BBE608F89ABCB7D8B8996C3BA9993AA45A1BF2E2D3D6CDA93FBD5BB8ED39C9078FB303F449629C9E32B44B11E08ECAF9954D4B3C96BFB3A311A4AD6C9224D5220D7A8CF9D6A255D5A9E9EFBFD48C993217EB8094C15134EA26D5FE44C159F429CD76A6B04F575C97238EA22F25CBE39CE8A2A2742978417D2421FEA47588F0F28DA3D52DD08E97CB0918FD8B20134166240054851559B305971682968C0DE0A53F6ABE0D8FFBC9D0C3201859243A5A339B25610A6F7B4404395D12680F6E05D45B38EE00BDBC71C4A91FA2DD922DCA7CD16B9FCC4C91D4D82288A1624629AA696A356668E1CFF5B287C1C06F151098232F0FB36FB6A1254A092CEAC51CC1A55644B5D630F075F6A34876DBBF4DB2A75BE630557204D4C3BA3D1FAF05806FD1F352B6625C87B2BD20C45F3569A7F85801DAEBEA1773B2DE403210A16EA1A5C317313C7B8F04FA9C537BDE234BDF06BA306CD64A369B05B710256C8E18C393E21D85D031E5F184BA662F5B56EA7339AEA22B61BCA7D2D3328F58D3655229468E59D9B58714F5D3FD526D0506510D471D203BF379D5AB031D389873F4FB3528AC03FA22DE90D7B1DB18B5190317D4253C63603637574F471CEBC323D1949ABCD8DF5594C462F3BE85AC8CC48282FC46026BC8C9AF2A8AFD3693BB400F110F4D9F5404B8FA10E9AC444ADDA63C9DC69297EAD3AF905C46FEB3E03E8968A74589FB95B129877E3FE2C39CBBC14FE4A293545CB3A998321BE39B71DA299E940DF00C90D72F61BEE56D7A906A36086B999C638B2F67759EF6E4A49DF0F8588288530F3BD8E07CD66295756D98FC4FDA2BC501D0DBBE46DB72A7ABD4153F8D8EA62385E0BDC2B0BB561183429B398619CF7C681B77A578B855FD93AF8D69B6F603021BF0E6704455D02CFBAABAB9179EAEF39FAB85C70A8272271442C81052C5D0640AFF39A5463AA0A5DCE8474415BD9B88FFE72D5B26FA20198D6F798E17EBCEA7F5C7BE810FFC2F07A93B26F14F4BC549225D38635526E7322586BB96F00ECA9CDFA7F7A653E088C43DE6899E29D25D349877543A80835A6EF0242A8F2FADFDA142A9AAA1B2ED2F80B3FAC8C6B76A1C0630A76EB324CA39D2AC20D516165064BCD23A978358D8174F8318AAE87329067A2EE7171531A4599FEDE6BE943F0EC5EE74FA22FED4266E19BCB7F945F54D5978AA1428470EEEDD27B7878F9F6C44CA28D2D16352A62C771435FD25D81CBE3F6536418D28852431003A4575F7A791793673C284592BBEAB32960207279CC03BA204F646E049C0D4D5E086CCD917EF3638202B86401954CA19AE0320E8EB4561C0D1B8EEEAAF8873CE87F30CD89C714241E8AD696BD1C862E49E4E579833A5174F3EFAB4AFD59696768953FBE0DBA0EAC0A00D3C60D5A16AF961F1CBF0EA5901C114CF8811D7A48FFD6BEE99509B755411F60D842D7DA84AED418208C3D21B3AE4C4D98EE7B9C71950A8004CF647D64C0E2C779F6A6E489A31E5C21259FA0F39CB12CD77B102D4A9CA9B85265E5B1F814921B4A1B7E95C29E2F330432B9944D2BE75AA3622B35C806BB16F6C11D54E2B335F35844E093758963A79078159CA3A9FD4FA5C3C044EFAECFBFF3D0FACAD3BB7B13D5E4540163E3E7C74F94B4F3FAABA6850F53F4B4ECD7D0D1D9C7568489808DBEFEE551CE40D0372BA22C497A2B6602F66D79679E3DB9320D2A071653AA99385AF3755E65484501066C8A4A2AD15F1B69A9A5C28B02447E175BD5BB5A0ABC6F48A9E583FBA3F3F05CF18353BFFEFB98F0515231075E4D80D819F4199E09EF319DF779BF241C13B177C35BADC6C2392EBA04014440F0DF247F103BF71D7BF69D7BD8AFEAFCA2023B47C858380678CF5120862D48E299621A713F688094117F5EA70BC3D9CC7156E14D07925CB8208386670C6D5DBEC7A8CA84C6EB05B754ECC23EBD30BDA238AE63465B81FF4595C6D349A5E055AF00CE6E4512EB3DA28D430045DD974C203EC9FA211961F4FD3262576A8235C976B36F5F1323C15A221A16D5C6AA76D120FFD800FDE0FA3D685739B348B8BD8C9A30A87F04284EF619A1DBEB456A486145B72A55F2119BC81ACC93374E94DC76D25E2FEC6EC2DC39E8721A073D1381BE70F18F90B1278D7CA9A469A910292FA33E6A7FDA3CDE089005BC83438F0AC5D00CB0F825F7E970C8AB22A00A1135666BA34C8E59AC6D01E8819FFBF6383D7DF54530FC5804B2759A3F00B4B3FF4E625E7AC39D235AF31930B7A4442991A9694BA471174573FDA270B44ED771F81D708C88B1EAB1CFEE42AE90C16DD518E122B188FAF9E930769C34AD18AF448B1BA43EDE44C65458031AEECE3534AF749786D1DFBEF28B8C03063359F7CCD2A4CF6E220CB05413DDCC1B20378238679B2310485B8CE0E0FB8CFF9193034EE5F15420E83288E8EE715DABD3F48CBB86C802D14FE993D65DFBD9A232648B2E0452CD2F9B51D23EA10516DD71CB0198EE8764F2A7CF82833474A5AB1FD395107E67A85822B51B2C193EAC7CBAEA608B4956A8524CD09306F3AAE191E7BC5416E0FD912045C21C4DE9F43C515EE60EA1378C6C879B9B84E34674D81207E3BD4139E9627D554A3E1042DD9647AF181F5E606AE67120ADFB560028A1E90303CC60713EC08E2576F746606ED9DFCC0FD72877EB8267CAAF787F6E75C82DEC37334FEE1A20C6C142F6C0BE68A7CE0A95309779EAD0B1635F454D0AEC1B4D28DAF5AE5D274E4452969D372B109937447F0B06C5B819FEC39EF563FD145E02788CE46EBA337B898E4A98F16DDCA6B018B1B3B9125BC3DC8D966CBFF5073CF4B7359BC4E204D79B9B664BA99D046B50F75C9896E6123ADEDB91AEE3292ECE965F3980AA08D7206930851F82D8E8F6140AD1ED9CE1895F5D7D94FC555EA8041685E03202707142DDC590F00300AC8CB7E2E202D5427D27D5595F865FED39B97FFA47EEF1B1CAAF692A042140D4B0A45255E8D9D05F50C9B6AEB807BE0A1A66C41A0F9C0720DCF37646FF8DC0133FD90C12033AB49C748A1F0668225EFD59C6876A6DEAA557A60BA84959A639E9D186CC98FBF44EE50AB9C644799017366EE173788D173AAB4B8BD0354245488F84A06887C24CE2645C132A12FF361810BD99EBD51045ADB5A770961FDCA37F665F0B6F109F6AB66F8CC1A28D0E9E0730DED7366A01C33883D1AEE6B4A5B1648EAD2ABD202734FF4034814783212F415C670B536DC6AD7ABA8FEF303A91DBBF86668C364C4CE27FBC89CB409B7A58F4953A87A8AE8EABD4DD09E0EAC6D85DA08AFFF2228C202C5A35E893D9BA992E80DD64520DE882215E0CBD60E64DF1D3DBDED7DE3A724591B13A5CD5F2B831253D79E90DEB722C81F4F2627739D47D4402AD1CF61E3463EF774DD550BA779F5507378D8C282E841AE68BC14D473FBAB34B36E2C111EDFC49A9C30C8E884A504E797E25779A48D71DAE17D16F1931E3365D9DA14E1FE6FFF85168E19FE6B45624886CC031F810127FCA4A8914AE5C5E56F21750B591BDDC02FD08332372F84DFF8E38FE16A652400331A106748C57B9EF6C06636AC023EC10D4A58EF336E6235B69CD613EE8C80C3D9DF6C152899AFA08C631123F72D4609FCD7692F218705D49A6B7BCF19B1D8F7A9130063DA5F2D0A182406715C88A3B3C5407A6124B3EC7E65E5548D20C4ADAFA64795AE306A55B97A83E729C0F561CA2D988B5906236D25E66788866F692B7B1DEC4449AAF5C6DC483B59F5D860904CB69A7BD6611B219B0774F9FAFAFEED7A000DB1CC77D4275E9E2B49B298C14D9D0EBD69D784509B9FFD5947938E2019BC2E19D7703D0A625DF967A47AD16496AC7E89F2E80713807BC1FE2666E71B9A61788C396C512CA489694B989ECA65C416F3BC3D90089B8D5888CE742460A467BC26BE9A045F5C1F49098E634DC4BBDA6B0D35C153CF6394688F775170C84F9575A1650785753A30AE96158913EB737A68415B2CAE5DF5B6676740E451B7CA85EF963C37F1255A7446A71B8075519276E1ADC182655364C945686C524350028151E1D42471CFA19EBB458F47C039610DF515E784EA6F3A89BD17419D220C6B23593E83E6CB2D1910FBC7EA326DF8BE9E8A6121E68BD643A96741F59AB4C189A22B014AEA488910522E335441ACAB6C97E042E4CE2FF7B23D86AE55767E3E890060741BBC4316381841E4F732F64E05583288270E6A65CDDCCE35DB83A08596A63F7AFCC9DEC9224406A4F05065681D426ED2B52F25FC028912F7D6B77796625BDD00030B174E9AF3F55598E831F39FF5455CCA75587AAB2FB5B3BF25BC6632981B92FC5D6759778F2E85AB1EA0D8D122043AA6F68460F92BAE2E0506EAE4306AC7248E1DB3D916E1C13A0D57F8D33F06344F66ECF161A1724994FA69DEC34761E08678093EF29634C2FA544D1807D39918B4901F085EE15ABA136FF2DE4E9434A51CA02C8F64B0DE3575FE353404C7FBA1602AAD80BF4CFFD090B15B3EF6639B2F45D0EFCAE4AC5BADD6EEB5209D5EA61B05D33DFCCB5DF56EA3CC26EEE5818878627852A12B9F5146A7FF0BF0710B40AB29F0364FFE7C1ABFF812D5623739A7A63A1CD07AFAFC0C5BA354C8D1DB6D5FD337B3CE6A26A1BE24F8CB1CF988C31A4B530ABE90DDF2F0D1A3DC7B8244AF44F639A02FD058A947269F7A950F1B4CE1277A54A69B01C9A8874F426DDD0D6C6B37E6779CF091121D9526688EB3F85E0EBD1FB9278204B1B4C3046D2C25ACC772B839826220461FA4336CF9D3B83C009E89D701E72268EA237A66458083950FB2BBC512A42D58ED0A1F7CB783C255183330B7FC983566876DE63561DC9AA8944B76F1CB5D1C09CA803940C33C8C57A06E4837AFAF39483307BDCFC847039C6DE365B4A594E585DC3C064458E05E0193C780C5FE0F1DDF650E6FCB89A530B89D0B66AAFA6D04C5D29CC4F9E168FDB6417EA5192B0C7AFC0C628D4880D6F8AC0C281FFB764E57C36CE3563150ABE60B916E548CEF4B0815C2A3F0B42E6EBA29AE195CFBA34BAC6AA9CF2844E3ED8A23B1A41D378A9456ED052D08A9D2E9B21EC2559A62124F0D2C42B2723F422225C178083A5485FFBB22FE81B4710213100F967D4AC9D35E19DFEA3BA20B986730B17473BCFB6FC4F6E347304620CF59CFC8FD2D857E6937FA570F0BA966EF89A7D71EF873ED326EBA4B3BFD64C2D16AABD8EA3962A9B74A49B89C23746185C4292910BFACA85520D3217389F45CDA7D26A21629F54A8014FEFCB7A65E1822D51C489F90C40C573EF03B6B08F0A877800822655ED0F32138A13DBD2905CFA0FCBC6DFF5D2599B3C9CBDEE3CD79CA348916A514417A43E4696FE4122D5686DC3BA6C0666FE5FBCBD364BEA5C912D784032F1343F1FB7E14CDCEFDC91B81AABD079A105639C2FDDF193C7B275BE240331037845BA444CB3B3F63037723B4F0063E5F1A585D59268FFD3A76A621516521A97EC5E87E3DA6C9EAC2ACB359A7280AB8B2805122B4C1B43EF0F2C5638BDB37AEA0AF4E1619F8CEFF18C896B1E32EB5B9F7CA3E967B4F1963971B5B124E9C47467C84FEFF273010CC5673EE1D58E9C908A4371884F236FCAE02EAB2AB9E4EDB4F8BB5A5D218B2BBFCAD32A276A979AB113A6AF05959882137ECCCDA89080E5E1F4BFDA982420EE75AAE554E70A5A47B5FC3D8C388397A61FB8BC0156592B5AF566F4DCC24402A8D8C8AF9F9AFEB64BD7889006AF330C08D070EE74DC449F9863188ED48A8A4286CAD67784D77A93EB7F464E9F4BDE70FC33EE4306FA16179A696ADBA1CBF029B010BAE3D543BFDF7116E96CFD667C16474EB8F0B0DFE8FEFE52C3C107E3825E89335CD0D773920C906941131A335C673012040A5094B0BDE23498627661B7B2D68CD911CF79CC7E09D37B8D1C9CD14669004F7F79A1AEC961250E8D11941BC32B6B46E06E43F1B01C03F4724723CBA0E184EC5214AE179F44C55D2A35D975039B39A17FBB3C470EA584BE0E15A57C3CF75EE2DF963D3B5E22BDA33842FEA15B924F365FDE666013BF61DBC803BD9EAC55957595AE04791031D2143D9338AFADCDDC56FF5CB7A585D40F83554632E4B45B9A899724891C92630AD518B08D4422D03C1CB311781EAEEF4FCD55CF69FE679160C9553C6CEDFE693D9C98EEFB5F3363602166762AFE3BAB335012312FAEC307C09CDD83536CCE94B3C83B2D877B04495489F7DAD992FF151C1EC91F51BC6C22A2741DA42E1604FCFB027E8ACCD0FD89BFED7F80BB0CB11BA3DDF270AC64F62E4E232F644BC2FC128E25A6CB17243C9E3029B60EB922BDEABB4D94EDB83DEC7A4D24A2DB79DA477CA6E7917F61A91BCD90DFBDFF9425A54710A0037D913CE09E1B3E1F644A76CE291FC2FC7A9F5A4AAA307A9494CEA8D31530D6529E90FD37E08095727BABC20434666852D0D4269EF78E0550E4B9967DD7C42CCD60791F9794F468CB0EEDDC81A8477BA36513BFF1351C38B1A4F3B21B72D5E9299259ADD5407EF8154EC0EA5507CE17031CDC29CDDFCF34DD2AA1A9440080A13F1F0CDEA940BBAA8E1C5DB4B68FA05F55DF32A68EB768228584B31FD20AECBB3E9BD59BD7813FDE5F19988643C7D19F35F01E6F5286986615EAA626AFFD82E262A4778EBC35616AA75C939B641483E93D28D120D4DEC7D3B0C55985785A99CD6BD06C0CCBA5EF8EF83B0072B86AEBDD85BFE32127EFF3F0A94CEBC175AF4EDB44240695AEDE9545A6AD7B0D246469F1E8DAF0EE0380E3351ABECD739D5E33C23EE2C0FACF26AE7AF9748A8B507EC0E75FE0388BF0E128C4F44A59AE91C2678C80C1C523191A4701F966A44F748950C721D3CBE01F55C6DC96BF88A18C0599EF72E0E5669E3BA90ADD8570C8AEC44769ABE306D4C2272197B725A7E7122F4B26E4A63AE5CE061B018C03C484F651B3C781128C6FA5D500066FCC21F514D2103D32571503767757B3E33917ECC5437EE3C1B13732A4DCA0870DE504B7405AACA99C3BB4F71010C0EE6681B72387EA61BA4FBFAFCAF764E89DC3DF8F971137023349A772F0C3E81C9281E52041ED22F428C2FF178D04DCD5909CBED3A4D411892F27D5A7117D90462879BE4996A5F7DA1257417DD7191CE6B7D43D9CA404B351C7195B4FBC7672A3CBB75A413DCE5A9344F85C4E3CE9DBA449686A8361728CB373B94A852970666C0AB30E22297CBCC1FD4A2018650DC186B0E4D9AE6510FD602F8795DAECFAF8F6A38E576AE12AD4F123F274019B8FB9C00771B65CDCCD6DEACB138A1BEE45C0E956155F390F4F621CC85D339D97C732D5A67A1E5A0959557E95D241B457D026387D82BDD7C6A62B3AF4CE1007DD3EBAB6C91CD5EC2C88261B070E59C06FF41133DFF9F81F6E1F0A70BEBCE1E094CF0D9D155AE9953A7AC3B1B7936DC2AF876C694981F5C65F3B02101920FFCF887E36F1F4B7A82FE32EFC8FDAA4926A301CB8E15FD4A2AA7EB34DB288A2E233A6538C6AD6E80B504E77307705F75341FF9678C02B990F1A5A6764F45883F8249E04AE69BD34BCFF6CEC4ADA1B3513D20371029DFAE3514481FDD43067567CC4BF8CA0E584B4B2E157E8CB2E21F5F950FD210E6F82F36ED51096A0C29CD9E11EC6C317D4D089A091B4195A659C35EE9981502B57EDF932D910A79FB5FD95C1527BF563E72828141F774977A91E4D21E754E318C0A0D156156DDE79BD6BFD4186686651D401A8D645398F852E6193B3794AD51DA05FB50B4E2C493E5404BA0D7C30F5BD6A6E36BD991213F44A33D87CB416DFA4572898E2F4E62C68DA747414FBC46A9E18F96EF0C2857A9B55726A8B5DB85E3B45BBDB2654C8378176FC98454504A332D5E171B4027C061D293A1730B5258C2BDD72A6CF5E2D4A7092FBF0C95A495D6CBED381B4DBCD72FF85E0D96A125B6B41C951C16578840CDA097E1278BECF04EB69D26761F493686C524C1DBAA875CE46DDF85CE6AD6937BFA124D20BE5ACECD18057EA364FE443EFCF5FEDD72658CB45AF0A71CE77C307ADCF7F1DC8498F6337557C8F43259BC90B264779C66534B74714F8E45293660FFD9F32B00644652D8D94C00E9024858AC5D3E974D9CBBE61F27CC6D35806D4F3391C492A3082FCA22B26C913327D13DE67299AFDEB75F5A6F5326BDA2CE2295AFC525CC049819931261A91E0405781C7DE6861CE2F0D2AA9E256EA533980BA15FC0994EAF19EB9E48986B5BDD0DDD688A71C6BFBBBDE6BD7512E3765A69C47872912D129D4CFAB1F483C505FEF08B9E666CF17E6F62449B88C052207E15B51CEA5F0204E8EF91307106D6D018AC1078DDFA314FD9DF8FF58C51F4EEA2A837F7F66276C57A26D3C019548EA33A2F3FB942276E75262C037E6A449F212044547A14E5197641A6B87ADF845EF464A4603E0548BA941371BEEB4A17BB5236EA8522B996E8ADCE5282F8030F58C8CBCFA541F76274DB5D2D5B2AD18EC0B53F4515D02C52562E87B9156752A94E6BE8EBB1CA8A829C413375980FB4D58AC608A88501BBC4918468036DE5F00D8B28525421B33E95F6F61F79CA6C363E2D057AE436DBF16F72FE82CEA7621FB4E41CB3BBAFB299526B633112D55A41DDE51EDB079F1555BEB886E5FA1875B1EF12795AA95C6D0754B36691867548F85962F64C8BF01825A0332E685491249B06FFDE020DACC446B97702FD2724431BE234A9E0B005B7C5DC09A55F2CA21AE9E0DD1EB573271AA95FCF7902D22C6B31D527835A61C56A6EF1AC3DAF1E4C4C7EA651314CDD766F3B0D394706712521E32246C3E118F5D115709BEE533F279D5A32598C27A7EC9BCE52290EEFB4170EB4CC4F13A2791A3EAEB74A972F1B01194D4D9984222F8E4AF7DA3B4BA473C2ACE7DE4E9317C9EB1B7D78287311C4BE3D5E33585F6631788702E8D11000423B81A1D551E1111358837B6EA5A7FF1938A69CEA4DF84D5AC2FB3625C8E8146D50275540F16089758BE55B09F94345831B8DE3D1393EC5E2AACF81992B4DB7B065FDACE04C8218D4393B70AE01E8D4A13517E555265746714FE83394FABB84AA71C8F4ECCAA49F838FAC05F929B1566F0B3CBB2EB6E3B75E0379FB1D5BE5C5ED42F4204CD74447E323B66F352667804E3A5701C7C0C4418AE12C81203CCD29413A9F56A00C7D17C57C38762E3782135699955E6EA70CAEDDDFB6ADA6998A89FDB6B903810076EF06F54EB7FAA5E86502FDB3B983687A168B8CF17623CBE14FF6955A526A5D49789D514890A02FD9924C17EF122DE534627947F6EA675EAA4EA228776F3B2C4F28C877D25CDD7174129C231DAD8EB46B97C0BFEDB660A24320111AFCAA00FC773986884EC36B829835B68A20033F92BEBB9965A0B82304C61BFE046BB89B8ABB3A92C04B92CB46ADA2BB93CBEC10C488518B0B55A3060B473D708A84617326F1F53DBD8A657C52FA1D339B4AED604BA7FAFFA2F28340593128D0ABC8CC888AB432721A7E1B8D0B67EB05B960F257E3A32EF54867008BD63BC0E34F93DDFF39B3EFD2EDAA0C9683F8BC86B47309C9092F7023E8FE7EFDD23150D04A67F90B66333F206B3184D2949169F5A316826874ECA2074FA8CBE57CE2EF82E5A8CA6C9E0E08A2B120FFF8D293DE56DF227E387E956C011E0CF33513D2808F4CEAFE89106371EDFFFFA09BF744C39788456104517B3D9FBAC2E3DEBAA58997775781DC015C98A2B069D32721F1E47957F0C5DC1F3B1A98369C236548D1831179FEB33F7AFE3143C85677D5512B9936AB0C8276BDFBB230F2F5278BEB52E91A60D3FA4A7DE9A60FBAC4B4BAABC8BEE8E930C18AFBE4F30740D12E50D54A14C6F722168E70721A0766234542B853EFA137B0409DC95DD65A5E9A2CCF1832B7735A3E42541B1374447A4AD43066166ADE0F97FDC8FBFAD3F536139D157039C321E4B48E42CC0284026A8110BFDE8102EF054E65828FE337C41975A1433F5BA45A27F2B7B5A1E4DF2DE747D78F15AE7232CE5C8C580823932BB7B5A2B44BEC092C13634A7D5A8B6ED53E117A2E654F7219C9DD8B9E2D74FC86826BC3A64DF7B07D8290779F1CDF9DAD56E578F00C417EACC0084B155DF279C89341ECE40F2CA0E2AE76FD258CA9F8AE911D29992F86038FA5A26DEBBF135ED87C1F1BCE06B35EB19CE4A328472E345ED1EC93BBB51835532EBE7BF9CA39B26A9606C358BF2A10B587BCF39F473AB90F36D2F112D8F83722B8D65DB89941C8DAD0F682ACB6472CD98383BA5B4DC4E1C2E663F359B4CE50D1F730A0588210215E631CE04497FFFEAA337A8DE78FA9F7425D5A3DB460AD2AC3EEB76BD487BE4DD8ED26D315F5FDB31FD4BF091EE34C1FB06299435C8C2F969282130E936AD9C01640212F85B727853EBD0E155853580928BDB19545207D7D936FE726BF5DA04C8D6C89FA4A2B229E3991741D9AB8DD22B0DE7BB8C5F8CC641B4B991B2EBE802AF14647583B1A676AB9817225D80E239CE0552DA72FB19089B6AF9A97F2C4C102560C0B7AD1580DD592DEA71CBF0136E6E52C3E5F2F7A9D5EFCE1672FAF4E31F17B09792959FE095B42F34EC829CEEC41F76E67E2B1333CFA142AF3645FFD0C02617DDF977E8790589D348C21DD78ADCFA4021B6B2BEF6DFBABFC76ABF04CA77CFDF67A2EC925516CE7C2B9708739D44132C0F4AA742D7A101896EEC501ECE4073BD945630ABE6D29F0F2BE588DC9444E32F630E081A1AB93BAEB27A22E7ABAF46F45C3E4F0710D34F0CC2D3A2EEEFAB72C586AE99D4B2DDA9ABD309F149AB30C295E6BBDEF076296704A1128EC741DC142CC865476FA55A421424301A22917CD388ABC77F075024C5DF8A8CCFD6192C3BE294081A2888814B8F3EB18F76CC8F96CEEF950EC3D2C99BEEF41214460533830086B1F12354BC40220CE809793E6A0DDFD5D24E4D8F11AA477848B46B07A44D9E992BE0177C03FCB2933B7AAC58153E8032E31DD7BA440CF577521E0AA12872B32A4EBEF58B5BF73DEEA7D36B71379DCCED9911466189E9E567175D4BE1752E305939ECA0391C67B780F1B550575FF3F8C442A080E1513C39733FFB7195E7053F179C06E4E0135AA9A1A86B017E919F702AF3371680A8C8A2ABD00BF41DB61913ED8DEDAEA2EA9E62700C3AEFA5B1141736FDB1A2986E4E171B6FBE48BBE8581B5F782196FB5D22CF46FC7CB5F1E3E743A9C0D8C8F244B9D699FF0B555E38BF4CE4A98CF0D3C3332BDCF929AB0328DBC793D1AE15C3207001DF0FA87ECA461828190B29FA252E540EFDEC47431E9ABC32B2B222D087561A871218960E5E1B795E86ABDF89D5592AD439C0E38667CCD9DAB8B9AC2EFBC9FE287644B685BDF0DE9F1BD22C20E7DF344B434CB4A7CF1A1E203D9F08B04E9AAB0F2D3597A2D758BB3A23BECE98475C0C5FD7616E4629B098EA5E4441534B6C934A4783B816D5000677DFD073B713A9F9BCE58F833C759F3DBEDDC9DB453FF226343E87236F6CDABDA88A5DC6F472ABF57C3F0C6470FB80DC5D46369818E9AD7344D12BAE3FF1F0167991BC64E938755CC1E1B5A53B60255D6E8FC1F1038400CD48971D09ED5DAEE914F9D4E1E7970337CE13467F04D744F3810EA36E7CCF0AAE3FB1700954A79ACD5DAD9FE10AB843B85A70EC2D722588122385395F45022CC029BDBB8FF44FD2594BD763C0B9F6B04C83EAEF7879A1619F1BBD6BC5E76EC203AD482260D2D659F1A3DDA306DBDB1DDF1E81B9BE0F556373B3D70F34E46E80A8FC8AD20FCE22DE46DD89B0E81A06C6C0C6EA5325CC176C5AAE4A25C51D5F83B3D3F608A46699D2EDD9CAF45DD8691A906F1016CBDA2FC6D46D821BF752F12F32D11E4D075084EBECA896AAC0061AD19A2E1E93F190CA04B9BEDE7682BD32A6E89EBD46806EEE5C21E6B46AF288808AEF7435B05A593A1A7159296B07B7B474C15005D1EE6C25DA05F84208CCA88ADA0E6058CD8B1AA4B399E1F49D1D80DC48AA8AE7C2DE7EF91EF6A612E5A0EE85FDBF0D09C3FB539D939DCFE6D78E8A05971A3A8174D820998DE3327F154D392C38986628F2C4350212A5708D4E3BD741FAB826850849A1F2D800BE961F8B19E48948E1E9158B52C45C6F5464222401FF386DAE0DBCE9D18B8FC94D55CEEC032606A808267B3BE64BA79FBF23E2A2489E89B230A7D3D74A01F69985ECC19CEB20052B5488BCC7094C0BB7CA42C6828201C1B295E44628F68FACA6C548297E9E5433262343703DA10CBEFED3BF5003A05A91B64E0669982D132F25C246D31D102A4B1EC14E3A323D8EDDF1B6CD81DD56EB5E40A0C6DD85DA674AF2A2D176BA93DF2FB5B8F084282882B2DD3520A15095FFE203CDFF309CBB34A4A709BF55A15DD1C2632DEB65D0DD4F9A9BD8687B047D5B42CE5FE344D1A790ECC49A56499148DA49C7736FEE37B8326B561082BC1ED3D07C266C746F452133D922519860028CB2831368A0B8F083086B15C736321090DA36B6220D8B4DEA8FE5F5E69BA0DF26B8DCEABB2C3AF17E00EED6580F3375098542E340FEE04DA1D42F67DB13F413B6FDCF05A28323EF736D188ED377C9C2BD9C2E9080D151AC87C48E6FB9DEFAA91008CE0CB537C27D4CD3D3B2B43A4100EC37A9BB1B36B148F8D1322F27572EF2DCEA8F471425F9E581064C754538F48B95328969CA5E38856E4299490FAEF46A31C919D589C36D6BD8DDF8575E522ED807E8472C03ACB7011C1491BEE053963C45A13D7D5A0BCA54F577C3602A542C53B5D9DD06E991AB7ABF6727EE3E5803F574EB7F422185131A8FC7078BAC460AEC2952A8C76584B86454B8A09F7E6925CCA9CFCB0361902F2FD73B825BBF1A2FBD2615F52EB11B8A2350D43A9D1D3DADD7CFD86842C8D4A59008F4487AD63A328EC28296E2E75D338BE3C83D2E64941A654E7A28ABCD85A30F9A435F49E62FDD405EE3B67A6F5D06AE29BEDC3FDD0F83F953008C0853315360528B1D55DD9A170351F0355DD879A2B7B3779E96B1266FB52556B934E0D18C787E8B6CC631D1DF2E6A990286915098CDFAA6B112C45EB1CC8ECD76FA684318482D5DA008BDB103A009F8768E1E3C8500364594F590FE8974C5296B9077B07FDCB96F08E115E37A6018966767AD08987B34C0823FB513B5A901A78085C090009EAB78CE3D69E9E10FC18D360B75687FC0F31E8CC3072AC8D10191492F2A07A6CCFF724388B7311219345B7880C1F3909D33D80E0728AAE059CE899E614F7C33BBC7A5B95357A753EC2A34B9A89511C5833675D0C9FC65F572B3B00214841AA285E24423CEB8BCEF589E123E2B67B93EC5E0F7A43E40C0CBD14AE25A6E44F8AFDA355EEC0487BCB8C6924450B8001BECC9B16C77C080C0D03AC3D1629B133D88B64193820C175D78F01A4FBEAA51CFC1EF600BD9C3D3076E6B9CF11E9BD83A502D9DEA4BD4CE2EA012A5ECB745050C959939CB4F48E4D45558AC891434B6CF0098ED185ED4E39224790B5C4643C279039611B8760C2459EC0E2A7768F927811F9FC843B98C872FBF905D8CDD69BC61449363EF8BA94CD3F812E55A856D4551E8640A0883EA44F206F0BD3C4FFCD23606F0F7626540B5F691EACD858193DC71B59DD9A3F29FB4FF4FD64A1C354272B13FFF45D0811B361011F71C85BBF4BE4F9582AB619711B2FEBBB6C7DEDE60C843DF06BFF12A099CA7ECEEE3B2361C6083412CF70860190C17A53D574093D6A6894D331B0EDA9B8F343A972A5ECF51FB7A32C4267896C9CFCD87024F022DCFEA4A4370834141F28DC6B8D51A30227617363F5F264582CA24E5AEAB48164E772B85882B5CC95C050B725869C33676DF00AF3E86710184BA2E81AFFE2BB4355D332CCBCF7C09A784FC3C7FEACDF68537C812FB7929493A8C848CFF8C0599991A2F0443F1626DF47E0C6DD03077765D98D157D7C4F356717CBE97682D1F5AD0CB672A8B6562E47573BE8F8CFA670B1460267CE057C1F428BA5BF82A2FC68D377875F633127EAF6B85ACB720C1050BC92DBC9F6BE60B6281686A7262D41D816B842E9CBF8AE8F461DA8813AA340FC7090C4068CE12037C5166343B633A282AB4998CC25239C79A564A807304EAEB70381BD718BB926E89725C0EBB5D678F2C76BC79410F36F0C73B102187A86BF8167EF97E6CA1EBEEFB1C436AB9A2186D1FDB3A9D31D9A762B58B8F412BEE11ADA0B54D6128932D11DC1106FECEC1F256430270CE60EB9F644281DC960D7F128816F7CB4678700CC5E26710B2F851A074BE9830700792DB3553693E46F6593785647265EBFBB890177BE6EA2A6ECBEFA878D8535FB42B05E02449FBFF63CCCB881E3E8ED482ACD57453671DBE9F8327A659B268ECE5294DC6650754810BA95B90E6BDC4A6A028B9FFD6E44819BF7D6FFEAA42B08CC7C6DF7D22A45D8C2E12008C932B0DAA6F259ABDE5AFEC00059ECE5508D7AE907F51A0123683052D01886B4CE57878B51016388D42F1F9F3F3B560498DA0A65932D8BD82E7D6ACEF76A05E8D34ECC036518ACB5251957EA2E5E5A4309FC96E6245B2665C73EC29A1CD524C4F6AF6FEDA172E16339B6906A02DDA6CD7599136C90BE80BA01364910F2EBD91B57EA1A62F1B678FA9024702C9DF79ACF510C522DE927E8E8C10F3F164A173366B50DC4C3E7A5EEC93C80FC4B3DE8F20CE8125EDB8DEE6F384B13EB69E5420E2FA6B9238BED89AACDF0814C21A0D59F41E45854B18DD7709490C4A3B55550BAB42E46C947C777FEEFC4FFFF03A4C60A4C30F3B25DC47C1C4E75D6E2C754F00105952FCFC60E34F4390B46526320F387269F9413DB6577E52A1D4C5DEB3B11F81076A4AA8D9BC1B8071CB902339A1F66C59A48630887EBD6F3BFDD223B7BC86B73754C390AF1EFF2A804117A80298DBB9C8C747C792B5EE32B22EC175CD053596131E23120E961B6FABA33C982501F83B4C7F55FC0CCFD4D4ED9ADE926CC9F9B039E67C0523CEA6C44CB162C93C9756107581D823D9E2C680EC6E7EC1948113299E90AD99F86F38AA13D87CE1733C5FBD08330F40F08618768CA5A0B0AE968135ED1D38D9DC1F2A7394FC77E60243F5DB8F85D37013E4D9D468DFE4CC7BE08F30ED4A0155908A50ED6CBF250D9B91191CB10B718DEC2B4229BC08E78F5812D75178B4BC6C5BB993E38EC7DBA4396A40CA5513051840BB57D7149E9D8155726C4379B761082E3C130463A562F106F11CD1415530EDC63877BBCAAFF3610831AF76393BB89DC59A562A9FCDECBC7CB97F21417F7790E6DEE7C5E8A4476FB75AE1A85110A795508A8EC1A3C9564DBF94AC25F98C33028EFE452A8627A5020387BB077469E6490AC0A748D4D705A6B25F393EB124E3326B5C907F61A66AD5B8E805742E8A0F90843ACB360F7AC7129A14A597D5B7D0FCC6A37B17E537989BB010B0C0C0567BA110BBC04AD988945189C745ED4081C05E1A59C610B74FBAB3E946AA8338CD07ED5A514AD1D5E972803536790D9609CCA57E93A44107D352768A19E3EB0ADCE0D5826B348A2BBBC7627028832B7A7C90C65F5D282344ED7BB406F20E057020DDB9A74263A3FD5D4858846D77C3132BF75BC74933ABD0C0D3C82E335544181A95DEB828DFF26ADEAE368A0AB7B7ABC79E079749D39F6ACAA1CE58EE704CCDCF4762658C3F890DDB1885ECC13A168959037895C3FB0286EAFF877CDD8FC43647BE904525B20D72AA813B6F61054B637C927AD1436AFD014623A71AD10E12B5EA98599DAD5A8F4D04B56E22663664DD5D3EF0952599F5075E308FD9C1D01EF663BD7D067641327DAB6C6ACA7BF8E65CD308C55E1392BC4064AC8C7266E65128EA1EFD86F681514FD3D89C2AA36279C3F17544D8FB34D870B550D6CCDEE8D83ECD4BF47FE407ACD0EF2E2719AEC41364757B6B712DB603B50F2C9D0577DA0CD2ED18C5E23336B33DF01F4243CFB35D0A5C1FE94FCBA94A9A0AECD55D00669FA15D5D6B4EFE63C8150F8C2A2079FD4C96FF4279D6263CFB4A68F9152428155ADC08734C5F0F9C1085FFCB867EC6CD20F50D638CE71ABD48344FEB236D4FF8550FC2EE483ABA03BC881F5FBD8EA785EE3E93B0E79D8AD079CA5E303CC60A96F836ACD4370FAE2A7C137E4FFD17B59D959155DB027E31391769BC8D27C93AAB0F33677DA8E3083C16CC84B8DD8DF46A3925F6159AD06EE38D1249644E20B0F23ABDBE1747913DD9D5FA006C918D547F2FA5A004ED58CCB9052772ACB1D86EB46606CB87DE8953953BDFE7C9D009F3A57787553613A8EEC7D08C280E4D3FA6834B674F24077A9153A9588ACCCF3AF93A4A640FB4D4116560A6F56F392EA01574642D70620B2A686917316626BD72A08090C3076673F2FB67A3DDBA2082A639C4CB6ED15B25059A15290D077203CDC21BE753F6397E868D7784ABED82FF8CADFEEF771549091962977ACCF06EE5112FAE0ED46A6AF42EAC1CAB2DFD8719D162ED62DF5FF743DE965CABB99A5ED2B095538F9DAB0D71EC578D4212072432D65BD7CF09271CFC2ADC2EDFAE3404AE1AFB2501C3FFB9889535A3A5AF1E41BDE51CA1EB06EA6E4FFB5F343EFD59EEEDC25052A2F6F912AB2DCDA74E0E6AB8570BE0CF9F6F69E07614E0728A2CDAB02CA448B6DFFF6F021682C8DF2BB434203677C9057D2B60133B4104CA0890D659EE8F06EDFFF2B557B6A54C1DD12265EEA2532A589456A20AA64CCE281B1AEF9FF2B0D3B2E7C43CCBCE3B5B150953D2A17723665310C702B79EFCDCD8CC5BA9EDB1F9B871D4ADF9C78FED91EC8D9679923E0AFA2CB06F817CF996D066110FF43C6E9099CFB6E7E1D14FCA6DD8603D23054B00E150914F90C0184B9FC818ADF60C62D793A839E46C189E4F3628C85DE41FC91FBBA9B471D8F5008B87B14D95551B2DE7A83B1C0FC133A82930998E36699079DDEB90FC6EF78D8044D3B2E0FC150813B9FE2733E1CA51B2A69DAD909B234CFACC0A2F8B90387CA10ED005CDD1FED545747F20A599F8909511EB4CB2E63872344DAF5319D41C9A669D30927B8DFD559109292ECF832AE0C61E89D582E16F8C63A9B1A6AC7D97BFB758D1C8BD61D94677DC51C09B2FA80FD3213ECD5B584D54532D2556CD470F1DDE1627B098A438472668CE5C6FEC80145FF213BA0D728C0EF9AAC15D8C3F90ACF73A5D99B16DF63DD9B4E5F06A786B3FD6C25E3176320C01178EA52EA8790EA7858A2BB3850854D8D525CBE68B09DC03360C809C9F5372D635C301B033BFB316A9E38A5E46CB31A56C91D3A00FA9F3E04B9836E5DA7C7DF43259872C19AC2450BED548413EE7128FC0398261C84F2BF346A8A97536CC223D4DB61352F2EFFA666535B377E91FFF9A24FAC747EDAD2B1DB67756AB65F08132E03CB2F20597183DA71F3B073FBCB7ED7432AD05721B3E8491B40AFCD4FDFBC7C0A3DA1AEC15C59F34D592F3931C5C97745F962A88195F6D923D421537DEF7A786E39B99DC1260FE72E76C171658CE84FA666ABC96F7DDBE840868DCB38D32688E1B1B4032E0214E79BF747E8F0584F61306A4AC914880B4D676BDE474CEB896F6F928C2E9A4CC531142C27A8DF60DD4915CF12EDDD746D632BF53D1D4E3082D8D63C60454FCF4F16E5FCB9610FC05D5926A4533940064488D42D44EE09BAAC2C8138E4C80442F015CA7C4CFE466EDDD7259D6A92DE7B6A80DF47BF0E9677B515710CC252FFA3EB57CCFCAC4C52B6EBDE2E7674235A37728DF9FC4D15895ED99805200A77445CC701FA8C19E132741CFD9DA4CC15D6E225DF7B4FE65E045C55268648EA2BD1CCEE5996A089145EFF7660B189581142CCC46E91CC2935CC40C085B2F0B6BE011CDD01E6ACEDADD0CAB4849D0EA2976C77707450D6086CD7AF53437DDB39AE8F95D5744B82DE2094574F4438B1C43795490EDC74E8B300C679E50A84863EE11DFC5557BD8355FCC50FA08DEAAA99A6D6502A3E0C990042DAE9570A532BA235C0A15624E32D8B3430E3F5F11025B86776EEB5AEB3F103A757551D04BEE4F05787A92CFAE9AAE03D5B49E5CFE791D24E4FC0CACEF44CE0B41605D52FA8E9B52B7873FBE367215A5B081E6C3D6CB234862C0E0F84C90A8E44C283584E68FC9E4B838972E5DBB3A1960A63D25E0D53753EBBDE27C311BF143F4538AEB3FD08488BC5595ACF040D13205B8285739A7868EAE1F950B9F845619959355B641F8C4EEB381CD5EFC9CE70B0F5AAD672B5F62A0760CF7D3CD38A9CFFDF15926468AAD1451E9631F485CC5D7526AB43EB1BC2E67054D5E3BC7EBEFA60071939BBEE41BD2B060E4F349D2A65796A555144181C741913EF0A4E2E9B9B23DA37878AD36368211B142B624C27A1A6C6EFF79522371384F4CAB08371171BAC4C91E8FB2DDFA8E1895CAAB571F565B07248D130FA76BC5322312AE2AF6C3F60C97743AA7735CD1076D73973FCD70A9E86366F3C9A32D0914A06334FF6C51A788DB94FE5D65689EE4234E7BAF637457724087C1C1810C31CD41F464AB52D4CCC54AEBDD0A391CE16F3777668CF30A8C29885AFFF06DF442B9286EA1BE65F13535E92401C60FBAF8159B871EEA51F520F2D60D34E1B1F67952D71229D0D40B2CBA948EEE8844EC6B9A62A07A144E8D2BC247EEEE89D45DFE3EE8D6467B11F8D09D479E440DE6E6420D55A59235BD86CE0B3F0E3DD684AC4C3CD9659E28C0F9D94FFC141FB4AD6FF77F455CF7ECF031E043A0B1BCA7E113787481E52BCFE0C7A7E128CB6FB1B5E525EC5B151D77908243064FE0C3D8F24C8EFA3D42F74A93F7C7123E4568BBB8AC27CBE7D99EBCD57EB52BA8FC1B1404FFA5C677C26F0E3CB38B74540A06DF92F2C0725E9A229B707574040598D7A81EACEB7E3066AA3CC0B5BCAF47A0DCC6D73FB1BB3DE18EBD4AEAFBA809277E938F4BBCBEB8160EA6B81BE8D474FDA3FDC11687D745DFB53F74517CE6A3B8BC80229CC3AB9960ACABF8C35B9DE5CB515BA6DDA6C7BAE726AA62F5EC05656E767C43CFBBA15A51C09AA7E9B7407BCBFB8034567DCD0DC8308650B71364BF7957B1B723ED240E00346513BE33F78E9B014283348C1623338C1DFC112BA38EFF104291B4E73208008AC43A4718B97DF2D4008341322254321433046F9E01CB11269588211B51138EE52503EA5347C5F8E486D6B87EF440CD8248C1BA8C67B025F9252543F501DD8ADE419692CF07A7BE18C2C8741C7DEE2B9082D5FA33C1D2071C74A1C1C5AC9FEEDF479D37DA14851F330678CF55803FCD88D0CF34D5F0A99F8ED9EE2EA45A793A9ABEC2131AC84380488D1E6B557F3CCC00B1C0AA7BBA25B86DED69C35E1E535AB8AA3993A47EFF59A1AA98B2FA1FBAC344A36A4A27085DA8C9FC5228E40F6A2D9E344775D354323D6E1C29D58C1FCCEA04C0847816FF1FCC6D3EF681E6A4A4EE6FE1ABCF18578C79A759543A63BE24D935C4FB8A885B24935FAE69A465678B7F3C9F951D87E3AF84320775517DC8D516077D29689E6A3A5E3C77328C3468ED3C676A27B46C9EBBFF987F290D92A089C4DEA59DE59C7F1E22161303BEA052E19CE99CEFE1F68319494023D0D56B57CCEE03B2B5FF0765C42F59966F3A9CC0464FFEE463E2A3EFDB8B11CD5BAE174115EE57BE0DE6D8EFE339037F86DE0C4DF1BF2A01B3E9CAA341BABB0D11482651405807B22EE1F01AC0F2BDECABAB7EBEC64BEC88C5D868BB273EAA712832DD2828ACF372E6F5117C658F72C873F55369C99751A784CDC26E41FA8138222264918B709574697228E9ABB15F96672957EC4CAF6613D1829307D86BF1F458B00A2B721A6502E13DE7A884951A9EB58EBA055C1CAAB09E92793FAD42237216BEDCF591FF25C0DE96F6EFFAB573444CA4DF226D424A47DF97280A95028FE9522B7C9818A80D71819ED08349548F2E41C4D98D84233C04DF833E5F6FBF1B519A6A4B84F87855E6B25C20DCFF02241085FB776CA3771F391AF142D9AA1BFAF6E282584C02DD8C3D5A9D4AF3AA7E5ED3C8947BB598EBAA67C6879198D5DBB0E9A7662F9CDE224D586B7330C42C634EA54ED1052D2BA70413CFD68A9D8581B6D41DE814ED21965DCBD6BD83D56AC4F64E71DA9A94C21BA3C13E3341AA83C1EBD0976A9C7C81301B5F3BD25BFE2A466DDC9D3E6C78A1FEC9C7A9912DA72E148BB62C2A3171995BFA5843659393C0671E3928FF130BE74B78CC6AD1FBE8A33460C0203139BE242D71B25BE3452D48DA73F20F54E9EACE93324B2ACB42D3DFB265160DFA1414CF1E2488AAF57F19BF458D26E8B5D24D5B9DE02B4F78D70DAEF258A4F9F17C64B50A8CD3601128BCDB89F4C056E307B8F49B2FEEECE08E9647E999461B74CFE575765E983015AB247BC490E0834C9636B80B6D8DA1C06E01CFAE5AB47A495225E08C198B0E3935CD8EC8D9941F071D2E9CD9C5B1B6FD7D96605E20C009590C703920EDCF6D7C9C71A8456FB6CD4F4CB40ECDBEF3367C6020AD0D543C7A8A963484C44C5CE73866E133C3C66D48108796645C4B9D138DAA5291EFBC28259DCE52B2323E9938838B0046912504E6779DCAE83709F94499A348BEFFD595AE8096722BDC35DC6A2F2D6A30F128FC3E2CEB4454095CA7993D0922897E1883905A2B2D304487554FA531FFFFD8358A6823B361019B6ECDBBBB32A435442E64727A7E276048EBA0E773E7C76439AFB4B54FB0B7917AD0886DAE61ADBC0A71805929AC4F8717A6E466777ABE8ECE31031B0EA509EA0475292D32C68B8F17BCA0D73BD4C7AA407D775C9C53877F3E1627475CD5206687A929CFCB2289A8DDDC690F2D92A3A8C61B1B0C1002339BE4FDBB9214E65553DA593FF6236A52AABCADB0EC6A264FACC6CFAA6DA838CA1F72474B69E59861935D54E9C5C88305E07A2461063541D9E3BA8E8A98D4E54A8389F8FC4C5AACB9B6B602AAD72DBAC63170BB78A2B75125BCC58D24C329CFB65C8414EE004EA7EF9E31AF795AA6DD1BDAEA446D33B59C70B650E7A894392FE69C242403E69B7B188928148E4A0140DF38295206EA02AF65200D1363C832BBB5322C4295505C8A98C8A5400863BCCF267F026979D99C1A3EA15837E2CCB2744B05F8261227C57EAD1C4C962B7E5FBD77D8AA914D4DF52261776889E54ABAD6965E2B86857E2171F410E878A4ADCBE27149B334374CB1CCA9BB77253C3964903CB0EBEC2AFE9C889A750107ADAD9621712534BCE271E3DF3665948C87B19D93D2DA1F8A1AE722D5B449052DAF3BD8480AF0661F7E8F8908F629BF82FA2D7D64579D3CF576DC0FC0EAF8C12BDF00CA09AD0AF74AF884ACC8E5C1B4B614C7859AB1B3179AF3089EA3506A64AC932BDB0E2AF620801168FCAA856B81F09D78672BA6D7E2C71EB4D8144B55C134A7E0CAF34F4329B92406FCCA2842E805AB9F7B29B53D22EDEA1F8F87A9E4C7BBBADE7850E0F400984E5FC2F752B665D34AD782F7865260660096EA073582AB23C9109647D3EBA4173C70AA633CD769D33006549F039158645CB86A926288D47A9AEB5A98DC40B8B55478E875A15D961807D2009B196A7B6CE97EF112E3DB433F1D4D5F1B888A0FA928BE5209B1A4A9F548C36D250F5257CED856AAC61B212B21DDF17B5783A482AC3EC436E37AAAD208A92577C238B6E09995F48F0869DF18B79308E7BF0BD651F6A8E53D9E3D15A98221806BD874DD5D77ABC085F074B9D01A63024C4983AB6D03253503D8BBFE1E9A89DC2397DBF638A5D27D370503303A03D8B5EBBBF946A9653E2F9DD24DB22810F1F4D980CB7C811C24A516A92B304D8B7380570E71056A0AC1D6DB188F9D9DC986958CFF3C62085A1CAA901AAEF37B0FC185A9E07679C2A15CF150121933AE8BE1737F338734520FDE5C99B177A22AE02C4FB9FEBBDA1719A36B639D27D43A74D40594868B2809DF769A594A2FB02DEA9F8E12BD5E87609174D8058A05F26A63152C183FB61F8C4E5310752FD68912664B1D29A39477B90170BC0F68B950606815C4415283C1C9F38F9DDE117681455D67C08E391000E6ED54B97BA18AD075CEBF0BB84901628A7A20D0BD790AE3D0A259ED8D8894342E7AA54C5F9060F7CF66EA6D95ED1189F04D90EC02FE9FB535400129BC83A5AC9E13C3B261BF0CC0E372730D5BBC1644839D1BC0174321C17126C3981AE51E2EEABD42F40A40195EDD41E055C15C607DA1FB57A3BB64C6A22C65A2AB157F20337567BD9601C26632637507545419D092D6D963C4DC0847CF63CA82700F31DFD4E5778B87799FE533EC7A8AE1A4835300E12451831CFC7C0E2E619BDAA86AC77A56AB7E6B1043F6AD78D41711C7D04FA06D0D465E523D478D305E893BCEC26270AF467304C61A7D254461C1C12B104BA40A2008DA2E68590E34FFEB100D8289FA8C82375917D5AA3DB191A2BD66E9BA1BEB325F66D50A2B881852E989EB8A8120DAEC1AED4B918B547993818931B50E321A2B13CD21E026C29305CF928D890A7C20D63D0559380155C94177064FFB5F805671E5A5048719FBF7D85C43151B4866D2225BE01316D9969997611BE68793EBC962A699724FA03B7AACDAFD788AD3E0AEAB6744B6B0198D56A6DAE3E7D432B78983D14DF49F5446BA78473B19A831CCF2C8878DEE885950DC0AF29D5E6319D8FAB69641D2E68458178F69B3CBE8E568BFB6B10FC1DC892F3A4BF63D94091F9C5D5C1BC1729515E0C900D9A7EC6965CE96655832A143665AC463FCB399546874ADF14D346D77065757EDA9D6DD8F77D65EEAE4FA5F4F91DA430B1EF15CB3230378EE98B914C724FD68A9535C3B7F8586183BCC725534A10BCEE1A1B6DD7C312F2DF50C203A7F57B8FBD6B9F66CFDE4F4C31833CC34699575A2760680189E6EBD9545218474D8886E16842B1C30AA7BE9DBDB0D483DB6B5D4D67E17E1129B2D86235B80A4C3FA1D9DA4BC12B61F2C0D59FD197AA4BCB88A0763E59C6A6396FACB4765A7226B82CB14F97B09257C794E39C1876B85D9AD5C6C7EC0E0FCD09E8EC2BEF408D707B19BE55C7B68EDAB5ABF54F27DA37E988512D64E52E0D42690B237EE72F8D4AF559E0FD4ACEA2BBA0B3443E440CCC4A1905250149B54E0ED796E94A1190D8E1E1C68F25B8230245FE2FF0C90490DFA00C1E9E33205BFFF566637D29DF14F6B9A9685A0C49F1A49EC675A212C96E431D9680E3EA202345EC81432FB809639721792AA94BA050E343C860C1C8E535F1104B0E4D6106DDF9EDC8BF6CD58CB565FD32310EA3F06E5624471598C078E76BD77EF0CBD3DDA41221E5F667F83D22B98A2077D1446A124BB412D03C0BFAF87CB78F39FA3EE5EA894A4FAC35A3A6112F6133851B726FB88F290C63F2B7D5787610FD644ED4508F29210B3BA427F434C6459CBC76F464AF9A9FFA79D0B2A93E4A074C1B7074DD21A4830AB1D30DE40BACCDEEB10F2712FD748A9479022F8AAB6D985852728729379E0606766D2F34E76EC62C4E40296574BDAF91DBCFFD3016BE10C8755B6D70525DFFF98DCA4463FF95005E774B8924AEE03B49AE699175302B4FEA29403D6F35E3614E228943EED112BD0E9ACB7AC764A76DBD80D4C2F8B4FEA9DB1DB119D76E8EDE5071B0303F138EDC92C4C09806145DBCAAD45A33C80C15A56EC1220BA65E2FDD0BA6B08D5C5CEE25A4E047681D4171786AA8FCB219A4DE62938C9FD493C3E86A935C6BFD6E6AD4CFFB99C8202FE1EE208083DAB8278EE56E77BEAA2B7A54D434D5345578BBCB7683BCE4F422D086E291F990D8C038D6FC379151256145E8C301A2F5264954F43969ADD086A813099E020817A159E6E6E8634A7B5E20BF1080B69B12CCE905878DC1E149E2125D6F895DD9740EB4AE045D1C9195904DCF39E97274D1FE4EF4BB20842DC39CD267EF7885FE2744C2747465DCDAE85D0A679851DCA898682B178A5D6BE83BB5440965CB51614329AC46801CE2A95477F78DE626608EDC0D69D06EC4F2060280BDC22948C1ACB7876CCEB020012B7D29A0CD84FB2EE4B17A471E0A6DA8D86BDE10116CD7285AAE9506CC02DCEF3F67689E356E6F8C63021C382ED9D3308265ECCD5EB912579CDF02CCDBAABA85764C47C3E4E8FC82BEE9251F9806F7669D75C8321AA9C3BED94984E7129C7C3E58AA305BF2CBB5F392754248806969CBD1720485A4A0E3B2E19A71F0B1C35B12024D69B7401677429CB80F1ADCAD3E258D8924FB5C49D6EA0381C4F68A3351AC9E17DF9631E0A2F5FF2FEAE20F3239DAB57544539ABB9061F4F7DA7699EAF08F69C42DFADDEDA179D9C6E6602C0F0DD10241DF18030353EC272201A7920C8D6778A439F1256CE8158B7A34208932BB3A3551799C905703B6C5EC4EC00070AE53BECDF256F369B81931B8B3DE77D91B26383E0013AE4EB4051A0869159983AFCFCFAB53DF651CF813A6AA5F8BC87957A91F949BDDCD7623CA18B5D83A37C1C1206B0C20F5455ABF43FF62B593ADB526815F2672C1D150EA0C5C02BF68593F85D131098BCEC20302B14D1571C7EFCF2336CA75648FBEC7DCAB4A279286B16500662FEAB19245AB3E18AFC2AD28CEB9E371943DDCA38D7275F7907CE952CAB2A0FC6EA427BC8B6F4E74F46E5409BBCB56A46660003EC4915E6EED203FE13FEB4D930838AB96B8B17304B205E619AF88338036B0B0038D6D5F6544CA19A7B20AE00C94A2443B1A7B8CDF53DC87DD05653EDD9DA9DFEE66FAACA23CF292B5BB56F65D287ECE1ABD1D86FE5B19A62EFE17ED95B0E69046F99C66AC9D1C4F9F3EFF1D99D4F387F0732B056C35CE1E540B9D4209FB59CAB13F6D4622729432249D7AD09302D86388D97081052F6BB3C632590F9ADD5B62F03746301B747909FF5F346ED204A9F053BB4AE71311B5544AEFDB55691B67CC5094C07A40DDAD86BCC4AD15B2BAE7BD41430EF28DD7B2AFC75754BD8F306B5BE3102BCAA35B1F8EC33E4F6E3C5BD3990B90E68E319C94697B72685A0BA94309CE0C6EA17C5FBF564C564C8DEA755758FA53905CA561BF99990A4C166C2B84FFD6271E04EB8274999B60D8AC6AA608B4B16990DA5233BA9471B089CE916766C81CACB6B3E341E2576365D40BC1FA2E074D2AEDF1A09CE4E14F4280D8695B71BA3FEFBA8ADC1E3E33E48672B5D76EE60355DC8350944DEDF85120A4571E196343D6683BB3742DB05FDC41890008EEC2E41AFB049E3FD0784B7D1BD0698DFA263A060396E4DAA14909F39CD06A56E589BF1163ADF7A45E5B34F97C867999FAC14FA82F72457B36AE556265E6C4BCCE462EEFCB897867D44B615E0C19CD305A2A03CB6D18FCCAD153CF44A835F97E57A74D41EAA9718F47CA70AE5091D378A554493C70384FBB5FB3ACC35073ADF5BBA01D915D72A972029BF215B8F6C1DB2CDB3B75DE2423857C110C26CF9404AA1E259E8A5BE5F0A683ACC9AEC8556F93D45D3B90D95049EE8A2FC81BD05E9C5100F9695666BA85B15255D080B04B304500A72F1DA244C1B33C2B13F3D53968BD9984C35568E7F8CE8371B30060DD67E340FDE2A203CECA76AE3F4FB02135783CCAD30369506A93BD6734108C07B1F920BD40D113941DF6DF7289D54C20BB29C8CA789B3279F836E8719EC1FE6963D1B452E8F6BBB4913FBE0EC6F3842F1D38D44ADA0AE778B48208178F8802335D02E1D34AB73ABF239DCE6B2971090EDAACDCAE0144653E3FD6F396EDE5AE6C67EB5FA7621779A3AAE6F9D701FAC837D5580E96D6FE6B161325152243C2084EF2EE99669E938D0B7A6E3D0D86FF2EC1FD75AD42036505C63A7B1D8C95727D33E18B033A390514EA105D523FD9B3BB322671B27BDECD5D8C51A26F9146022A2F6679117655C2DCED6B43BF520BB8F3036172AEC725474DD7F0A76B6FC64BCBE41A5B8EF23F827A967A60D8095E52EBC9A028C31054A4CCBB88A5D9645AB0D8AD08BA2068A1916F88444B98342F458EACE8E0723BACE1E4EED5968D450D62ED061C2DACB2BC4B93503BC4944F01980D502C96E9675A3E35D9C610DE4D196968EC94CC7618AC5EB23ACA3AD3C304A16997EFC5BBF683E692D6186693B9BC6D509F9D3C4597384BA993E3814CA00414C56D12E6C570F9432BC9CC3C7965B0B18FFFDA74B25C13CEB6F5F94F5D571AF290B8AA50936762A96E99B872CA16FC490BF6EE9E3C33DED8B984789A44D3DDFA6FF4BD7EE2606C2F3875539C4C154BBE0185B52358BD736D6E11017B473D620E3A6CB4DAF827B6601198BFCF328809DB19BD6B79D671F3A76016FF32357053400BD9813A945B7EA96B0160B90BEC8B837CE94D71A551B482EF2D2A1E906CDC1C56846B54AC5475EDA0E477BBC1ACB0D56F89A404D29DD87B2D5980501176FDE604F3962CE92E4E864B030A9854C1A18952534A448AF63CFFCA408B9DF8152E77350323B2CDD790D5663131D01F5F8E3C2D69C0114998F7CC664C5DF8572F6FB20569E9A7BC7418740001BAE4EAE3A4A98D6F9A70E7C0D90C4BDB2B8B168EEAFC37A583BEA6E7E63C36DA485D39E6D85BFE02FB40BD87B230C044262CB5D1F182981450E772903A0535626387D76E2F3DAC84BDA842855A6E20B5548F02412B247D6E38F726E0D2A11891AD92C808056B1BBAB5375C8A9EF922835DE12FDB76CEF7636D47DD306E327218CC3C50C0D0D36AD0A2131A58566277602A10ECC78A5F31C485FE375323D9A34E8D851B08E08879DA2C3B7A6BF82A4DD89315CAA1EFCB83DFCBCEB628801AFE337D04C1E6D7C68B3D80398A781737006A500C3D0FDCEA4A8D67FD6445C778A8A11F0AFED6DD30D5161DF12333E5F041D89866F1A2FF3D27428D466FCEEBDA6DA91B728E8955A5D8BB0CB0FA8855B0476A35487C1C9AA4AA85AC7EDA15900E006F2536CD51BDE69B79B14DCAC5468A61731EF83A62552A8AA5DD86BA02F6503AB77697F6E67DC4DD33F1AAE05808AB17C769923F768A49F781AED25788F9B347FCE9DAB86063B5A6A6F4DE06D26EE118860B799BA28351D36B37323F16BFA19CA35F4D3A4D15BB1C117E75365891685C00CC294BCA8B29E076FCE70B9BF1C606A2330C5258D65B43DA52BF9FBE54D0BA2222E925549BD7475E2ACCDD216996DC17BEB9A15EA5C24C8989B895472E6A96E9B7FA3D29852E59F31425A4F6026E040653C6E5DDE3314E006D93DFCFA0D19547894EFF2FA49A2D5C93D45CF2FF8106B3FFB1CE0F5C5EDC0119B46B1D42C4B43ECC522BB4E14525A299DE45B5043CDE710D4E02D8A07ED6717C70E2FB699DBA973222304E3866AFFC9454D4F97977015611C43665E58217F1E3F9755DE68F9AB9923D5A0C0F99AC83FF6B10D94235758380C285F8AC15C984922C2AE7786A7514587AA3A544E6849931F7D75385589E9F8F676DB1F2386E0CC2E3C3F60E759CDF7274D74C31EC0E939339F882495FB9ECB0C8DCA8EDD8268EF8C94FF544E149ACD87569221BDB6E6AB0D8FB32D8D637D7B844CC7C4C69C0926BDA65551A0E62D8BB59FC416A73E375F88AC1543316AC13D837D8618203C6139534487489BA01E53A84001F5FE1CAEA8BA43BFA859ADA17483814313B437E0C74E8954EABBD04CC954A17C52655639550B85BFEEE08EBC877A5D69B8068885972DFA285A043EA6949FF08B4B47CAA289D1D878CE7E620FB1319C43F1651E39892D8BF3E154897039A0BF9E56FF6B2D275365F118873214E58CD498F52DBF2D5D371026A36D60A4B9BC10DBAB6193AA7E2A96D12C6F2A2883F8502DAE4843AAD91CA222EBDC6D91DF50D5845DFEC933B9381CA3FE501D9F0BA0BD5368D32F01BC6562053AA693D34A514F1FDAE102428CA0B49903A29CE7E28E9965C466D6B62F4F03D764FB12E5580D01AB9A224B0AF772BAC5ADBCE56DF6E8DAE9D2574D3D435F59FE550F7BF90F7C778E8F704F644EB09721FAAFBAA8C1B4FDBFCC201040D161382BB473AB0E3AA657B6B2A4AE39711B441FCD78B70836B1374847CD64D10F9CDADA48A28FACE2F59174A88F06FE2F6CFC4D8D0958DCF80D6206369743480C6B29A6F29E41D48A36406384558F6C3490BB18112759C721323D700DA89D688F2F048AB4D2E46FB882E2957B671782083E1A6275C4F2B69525A3C77536D7E1A870FD5DE488CD395DB109168889EFF3874C69F0F01BD1A66583FD9D5173CBA0C470CAF79A1D53E3060EABD6BC0B5AB920073DE5B2DC5E95F00BB706F8C5868B97DA602B67783AA682CC5692D00ACA262946EED8DC062A5004392F7662467E7B07E0E6EA452A02128E35A25EB632C1E490EF35C21710A24FB25FD3552D54875A5B86B7086ED59F241E61CAE6991B72BFD2A9FA9FF5702F73E83862AB0485D6D083353B6DD549EFB7751473DF635C41C3AA22DBBD58E697D2317F37255A34D3BAB0A375363B36F5811A076B350711C262596AB79B08E5917D56E03366BB2FD39412EA84C732D5CE5A7F08C54300F3367E9B7C4F43B1CFE5B30D72EA2B93858A20FD7D529F22659C22AEE5B576BF548178B73A13AE08ADD142AF238F00842CF260A8816715DD15F5EA07B594C615A5975FAE1B15D8DAAEF5F8A2A096176FF5A14AF410F16D815F944FDCAC2FA45E472DEF6F2F741EC22DD106D2C8C5313E0B314EBEA0F3FAE9346F7A125B746114FA898FA5F920ADDCE3AA78E90BE2FA64B1B891529D1E0CA206F273FF116010097B06AAFF8403FF779A665469176426DB13E98CB105CFACB0389A6103BDD8B7DA243108BF08B30AC99F0E19C82654ABDE92A17F10E4BFFFD7BF486E1A75F016C660EFFE1CA712EB84B4164AF0A720466A76632B37041F4822CEA2E0083261E37F206B31DFCFA1CE93E042FB499274AD46CD0F7FB8B3374EEAA875B8D414F3482E06247F7A0242CF716303DD4E560FC550777F795B0BDF7FDBE5CB86BE485B6EBF50CA5219FF2C481AF2AE780781FA2DE9420C32DA9C45BE9355E01CB0AB43AB01D63FFDDD054602485905E7197B1192D58BD6EA2A78379550FEC9D77B9452B63DE3EC7F22E21B996ACD0FF79CB1F429A3A3AB08969359FA343FBF8486F3AC0F6B7565C89C21D78509972B60F5C1623D0ED242A92752947AF30990BF7D8DF7893ED7C5858CEA2ECBB40C903E7C7196CC012E7E0744DC21C87083D9E8FFB6F189D4549492D37DB2BB891162A5503B8F766AB0A250B4BDE79EECA352E03FCB3BF17C91272BFF79C7E2A9BD36CD11126D4442983BCDE5FE019B8697CABAE6840A4278CA6B1B25491575EAB6C5D629ED7F5A80588A1DC85691C576012D3D64B775CDBDF0FA5AA700F162E41035FEFF6BDBD9110C4BF72E7067D5F2AB88CA7E4EE2716C09E71CEECCEF63526C9C1A6093075939C085897A6BA5D62E099093B43B781967D30547A8A96567C53CBC256F74DC7E521A9EAD524A791C3B0F0C5FB5B16EE00E5B32619E5807E7691C293463131BCE4A3613EEC7E78DDFD39D44BD4F3D3397E829C49500575DF13F93F7556CF59D388408A02990DB6EF70FF9080438EA070AF5CC327BBF3553DC1A9A66E6DD24F6089DB5CB2EC38E37220BAFBC091C5B601BB7C17849E8C6F1D047355F9A32B98AB38E3EB31790876238023DB9CD531A448FCCF755B126B12A3AD69ADD4C422A548862A5401A80B79637C38FC2A0636B8F3BFA76D69CCF90114682150771A908E21B4521F930440767A82B9D72FF62F25E72246D3FA41A41A2F16E608CF287E19C30DA3160F627310F23E58B3B19FA5D30C747B6CB3C2EDD7C13E5F2971F9CDBCB31A90D17995EDA043B084E6CC5F1023510B925C6509A9C58AD523ED7EB08891B5BF51A43DB3663C1B37CD6968734D706B174107F3B9E0D04170BB6717F7E2FC18FC6282ED0430A5A6DADCA2AA00A1EC5D4210DF76FB5FF29AD8E61346032BD584459B578BCF671D43BB80739002B0765775FC2C46402700FC0473A8B3E6465E1108CF924F6FF4677537D72F583F625BEE3EAA5C995ABCACC963F6598B0479AE2D5F3F880AC482D431361A940A0F7A7D658A239B75C1348078AD3F69B62C52C38E4597BFB11A77357361931546D2DE6E2F9B18E712786A5EC93CE4AEB02D8ABE66348E014A95DCCDCEC484F09F395849DDC683B85D9EDD5A28C6A0F99636B204270AB0D2280F222EA59785631DA8477CA99D60A408E15056A869E5DBAD87F0BE999676B995680BBAFCBED850381E7A7E143C2E01527EA9619C93668F335B85167AF2C8B093F5BAB970ECCD3FBFD98E241E514D3D6CA244BE6A017206E848CD1FC570DD2AAB9B9CBE774F4FD984C4DAFDC79E2D94314017B1E187C13B04C99306F9EDC9F6F76E9398B844C9FE2E399D3CC2954C5D88FBE51FF95FBBA9616A7C67F8421B4858E7508A61D346CEE85098906F90F22386879A59306FF5E34EAFE2DF802B2F52ED6AB4658BC793F4E52081AD550E92293F7B24202AFE23FD9183D36D36AD3F6DD515F73D4AE65E8B21C91FDF2C6CDA03A39E996E05DB78D2EB6B39A338B03D99F156F4FA71AD64297CA058630E81019E4117B4651D1F9A911FE213698F5A1FB84D4F1FF255A9CD961B0C06D1A4D878F3C829CFEE899B8B1D265B0826C6BA7CDBC40D248A5DAFEE0F607D40E7BF28D207C4D7B173ADB9911D2B0A1AE0F727E005F66A463CF0FC1D6CB79CABF1FE8F207962A2C4AC4CF6BA53C91EDC424300D66416218C386B96FB113A277C903E7B3EA5C71B42DE9BF3FCF3C65463769082DEBD4186349DA1DFFBA0BCB84B5502A155F729BDD707E3B08719B43227B5C298A74335FC06568ADF921A86521C97229A5DC58C41B3C54B0E1348AED461445F8BB4928B1BAC7B2E3BA48A727EC8F8FA972E08A809000B97A96642A7CE00DD8D429C6001C8038583FF4CF08B50F3DC80E10ACA2B0C1FC448F55547B26E96C9EF669A7A703869C55527EFC05B8CEBA70CC579DFE7BD63AF323E56E8B836F5F01CFB35CD41A6A4E607DAFBFFFFC05AB4AEE48AAB9FDEC8870182066D67A4735858D8E4D50DFB2210BF7B87BFC801A150B79DFD9834EFE55643376A2A12CCC8D582210B7C021077F69252774A6B9477052FDF7A0595174B06801EEFA6D3151FDB9C13698C2A2C0143D3C8ECF439AF80EE9D8C62E2360232FFC763A8BE2CFFCA13A77608B77879BFBF623CD97811E9984A10FDA4A7231085B43A4FFC9913EE940C8E1244AC595F36C9BF0AAEBEA0E87894C632A490A15D8A693CD5995832B4EE9539E0F88BCF50474F0B960272F77C12979430CDDD1D1897D03790595738A2EF5816CBD8AD38480C1A8A5777F835F1DBE03346AE6F81958484AE1D9E50F3A1BD13D56549058B400E0E901F9E8CD24548867AB813A1C2FA911E69FF3240E3B68FA40264E39DF6E64096A34D475A6C314EEC5C1055D6985E4C3D8DA24E8C5B007B11C2047B82A641B17458270647ACE572B733D68CF6C99EB6C43835DC071439BAFBBD5994C86D3889F71DD08D523ACAAE6408A4E1ABAB7470D858D931E1A30AC905256417A7649EE4E51884783858DFD4A7D3A46B8724EAB170AFB4D7392D121F1383FCC738D1FC67F453B06588753C3F0BA30A638E02E9B1B513E7A46B7A52B59205B2BA580A33F32825AF995BDD329D1F9908D9E253D6F7CFD938DAE2ECD0520B2B1A3F1FAF1CD40BFD4C491E709698D6A1CB62F8F9BFA02F70939406778508981A8776E2BFCEB46255C4AB6D55907922A5860E6928ED3BC8C488FF83BBA041CEA8CBDF4F32554FA31FA21ADBB7B180D88D8C48BD8B527A5E92D27D1940A1F203CBD324A5CE7049BEBC7D914DB61CE7E5A16F92BAB1D857EF54FF186EE5D7BC52D9009153D3BD4B425022FD0DAEF9ABC52C34D934C2F2C163A1B63091B318AD602B6F4D5B17C00EBB90339435C35A3EA266B65928985F5B4759897158A54C90125D5D8AD6D0389EEB578B66ED8C6DC16BF060C26FBA9890E6B9A8D33FE346505B61D34F202BED307B86553C87EA37D1DFFB65908314259C0A1AAC4387301D390053141EAEFC5C9576A8698805323F8EDFA6747116DADDC1513CDF73645D88A2B23DD158EE8F0B0CFF3DF382AB119CC8B129C8FAD22B1D07F3DE83A921600DC57CC1E977E2C0D10DDA7D931D35A2FAAAFFDBE2E44D5A95564E36958A3F15D9EF528208CADCDCB0C7837B430E00309959582461DCC92B66C0A8D57481F2E07118F0548488E859FD38E306EE8EF4BA1CE4A7A539B4DCEEE9A376EC06920222D5D9B6923D1E044726735A97D680F7D033531DE9C2483D10CE57EA49A6C0D8DBA5983F7BB2FD183FA300445FC38E819AE5AAF026C863F80BF54F675ACAEC5C21EC5FAF56A0DAA361A4717760EE2AB60B1FEAFF1AE0DF8D706D413980B420526A24E52FC31D43B573FCCBF408FFD8B613241B0D91CC9E9AC093190E51E54A5B1E65F637219FB3726588B60F7DB86B3563DB36F59145D5DC2FBC568104F1CA435E2D4845116AEEA49B6BF1DB3E704F5F9E029485A1475659DDB57758E4FBB7FFFBE391059E1163CE1F69245D8E792A3CD7CD6C8B12A5532727F73C2ADDAD3785D2ADA9714E0C5D0598B3E6D05B2E72CB9889A98DA70EF094C370F4ABE145B2F421FA4FFFE0232691540812ADDD7AB12E36140E34BA8F0C4AC3F7B2C9CD31FAEE9A0B6AD589C82C06A54A1E5F6A4058EDE54C557C7C7BB49ED53F181C02DFB870ACF03220E7DFE660C3E8006C518E68F06A651CA6D0A385CDC87350A28463FB431B2B3FB7F118490F0E8A6214E7C735EDAC3193B1E3C037568D28FEBBC9BA22C99681760CA0098C4AC78CEFF4DDD7632C20477EA25DE4287460BE0FE292D7BCA31624F4AB63FA84C340BD4C2789219B60A161034A6C31CC773B19EC0352E7A0D3C416FD9EDC89CEBF65061A70D3BF2AB4CB019A40E5E6401D2067E22B75C0C68E55F11E25ECF5140C1303777178E602F2D378C2BFBFF3B73DE2702963C5DC226489A5DBE91EDFA8AB6394359307E4F1346EC2F528AFDF5A8C0CEC7B05B0109B2EA83FD61B8F17836AE49481AF1F1D46969E367C10694A3BF09C6A1C6A5526D2A9FFB59F0496E1C4A1DE6DCE21A5B2E03BE3EECE780DB684F4F4F00B84EF84D1CFF52B03D07AB0231ACA0496B614201934918C229C0E06FBEFB7170FD0A85B1F92B091EFF2FC483245F04C7E4EF719752AE0E2D2281AE07124ADDA066076AFB3041AD11CCD72F833393CD4C3D2F39D265A1EBA3A98E57D94B6E7955FAA858C351DF0174EC16FDBEC0E24EE14B79D75AA263D32BB48D279E93D244352B32F4611726DF42AFADC232E220F4F9931B9EA8B40FEC42AA2D2AE20663AAC18711A75643D4E7B6B10C3432445216AA6E14F399F7130390613F7C54DC7A5A89BD09E8085C33617D96B1BB67AE5F7436B87E0B72E0FCC0A9789DBF06C9714BEC9BF266B4F0DAA1A568BB48E4E5C46002A4108B5A13E823636473EE1B1C4CC9696CDE3BC012D330DA537BC383A307C611B4CDFEF10D806F04EF2477CC2780040812C2510C3BA69D9E17525BB990DDC9F5F792AF64277650CE4A5847565A69C1E5334428DDB78106EAD9CBB79E430F97BAC67E0D7DAE9A0E3168244A2D554A0035CED0C3571B43B9E972BB6247310694EB4E07E6049270863A1F1052C79602F24FBB4C425646C6D7610CEB0CA159A4751D3D7593D34B211E9561DD3501FD0EE52395C1579C49D2634040BEFD8D53453A1A110210ADFDB221210ACFED91FDFF9F5B2CB887E60421D3253A6B9C96BAF85F6C9EA58741B6D001778A03CE8D8D338F750CA3D498AF8A31AA7E9E661BD726876BDE1CEABB7CD3AFEF43E35C4AAE2166AF3A67C523A36612209E22205BFFD85597CB4AAD89C5D9D385881A50E9DF207B0FCD8A042FC64EA16F1C06FCA68FE455C8379926A7EFC20E9E3FC09034232679F4D3F05384C602A349EF83FF812378600864E8306C16A4E648993BBBB43403B2382C0AC5C2AAFF6F951D9CDCC4A13B751A6EDFD30F7927351FFC6B3FF2D21FF83295D7392EC5AFBE0BC8B8F07931FF7C1E6E02999B11907F119F141BFA8734C58DF7E043D1F779B9934E1FC66528E93447593724E6340347B936525DE7669A05124C8F491A5EF33438CC2A7975C255D3BE6C9283735EF440C10B6B0F93A8F662AA152AD1F230F3491DED03A60DC81C90A3741B5E5DFD46D0AAFF815AF7BD5E7C3B87901DAD2AAA01B120B030DF704CAB094DB4B9BD3926F0F9E3080AAF596897DC48F00C2F71272DB7C883383950058C909CD6451DDFECD8B9CEDAB7A73C5A07149348144331E5F202E5F3C607A86651F21409974CA6A59170568FEE54E08AD359F9F2912E3E5D3A436A503D8FF5203B61C460BFB9A93916EF6FA5B0F774868FF1D2926DF2210809A279143AAD4BFF87C10C5234EA7E3522DD360FDE71B8E24C8122A62C0B228F071CDEEAD2B40673501B1002A6F2B86CEDAE4F0915DCF413352DF713EE6E56C4B1F272B139FCC0BE13E8B411710519A8A47292A6AE55B37D1DA9CBB988D1A50A4223D8F9988BDDB2754A4FB2F39F5D6F811D2562C37FFB8CA2F936D9846CDA346BAFFA2378D1888539FF8D6A1A14907584F3A04DE9ED72026924E36BC5A9A65730F6C2435D76108343B2B69214FA2AADF9AD1A1F7C70C249FEDF36D1BE0004E13DDDD39C0231215A5B0588A1AE336EEFBE523055B38C29FCBB86092C1699E01AB50EF47CF078C8897DDF9620E9F5FB93B939622F8B903E74099DECA0CB84950D4EC393D303EF33BD30B9018EFD3660235BCD66AEA51B12A33FBB230640ED7EA1731CA89E00601CAE4E33F94D7AF081AE677838494B963420EF9C5B659DCE254204725DD0A7630831A9248C1828896249F429621EC5F77B98853DBBFCF4E6C1A77929ACED255A3F75E5107DDAC9201DE0F4C7C98B0B2319DB83C86112AB36BA3E0506F750426C159A0CB2F1BD8BC58010479FAF3AE01C8FB52B006A6F523F309B6F7955AD1A5CC0363978BAF7732E258D8C6BAE172ACFC9EDD79248C968F7A9389335129E2338E9F2AD94B8A36060BDAF3E8C1EA6C912EE00F5C94C67E0F549F8AACB3FB8E9042D5F7E399583CC3880614FB3225FC1856C4424A196788065E5585181EE1EE141EB37B3796022CA9BE600A34DE1F11DB0BBAFE1CA7C3B6311F4109ADCE5E0D24EBB83C0D603A6934C96DC61B39F1DF5FFFDCA76D6425EACDC4021D48B7E2E978E6A8610ABFEBD730E7BA54656056277CA8FF568801D3F009BE502C3E0080181A4D26423EC44A67B9068D96BD8B952AABDFA5161253B408A949C14D08BFE227A631631F59F37976B945758F603155E4CB7850030949D98E68BA30CB480E5BF394D925A60B9BEC2958C68C76065F4B8602E0D3A15920ADA4316EF4562803D305BD6CBE970F494269674A1E158E8AB7B818BDACE9BEC5BB14F40C01289EC358718E3D91A4020C8AC0FD9AF68BC3CA5CF2E7D58F9A73D16A291504086FD651F42B30CD8205391D2ADDB115011347158EA1B264A2433189140B9CC75AA093A2EB32EDAAE5707EB618A35497ED37BB606793B1E5D831424B1FC35F756A359B3F74D8FAC40A126E5FD4E234BE8BA701D8A6AFE165B73F865CC096C9781DE9DA682088A10EAABA457A6FDD30CB790BBE339EDEBC96BA5ED70C050610C5BC6FCB970A73EC996850F4764B7BE797699539ACE8E89051A906637161DEA9801B95413B17EAB33FB15456B39DF5B3E0333C27A24BF25CF1F6DE5654251DBEEDBCBCFDCC514526E173236A3F56BE0FC42ECEF53057ADFDB0D71AE973DD14CC3F13D095FC2160F3EE30E2B75ABE306652ED528861FAEFD6224DF0615368C361BFAFBA5721FB676C03D869624332FAED8FCC656B5AE4EC2B08DB355C5DD95556CB55342DE2C63E6F0F4064FEE172D2AD304F0E9B6F5E6AFA9EE6682DF3CBC67C7B05E5DA6415BDB13597B2E4F8F635CB651CF78B8616AADBCB0E72114404BB4857166680B0CAE0C261C7ADA3FB0D10D63AAA4FB383873E043D0682CA9981F2EE1958B1D7724C9CB41FEE225D9F562B427402D61376BB146DAAA59ACC136A6867F2235D8E693CA5E72785BC4954AA2ACE760B843B862655614DC334293F04F3204251FFF9240F27F0FB2D26C46332A06582266BFF14E216E3828BD0E552189DD9058F2D878DCD1D5E0643A0937E1863761E9DD3D295CDD5F31C5E336CCFA487CB08681844A9021ED6C554B5AC41DEE634BA8AB88297C336BE058B67F97384FC7153B5BA5B685ACD171B37D37B7B7C86AA66C52F45FAA182DCC89AD8E2DB56A1D77A9516687E6A138B5BD269578538801129A61D7DC30C43FBAFD2CB792BF22DBAD1E5E00DE944169A74D793C210FC3048D74B47D5813BE69C9B37BCC2A99547B3C97B7D5B428BFC1260479312DC871CB9B5CC85DD858E123E9E244F9451A496D013F0328223B1328C284277D15E64A525DC4CD2D717704CD6A0A1803D37DE7970878913CAB362BFB13AD2C32D5F5042A463119F324A8AF166F23A2C0C112BA96E0F7B44D5520AE9FFBDB3545171A864716F44158B6FD26A6F1F8C81A4509FC40BDDFBB3968463CB038EFFE1DC8E3D498D8AA9579818659BA70840881B55D2733673D40EA3EDC781EC41BDAE302EAB378EF6697CB380A24AAFC73C9C8CAF2882665AC27D677C52E9B6B9BF6054A500C5BC1F575A1B74501F2ECB9D958155BEC66E22FB374D201A161E8B4A192F3EB33DB666E716C62945E406FFC3CE944BDC1469481026925451D3968E0A6E2D50E20953A92F617D90B612B2A431B5FDDE0CCDD423AD60AB97557B12AEFE845EF155CA2C4C4C17CC552089C5C04A00DE3DCB4EC00B451173AD64D06D1F77D3AF48F2EE949D28B963E7623C1D840112BFC3C24C472D82E4A794DF63934E2812B2CA24F0DF55D899BE4AFA998EFAE5D6E2E7E821011B3EC32C629DBCC11E73944CB821FA089075BDB1DCB42E4528F6F534AC756FDA756C0B3EFC133344257B4C58C90DD82BC66DB90ED9476004B24C368EAB9B10B696041DAE58EBBE24755F3105C4C5C86F45794F74B0BB2DD1474E80B3C20C2A094CE90DECA55B41A5A0590A961FEF8B2C3A57C0FB5C5E8A77001A7E1799A551DCA93F1CDD5376DD523876E5570C2CFD80FC02147880ADB40DE50288E865346BD4D03C13829478A67EB59785E96B9533CEF6A4E6E22303A38C0BC1B6168D6A5463495D54A18868490104F286A9985B47723F99C434C4DCDA1997AD3261AD0BDD5680DD05F8C42BF694512BF8329E1229FE03FE5222861204F30C10E770802492E639921E7A24B474CF4D3CF95A385144F2142880FFAAB7D9823016E3888328A7170966A2B686C6A45690ABBA01DD398D2DAC8A6FB992D02B07964754AFE25F1D43DCE54FE534FD6BC82DD4AA3FBBDC696B9E30DDED3ED6B3089988BB1211431345F0512C9A3BA64AC09B42D1A71FD4C37258C54144FFB193364B93B12E787B9AED0E55334905B15619E7EB1CDF0E2806392A59031CEF3BA44F0CBD6406BE6A817A74FD49074BA69E8F8019ECC94B3F29161DB88453991C2DFF95317D1AE766D1ECDC8614404449221A24101317BCCCA92C47CF1F530109DA1E1DED99AA2B44E288D4865603E9A22F3786E8E77DD7FB1265FC9516B4B49FA57D3F08094645A54DA07D8FB6DD42F9FC3F3D3A90D82BA635458FE45C8AA8BFA7328E3CA7EF53524AA205A9ABA96BB2E0152B641430674AF25C5E64239B8F570385897A84B38BAE8A39EFA41DE6DE6F53C1B67594E0D081E34CE3079346BB909DDA6D213BB21D738FE66BC9CD80217B6334BE7C2EA97455FBE8DE19FDAA1453249C130EAA42AA4A381FC1BECEB4F35EF2ADA4C8E214A33B6EDBDBCC084FC4621456E754AB86137007D5D1E26C3EDBC5621962596C54036E4753A80E5A54341B6EB59037580C12EAC18E9F49EF5D28FB3655E413E009E94870E91FFB79A4D0E327ECEA994B547E71E09D31EE5138218C34E678012AEE315FE1E73A330A253618B6195CFFDA2D6C45D2DCA19314DFA53AF3B07A1E8037EFE5F6D69368084C0227B00840F95D5363E749302EECAF13DC652B04BB39A88BB987E82BE66E0E1DAABCAA38E444BD679FCA9B4D291767F5FE82B111503D71C3064B0EBAAC988559E50BD5F69B0FE48110EB49D812ED0BC5C44764B8569CAAE4B2CB1C87C948EF139562C6B8DE55EC8B62BD13550F77E9453D6F4119ECEF5CA460F632BF9DEBF14C13C700C8ACDC89094DFD3F5D20083B64AFFE0FCA0B8A17A496BC09C39CA6E9DC3415C5D3A4BAA33CD3CAA415B8C8BF708416A1BA5981DD5ACBBA81F08CAB73BDE321872C80EA7775F78A1708BE35F09516C6FAD60B44B82EE9DC0A274EFBA24684283098B5ED24798DC2A62F3C4D624C8D6A3281898813E5DD0C5F12FE76DC09CD86EEE9AE27971E20AAF5745E4DC1AFC347BF1A1FE17528F6681177DBE410529A05248931CC70579DB6AF81553CEFC9AB9742DAA82D1E68DAA57C09B71FF074A090922C0DE71CF0D1975D9273E600F84B0D792E1BC78FB25E1E3F06F0366AC6ECAE4C50415DC8DB788F4F3BBED2AAF846AA09F75259B28B75BDF70B3FFAD8479F5EE9AB8B99D6E7AE1008E2856F977EBAE72B37E6880336F8A8047388CF73CC1FDC9DB0490AF94F16C90C80CF3B164D09989275CF5FA746802AE932D1230D799755571AEA0C8DD5348CA049F7A839C66E46BFDFBC83CCD27C34206F2AE1BE6850EA8B4707CF009AA0A861D0B26C312C3A85E6BD044B9877FE643D30681E82A45B78E4702628BEC6AD02FA50F225EEEF8237049754E0C5EB95C68CD582D9024E1ABC6A7994E2A830578E470A075C4537651E2397A8EE2D46F3EF2DE61C8701F7DA8446A3368146880CD6BF86FF26B8595CF9F7C9C45A97D92F5FFD96B6E29C5872FA8536F71F76ACF559168E21CDA2573ED8F1896A4F98C4C6249FE9EAB727FE563B9305D9778BE32D21931C8DD379F325DDA6177DEFF348816943AD32935DCBFD312C13804D498DF44A20E55FAB28B0E9B2B4DDDFC49E797065D7CE3FCB98D8ACF8DB21E726A86AFF6FB172F44C6064C69FCE2EBCCB9B826FEB79E7D39EFF1DBC857AE72E4A0D7241586D9F382A950E839315623E891500AC8AEFC149C768C080D9BB46C81EA06DB2BDE2ABDAE868770DA0CF567B40B619AECBF55760CF31AFC2320CC7D72F57C2C2B07804CAF17AAB5883E595CEA8D538C36DE033A7526560BA132A9ACB7A216419B59D59A82CC5B267CF9DBA576583182E81414DB2504330B884A841855EC7AC7541660AF28B5B8AD289993E25D30DB07587B38B8B0B94037423DB28F4236CA1FE0DE7A3FF545AD2DC853D061ACE910834A955EF51FE384586CF7475BC9B5B86DAA9CBB2E92AAA5452BC7E879B326CB40F4EDFB107AA0E3CC150D1D2E8DC601B2BACBC992A516ADBC30110B5EB5363923D7322BA3A68CF86030A24604889D828586A09B34D80AB40EC9531F5D1A95ECBEC7E17D3D132C1FCD557534B36C9C4E662A946EFEF9D45E96ED7779C3ECD2EAD717D83D6BF4D377E55A20AAA22CF4E21C74CFE72B7338A90DB46D00396BAD1AEF0B162369A322CD33A9B8E2F21C401F2536795ECE8E6A2A10EC16E94F01FB2C9C44EE5686BB29694D3F451521634AEA24C6A0A552BBAF419BB38DC97A626C5420B5C8AED3532D6FD947E5F405DF5F58ABA55230664042E92DA910E7AF1CF73781F6B68B7D65E3302C57E1D4A6F1363192DFD3F1C11E3A1306A54E0EEA666CCC63BE941C0F208A2428AE615BC1062DD7E7DA78DC9DCE5247E1D2300761B2C4E81A708DF04D8EA2B60BDAF0629EC4D3026C4E7A1AC0C836FEBBE011C4542869B2F50CE97C7684B6A61B5AB747AFF77B077FB239D6AA32531355B8424020E69C5E0CD87599C26DB78672982E8A472FF2304FC7CA4A7F4AA3EB7721CEB0BBCDD70F9AC7B31A1A6B3AFCD48AB463ACA8CFD97B254382B774DBFC3820FE9FDFD1E6E35DFD764C814E2FA3FE3FE5FBA898509B38AA084ADAC9A0AC5DBD76EDABBBFAF1DEA6FF74C1C4E877BEFADE2C5D189425380461FDC4A8C006185D47A6C2E90101378854272B42450BC32228E0CA1A1F0C02CA7824D50ED7A8CB67DF706183CCD9435B5D855B06439027D5A9B68B189C1A658573918F6E2FA91B59FBB5C21C4F0E97D4A12768837CDDB5DEDE2A2CF03222348E39371909BAAAC62185AE436613CE13E08EF109DE695169565E26B65413A215D7B7E9E227E547AC60A72ACB52B7073924FB5C28B3D39B3367B83E070A50F59EEB01D54F853EB97360E6B0E0A094B5E2F36630A2164434B9103125E3851962D6D95BB7B88086FB72A2A706ED7961A30101CBAA1D0782B8D770FFE28727C7A55A68F662BF8C75E48DDB365BD31D1EFFB7E6229BE2386AD571B0463F588399B51AA1381E6603BDAAA3ABBD51982AA01F5B2F52FEA0AC41988BA8E0F84F2ED0C6F207A5C65842573C9971F8729A6D51F845A9E6AD0D1446B154E2AED5DA117391017B17CFBF42572B0E2B1EA089392C517681289F6CECC9939FA5D16E1E22CED2AD35666F09C8675E823C883E04DA1D0D234909BA0BC2FCAE1054B4FA0E55CBD3456F01246D208DFB962DDFC220D1D89D596F72AFB5534AC6762880FDC5B9D7CB532C9E79F3DE37AE7BDACCFACA0FFC5B317B826970BC566CD4D3EAA16AE501B306E8344A39506561A853B105880ADB9C1FB0E29B49AD212F00B40F2CFC19EAB5AB1B21C849F31AAD5C7F5248D100C6D6F409C2F4FAF00D4D99E14A972C2C0B10785B8345839D8E385637549DE721E68428FA2CE247DD6C2552503B48B3BC24E7EF9F5E6512BAD543312B29F6714722BA49DDEF482FE1A2CDC641B52B7C52AE13D81A625E3608934ED200CD3C47DBB10ABC8F733E69DF841849ECEF0A0964E8F120C7845687CA1A4820BEF4BCEADA45503C058336A72D90F8ABC61E77A54E326D10792BEE48FFE728F6E0414AF0E5E5D8FF426A2F93B5568839AF1B488DEFE9DF1B561B5E9D5701A7ADDE92DC06E6D6D865599397C1E32861BB78FB9B916C4EA4E399B1D2FC9CC0AA30E94CA8E558185A9395CD0135BB89B6996CB180C09DF612025D7550D87696248A1A9FAAA5C254790ADFC14FBBEFE82D084D34D575904117C0BD62F044E032625FC2BA1CADDF274438F4C74A7C0445E22D1D3548F222561034B308FAFD231E8015FF5849376337CCCA2B1F09FE34A10B71B72AB9D4291B64A6070259C42BC2C011CC03B47F61C571126B08F96369883B664324B1905B014C011612D710932158620C2FE8466A80A2FD3C4FD0CCCA685F3827B212277C119ABFD9E31158D0F5C30B033CA752AEDF98E95593C1C0F0DDD431CB68974092993B919FC25AE84921347A56C34EC44D24775E6BD305C2362172336DBC33CE54A29424A585D1AB35E4A882D89D56D1A6513A8AFF8A06FDC75BAE04777773682C374BA43076833E90B06236E581CD5C1B9632F3C54E03937299B1AFDB7B07C118652E6B02223D761320473E7A34D356E4BB3DE5DB9FD17A782CBFA34AC3502F702B178C4A08A772C79998AFDD6548E84D03447305B01BDD79CECFBAEFAD4F122A025A6BF7B31BB421A1C0EF73286787DFFBC59A70465564B162C09D59CA1248778E9E766C640A584ED631E074CAA7A433C571D07013CF3643A286387B1B516835E2B8116F930D18AD8A69FD4B50585E52EF02DA277B43BF1722944A889703A7C3C8077465A1198B4BF33A4AEE0304B2DDC352EA30C331088F9A539628E59FA98969DD80237FEC5FAAAC231B1F359D3C3FDFAC1238473DC57F97EE72525A3CF589B42BF39FC84E6AA6DF5B3EA729B10AADEAEF6129761A632130E7D2B202655FEC3A93A2638D2BCA2FFD9C285843D6BA863383A077DEED59C1BF23B5B720E7978E55CCF5BF73CDDD9F5C30242964BFD3D35507052425F21043C0206B304597586917948F81C19952DC7E4A2F46DC4D57AE421D25E007603266530150C83519A6280AAD91788FFD2A65BB96ABCA03E4F280A63EF00549C18A806833CBC7B6CEC93694B3AB193B3DECCC3FF9059CA7541C0E8016ADEBA65590E42D41C6AF9B0B74B15FBF1F4A4AC3AB9A33F15260B63A2447A78518E1D64BD186F4C0F10EA24717BFE294849C9505D470874645AFDD3BC49669AB3FE25CA58CAAADAA8849498387BAD652089873A0CC618B3B45F323DED720DFC41604F6A1571224472B66D29FDE2A21F0B6AC03347832B2DA748CE58F28D6AAFA585D30907123D53358AAA1A4C0FF6EF8AF100F7C7CCEDB0309E42075BAB38A2F8B4D4B30D55EE0AEF61908FB23A5CA967BA709A2FCB0180AC161135E1827D173669F27EA64AD5C6BE6A5BDB821D3F59BE7D05E64472B7C00CFA6459852388B10FCEA889DA1E3E9FAEE5F027CE4AA3A9F458D1C7954E177CD89A513C3BE605A55878D0673D3734D2B478AC87D265A2DD5BBEE3F8AFB7C3118B18740744CB5E4DC32FE09CDE08D89B5F89BA792AFF637BDC7B57D1B43A9C905DD2A539E56A6A644B5C68A8F7FC5BA504DB881F6417C6F0D9C136DF68CB6AE92923D883B03347F10CCED670DB09C01E77C51F373F4994E9B132EBA3D16AF7285694A801963CE49C6B01CEA9B4A08D60F9BC8E9F53B773805835744CCD2A3AA63FD6F80A1CA487FA3DF72A599BA6238F7B6B8F13E3D62E8017DA6E671035664E00B49C3660AE6A7CF12E1F9A7459433453BB5C9CFEA8DE0A23F99BCE509D3BFAD2E424E574DDA59254D6F3A6220EE5EC0AA5CDA3538F9D7DC10B383779FE6AACBC602DDFC2477E919426135946F5D4C2F337508C67120F81B87AC3C1707748C162DE994C0B91249C565698613C6A820A1E4B3D5D62A80DFF999886E8AA5293CCB4AF2F7820C94BA0F9ED34C1C56CF10C2C1BCD6F9AE1D3695D0E9C4A13B81B0EE8D5BE2D4CAB175E04547CBDE8373127F180672A4BDB01FC04E6434125D45939089FA9757C5184409A3A3FD096E2D80DBDD1AE553642523532F73FFE3AFB8C3D80D830AE5D4523D1B7E74661C1A7625708A74412AC0753F698FBC972CFF7E93F34214B49C1E8C3F503C511518B75674D045ED8AA5538BF47E5F271D4408C65BE1ABCE02FEFDB0B1847DB9EE35CEB1F58C734F710FF89AA2EC37949E484BE5C1648E8F66EE4E2B66CAE2232AE1076C7A8F4D5EE2DE6E327D136E4DEE7D3FA4D8EA788A6F06DC3DFC80A9B28244A5E494392ACE2D2EDBDB519EC8588A58631092D2CB72561CAD1429E22C0D62144DBEBE5CD4D5CD198304188CD81D7A06962B41284ACC411D902164908342651F869306190DAF08B2DD205662AAA5A806350960C9F1B3E20EFCE2720CB7923147870D1DD2EB3393B67A8F01D4092A6DF3465FF7C56AD0D715D7172231EDD9244FD36D5660DF4743420095034FB8489504631763D3829F6B8E1EC49068AEFA812F5FB5ED9957DAD3ED7DDBB9E39BACB771C0B101C30C72CEAD24AD8977E06D448D5C963132D81694E9E5CF10883354BA2F329EB3A3162445CDA033FF91179F00178F053DB91BEAFEDF862D40FA6159D2B1B9025A30F33E94BDA068D38AA1FB7B246021142C4EEA1061BB742D56C6C06E8202A794CE2F316A817B22F402AE8AC8CC2B47AF0DE458BD0FAEAF8A5E08CC8EE35C8C70BA2AA4FF8A8280C2CA3C4BF9C88F778E383A28E9C62BD089AD27883356ECD34DC9510AED28CCB3747B9286EBB10033C93B09C667B6FFEFB4BFD994197313654708479180819FA8360F3623CB97CE89A3F30D8EA3A77AEF5CB04A631A8226BA2550A2329F0636F0202E85D696682E1DF6C5FC4079527E0B79A189D3D67B2FA6D5D04CA683FF456A6E92CBD54A2518B1CC456D0DAF035ACEE5519B88DCF0DF1AB73EF954F96EF8A966E108FFD4F46D51F83F4242E23D5360E6DFA26A06164A2EC5B47750FC9F9745109E9419C0DC215E4A05DE46AD36357AFE26AE342AF53442CCA51B9B9CFF8CCEDF6E65F8097E14901799977879BE6F5A2DD5A4B7E2B77ADFD95B32ECD7CA8D857D059A64F41FCC64AB80E93C47E48110DB2049385F95218EB64D33CF6EA0271BBB0E9D6B2A40FD825FE98EA0DC685BCCEB4649AC8385F5ED3A11366187829D5DB4E6ACD1DE2A0715753568E4F179D661E95F0FF71FCDFF753AD1777FDFD3D146FCC336F9893EBFA188C49BB3F0850626E26C829E15E4C130AAF313B3E490DC5EAC071DC9C38C5621DDB2F199351EA00D1B9B0073DDC12CED562C0D1BC47E751CAD3B11C455B322F8879D6014C6DC47BEB90C8D03CC95FE5D05FE7EEB9B7D186CFCB2E34DCEA6EC88DA8095E00F1843AC1B939FE6459AEC89A100B306CEBE22A6B07B0584F31B1607410C984A04AAFAD81CA6AB7A4EE9ACE90986F658120D9BB1FFFFB626740B162887E17785EF5890334378235FCEBDDD327CFFF376F159743BB9A961DC965B8283E07B928C8FDA12B4DEA8A48288808B3ED57D487BFF348F5FDAA30ED68E04A29951BE9A1933AA521151023321BDF9FC9C164D0F028AD2FE4A5AFDC963C44BA2DB2F1CE27D92907BF2026C3357210C76373B8ECDDC690EDF581046C32174E64ED1534CB27583B1DB14DD7EB819F83C8B19F6647D4344DCBE6476ADE908C794747F199FF3A045D3BB925B8232452E47788707254D0C3D50D89CAD4A93725F1AC890A5B9246CF0C691DDB68EE63C498E6D74670C4011440BBC1DCD2CA3DA153EFBEA43954091E2E9724C77DF7A257D7B41B311CC0BFA37B5671DD6205BC0280B886B0389D98C10229A66588C1C7BF42A8396E4E842EB76AA01890BDA2DB67FDF4E37BC179A35B31DCFF8A2370C47BDC09D58FCE4F96AA9EB85D135C7303D08530A36077FED5569B5C037B0CBCF835B1EEF24216326A1A7B5781CB043D139C9BC712EB96B8CD1F4FB0E85CB1A27B54B12FA48BBBB22E9D0F05069FC2217516D6110BC2F5F0BDE098A3769CB4F67C83A4CCC3383F755DC95410D1A6E8CCC32E406BF2DB494238843DD934588EB451E9B59D0AC6A9F587F39E9D36B53BC860DC6EAD71901EDBA9B2CDB156EE9A6F37261B8774C538B088E0D306B6A5F43B713E2B947767B7C887CE0CD29FCFD44BAE9250AFB812E8A085DABB5A383132ED194614BB419A06EC0D7469F53EE84C276ECA28B63F418EB86D3A8C03FF336759AE24DF49E7C97848ACE0DE8818BAEFDF53CCD23C8DB88DBB7779E6D40FDE143B6789205FC814EE78B1177D886C720469843FFCF6755CE3929CCA89436333091B901DB274DE0509FC5D4DD7BEBBDAF5729AA7D97B0BD55B492BC1302E52E499BC9F0618440715398396F08BF624CD4B3B416815A2367AC428E83F23BC8D6BE067065A1A027C616D157BFC79B7049DBE429F3E6EDB9173BA25ADB70C6D4DD201FE12CB425BE42862F3E9B060ECBDB669BAE1AFE8C063C8A21D23FDDC6150869DDEEBCAAE4E705CCEF0B504DE3889A917ACA9AD2E61C56F43F850C2CD4206070FB7A32C74566CC1B47E9DD315645C215F70370C649DE024C5597A92EB1221875F6896B0DC51B116727BAAFBE06F13E18D42CBD8381EC6C504D2D221FFF7A0B2AC1289D0932D98A8C24B22EDD8FD6A3D8022C299CDA267DE4DD1A59B299EAC7E8224DFBA02EEAA4159E98166208F4CF22861C37BBC3DC7D35FC0C04CC74921740F268DA506A33A5749315B552FC5ADBAA76008A9768D9B89C35272F3432C20D5104BAC32EDD026343E7376513C6A943CA2B5197C274BB8AD427B5DEDAE3953984B51DA1564510201BC25535E9D8C78B96A0A30A96844B22B041FCF8C4D88B3821BE3923EC1DA6721B7738B939AAC8BFC9AA9185816802D5F3BD958DC486F850DB94FC93E3520C5C0F06C84AE6CA7D28E1592CF926985BDC77CE0A99F12C767C853A84B629F4A6DD4E1D563A262EDE5F995735DDC4F589ECD8C84023324D80ED8DC552EB531B3866A4B937268A61CBAA86E866D1DFB7CC94F21A8E6F875313A9BBD69F08E65B912796A3EC27D36CBBDF4D86ABE285EFB3EABDA4B908EA2319CFB421F6ACA91F033D84F362F3211FF20E6943798FDD90F4A1370E94F29A9618B36CB9F86A27A8C566ABFDF49608D33D384E1580F922BE8A600EDF160DA56B18F89B2784FB773613F88EEE206A366172E597D384C41F37112449D71F60D7A0683A9F385E194819352DC075E646D511175B2CA219E2BAD84EEC9680FF7F6E944A973B8934E44B88786CED0339FA96F063DADBD2E2EC5C6309C4D55B9FB03744645D6A2F67BB7509B18915A5D4C974C031DA25FDC35570855A2FEC6E494A8CE549F42342819F07185630EAD2834010E5E5945B4190437A7F6CDCE6270DBEFE1299609CE56D98C00C1D3DF3AC9F429E54A5DF6DA6827E2DCEF5C40E166C0FB0D0FD5E0AAA836AB5CE4FA21BB77ACD4DA95FE431A5C13303BC26FE15FB7F96D5F8F76395E7A1BDFACDF7045C877B0B9C8000E62BDEDE4D03FFD317AE2431511736605C7870B3169E9B5AECA7D1020606024CFAC2C7055B035EA5B2E9EF2FF72F31758C8EFD5578EE3F75E513E2730AF3F9AF70630294F162D405C8C8045C21ABB275ACC38011508F0D77DABD616E873598A894E2A8695CEFF89689D2C21A7808796912508A54B3A6F5642A7521F0B15D3D026E09B5C44BC92DA70C37ED0489DACB3C82354DB6DD5385F5DEAA15E179A7ADAB015BCDF684A3903C820D7200B4A5AD37E031EE0D3575F131705E15705C857E0C332C702337A36C1965A01B1F249B7F1D8290B3A6A4C662EFCA48BE83BF6E903FAB7854F43F50F3EFF019C4611DEDBC14BA4305BD7C16841D5DA7110A52E62E552F72314F9F96231C27D46A212CB5F0FA3181F8AA89A426EE6C01F73E39573822D1D79EB1BD7869CDC32F1D53FA36B20F65283D790D58489CED0EC5F9310B686E6FF892645A285B12332A3967B8287269485E4129BE7B1B24153605CB2798C73C101BAFFA15FC82B6DD9AEE56D93ED2AD098779EE6CE1A67857E57FEF66B8F729EF95F645901A4454A0D174B881F10749563F4F17D270B64A6D2CE3F8BFFCC0F0622EBE09510B38B1E61D011E0AEA6CFCD25CB84E1B391DA613004709179E30107CA645EC2DD0A80AE750F7E10C2C6D0D89F010A826505F804A11AD10D12EF3FA28BB436C19F092D42AFD02C8B8433EDA58A19FC97BD9FD99C96B7A05300BCE870F9750875AAE7651449DA34C3CE92AF27D27ADE3BC250FA46554A7E66328838BE8BD67D38CEAD283BAE3659933E359C3257FCC34A3D0B59D530052D43AA2B160889ECDDD076947957BB74264715D965CEE2A699D2C369FB431772477D1579A82F07CB2AD95CB877DD0291EBA4F36258DA083F612A78E0AAF91AFA8AA3B78FD1B0F1473602CD7948002A1025B2B0A746E08399B4F4D134908BEE6283C8BDCBF047027CFBF1A51AB2C73416DFD593DB8BE6C56E37A7DFAE08C89C68C10770048573F92586F683469BB9C309C846C92EE3D6E30894FA7A3479ED79BEE5F145C725D06B3245F28E51DBB7D90D3612B93C205F61134CA7E89BC2BB2FD4DA27C6EA6F510417EC1F16B8DF966CB69F0E9E025B403A47512DF5026AC838BC697DD9984BFCA71C7A9E391BFA1678CDB4B4EC7A76E63133E28B940CE24E939AD16E554919531589FA4DA66E566CC9B10A7490E32FF147FC1B753EEBDD9C793170EA868118407840D7C52116C9ED38779D24D5E364686C3BA299B96AB70ABEA65412A30C5456333B57AB41751748E1A53DDCE4027D3CE1D0B4BDDCBFAA98244FAA289016CF9CFF4481DB59E6A6B396C2E083A5791C7547E1B7BCEED6F793FAFEC9C8FD9CE1EF6E84607AFAD90025EB29D827F09FDCE127FF8D37B461A378E3B4092F7B50280C8493712DEE213839B0D1685B4D380C5034557E8DD8730473D9648DF1A3402C2CBEB04F0BD57B5DD591AD5F03A876038164AA5E7ABE1B5C18DEF4C6FF47D961537DDDD836B21B6B1B824E4CEA06E7E345C3CE8B6066A0B3A3D8F9F7EE66394D4B027A52443E8C5F4352C59AB97485B16E6F8F51B2F3D107A2BCEBF23A72DB45911BC1D2E07378A686129AAE549D3026DFA14FE40C9CC8410219B91E5A33A4982C5C102A44EA8149240BD4ED6DD1B99CBBBE980517C7D90D46D15D224F13D16284DFD5F0146CEA25CC95C932922C75075085139180F929FB8147E3C119303712F0110B4DFA5D2B5371231047FDC041B661080E6BAD6B05B917CC8BE77B35B70E5CEF4F8E5979FE4B4EC328068CE2EBE6CE9F7E55E791C6DD1DDC21BEC72D714C1045E93BCBF5498ED0911DD017898D5C31D6F66BFFBE4420EDF082D40E4547928442F5354ED3C832C559B901F8D452067458E0DD35316FAF0F3CAFF7C7675CBAC5E76C595F83CF714C849E630A5875DC5097C2891F8C29E7F401AEEC87A3CF7EAC8CF8BCBA8CD514577A18FE14CE363A57D341F8EF5E111ADE8DD90E718AA52C6214EADE2A90678C899D4DEEAA81652A82516460B96AA8EA124FAED63A91498D177E31BAD092DDF48344481E68A6B385A374CB80A94D858AFCF5173698F73A2EDB04BD2C85DAF731896B01719FAC2AFEA9A7561F86F1A7DF3446DB81D32CB2CE05F750213A78988D30CC95EB2C3487617C95887821C002624527337222370D63B0700E330E621FDF351ED1704B77953C4F74D4D4CD6DD889EAAC40A5F236F9E4ACD4D1EDE68AFFE01C399BF3C1325002487E40E3B45DADD0A0B98C19795E249116226FE2B2E2D2265A57BC1BEBC1F22F6D9F66CE8C1BD7F3D845538D7243B6B56060FD91593BC0FCB4FA3BC9043CAA5DF2755EBF15E169BF29F2CD67EADC426A6361C7D6FF6B375A8E41F748C9B97E1C3C92ED22CE792F5D11FF7C66F3F223CAE8F36B467EE9642C8DE9FC4DBC07FDAEE17A9E33CBF37C1AD1598B91D8F19D576DF8C1981E8E6CFD02E662A5D07A32594E0F4357E6D16B139666C9EB852607EBEF3367B42EE9A6E94ED8EB317C32416B490F6B63EFDC7B0D5C1486A69BA167E1DC1557ABE9C0BA78BD5D2DFE48063B5F18EF0BE7BB96C753632FED13B6802C1605B4A8765DC47A02E96AC14F42A50E8F6A863D9C3FE519C72CF8116832AD0664492D61834E3A4D880DE546E6558F284A2CB302E2DB31FA8CBACEAA2627F8CBE6132AEDFA23B9F572CA0FAA5F6913663DA93805733511D7DA7A5083C8582BA8F49E05B347CB6D68E7234344F9EC7C87648EE3C90606480B3EB5275CBB94BF4AAC137676878B735176266AF52C8C4A42CAB20FB94F9EC1CD451CA78F0FD79B450EB225ECE3EBA70ECB31F83D11C475B0539BF228D3255B053D245490694EE39019291EEC13478ACD2A4F90B9F3702AC37ECCC27978A338DD035AA86E9EE997CCE6E9D1BCB577F982835BA43B0FAEA1E0F8C16C29BE4D34F99160B443AA75DE4BC2EB97162BEEC35230D867F6BD0B7709C9E0F3B53F7CE51DC76E19D675D5362DA0864860A231D7C211B7D7E0CCD58D1F126DF92623ADB4FC5CC8F7FE3CD87B10DEE986A29B0C98CB6224BC747EB2BBFEE815EBE97CB86D211A5C95A831AD86B961E9E11F919EAE777D0DAA9B19A90D486EA8ED8383AE62BEA59E0B6182F0366F615C6255973A807A9EA8F9B90353DC89C1AF459E846BC408B491892D53FFDF7BAFADE551F46EA41B5CC41AC74F7D7BACDFC79711331C925F4A41C84B17173030DCFA485A03168A3F0F83FE544113727BF73CF2DC0BBD8508E4CA2DB2323C1F48F595F75DBA44BD5BB6A2723A96A87328724341B75B21DC6F86F4276C8F15A994B06A03A6BEB1632D5A6E467684359D74218A8C1478E52AB8933F4F7EB8D352E1C9923AB6B2639234440C2354FF420B1EDFCB3B00505CC8E4BA2A14D6796E1558A648AFE04A351CE9C0CBC9A8CBF4886E56AC92F41A8817EA51AB8F3C8C06D5B909854D9D00F0B742617C23F04E4417A75758AF44DF19B173621DC99FC346813EA29D54DCB1235574D9202F5111913AC126ED219EF00EB8A7AD39785B8B4BB4003B9BA19B28CC4DE7E23FC118FE5BE2E5826B57FBC4AF4B0ADCB40B64231BDE55E280F69985F4A563C80E6046EA63C529D7612131F221D0BA85A3C75B921C179B6C24D1C8DDCF2E3D0EC292A2361473EE518D4B02FD99FF29D1CF6D359C6F9E5A6616222306188C0C80AD6C2746712EE8064257B10CBF3EEABA92BBF8097C44F22604F246EB8548B2368B997049C0782CE63890A5B21CFA5E1249D86A2C67B81586894E024DD03318B89EA93B8CD573833538A77EE788FD63E3E5274E1A1E879E9B71732DA25E1DE9C4A18890BDBEA5BFA3CDF8EC912F2B017E847D73CB987AB13244ECB7482BD9A13EC6578DAAE690E64C2465E21048D8D3D93B5766FE2CB0D623ECE719C75624993B67DA0C819C421E18FADAEDD220535AA9B4FCE8F27447E37148C902EF227B08E8B11A906996A81D062C9C3183FAC42875D8F374B1A03BD3C9428CD27518DE0FA7F371F6EC611992F36C4407C5A46DCF0BDBB41BCC9593F7F4EE7121FA012E9545131A80555084B4E00747660E39308EB36C834E1DE9027497CABAE9B0D76053E2A3F8F3968693334F338D3BC74B699A35AFBCEBCC2BA29A89304B3CDE3BD579957DC92A829E5263AEB61AB85451C83C9DEE2ABCE6C2D4FA865B79C209223DC537C12CAC7DE8CB5C6A45537D4F862EB7B62CA9D88F69A2E4933D34252673CE57F60989A75AF7FD50FDC1E7A8DD73CDAD5C6EF2FEF6A0F95B9EB5D65513E33EA7CA2421209B024D14A75DE70B5BEFED1DDA739DA6774576CD5CDE584A805040C653E42548D4FD1A8FED82C61CD68ADA39C595A1FEAFDCA7CA4BB598C43B4DF10ECB1F8D56779FF93ABC0C9AD107E1822B27A58CE154365D184CA47C5726E2361DB88366CF913ED7616CBA178020E19BCFFECE10B5F0FD6C9D3316153361D6ECD1C697B4144CDB8AFAE6332C367B57729313BFDABEC4874F88F2F8BFDCFC5B23E1ED7B0930377E8AC2E1BCC708034FCF49282B5E86A0CB1BD16E1D75FA84251D22CED21C255B1A3B6221E0DBC48CD02117555648F01A85BCAA97674B996C55CCB761386A3B7CEC83AE535F0B58DEE8D7A347BDEB3AD5F3AEA00F1EC5C14993EF9DE5FF6BE53D30B18BE262D2C16D45433E3072A4830457A8E6238A2D3F479FC304164767FE70BCB7C0C053A0481C092D7827C174BA4EE9746609679C1AA5A1E29B58B60B0A44E0BE74B16C0A2595957ABDFF59269840FCA665940DF4F13B89EC8DBA1FF4941E74A9C8373E4563CC843B08C994E031C916479780E900ED9B835524B1DA89A02266EF1B072B47B7C8783CDCE88DD48A72E4033F1CB69C5A7A665D0B1906243B9FAD62B1530A62AD45DEB70AFB3005EC4FB12539A9BDC9F6B5D39D7CC41E25BDEF6000662B55B7CC288FBD335825F1AEBA979479EF325510E7F4928BEC76CBE63D1E903D20550991E5B0EDDC6E7BE835B6DA8291758D83976A12CFE0107446C45177ADFA840C914588388F39F76F81FBE25EDA0965C4F8779565C797A248994CF8F78837534A89B1C77A8078927626265A1FE0B46A8C920FA59451B009442F7B01C7DB57C990C9D313DBB0812220809D30D611AEEC5FC9C41267F64404F73B62961A442F795AB167DFBCFE9F16DA9ACA2409D95B55AE726E0D0EBE97E06780272DC037E9EB645D747734909B120A4A5295FA51A4CD6596E13D2647B2801F919187A785E295C7666F20C49CA09C8569D1DE0D17EAC780D554298181DFA7BFAAF6CAF658FB36CDF8A13B5296FFE88A5A75E2A2A1B03E1A54A8BE9C621F941A040D3C11FC1A9AC3147040229423EC21FDF7DB8A346F8AD41624EF7070E6C9F0B9C5A80D081E167BD49EB3D6750F68A5230823D9245B531CED299988728DFCD84FE78C8301F2796B137611B65937A0F10A2A79C2255918BE9EFFF158B5370F9980CBAFCC42DCAE177297B5E10A90C1DE25CBDFECD23600DF3F19F94AF14BA83C3D1855018DBDEB4B655ACC431C252AE4AABEDD71CD4F159C9E3102DF523D77D01E3044B8120A68F088ECB5B5834966888733CCD5B349BBDC1632580A2B66D9ACC748832F1CB0B12525111AE736EB97C076B20B9ED0E314137A7974078DDBFBB5A7478983FF9E0AD1B954637BEB2281F08F3EE6CD987A4544934D747ABEFF324A461DF86074759ADBD333A983C211F2CAE78D2FC7BC6C98EF597CEF45833DB892F05B076C94605698513646DAD27648378DFF80FCC1ED88400BF9EC1B490C6BF2468E1A99A30EDD234CA06DA2B16B25216E5800D65002592AD6EF5AD043C3B8E84E0018021811F905B29C8647F425787544151D6EB428EC69ED8244830CD568DB85E9B127509ED34FD5F7A0A76B49A426CE22B5546C584293042FFA9B1ECD5933D24416B2B72A8FD21B5985932B65FE82659385002301740027F579EA2696D70C750DE33289CD4943ADC84B4F806953CD75345DD0167AA5159D973B7A85BD66236B31B777B8388F81A225FCD8E55E8C44C0D0F3888EF6B805F85A3AEE51D70B9CB42D824E25FA4325AA238FC4A70BBDAF90EEAF422192AB18FF88E5C88B71FE431A1BB1EED17C370D063CC62D3679B9F5E5D464D510319544984611F9DE63CF89D45B12FD19F1373C58B0733D2D8B7EECFF58C0D35AE99F599BAFA3BF232A453AE7DDC2276225E2AF8939D8F3ACFEF823690EC69E95C07320C5C229BE56D8C8EDF9107301C9641F5D9B36CEFCFEBBCCBBB52343B8B1AE0B13AA6008F5C1DCDE4D3252324D5DDB21E1D8AB95E5B69F52910EC2D2CA09A1190893385339BF3AA6DC5549DF6A3B76856BED042C0AB420F608D482A2865DB367AE12C8FAECBEEC331E99A24DCAE629EF8FECC872B0F598E47C89FA8286992BD529EA7EE20BF03FFBCFBAC426E3DA3DFA51AA79904487FC35555404E205F511590301BAE4EA3A1AE8A13CC1F799A1B8F78110EC4F04A678BAD17939C4DF0335C2C4C563E80BFAA7CBBA44E8275ED42CE4FC6E8CBC5DC2C56C6ECBCDE00F273B126CCD16B52B5D25D4C68671EF4D24C6B60C49B6134B7CFD54AE270EFA687D91B0FA80E1F1583871065E72F446758471E79B479E5B0D6FBA4100ADC52FC8A5BB618CC4ABEEE6ECB90D4139F10EAE2470EEC7D05A8B10330A72E8C2C3F517EB04F46C880B02EFE54379D4469FBF5B65A0E9C5609105FC28D327787C678523E7099AC29B78BFCB7725C09071CC7270040669AA8126BAC5BD637A40B66E550664B9003C90BFBE2DA6B079136B2809198341DAFCEF3E48D7E9DBEF196662DCF9144518DDBAFF868CD04DE37E88F57C34095DD4ECA1AFD24B4795F233296C66BE516673452D6D6E1B746C4ACEF20CC5D43B2BD4D25C5531FAF5F19F1F1F2994B0A08E905E3323F641A3A0B52EF9D4A43C2ED2F0FAA34C3960C1E29C87027AE98308648E13CC95789616A3412304E6BFC0C35BBB45613515240DC2DDF676AF23ACDD674E4B6C1C69CB9D45D511C998E13A9C0DF13687811EA5AFD1830CB931CE20061FF251F99E6A017EB1EA30C210EAB0949B57658D51A06936377495C250AC8B1EE2022343F40598537B479C549AB23AD5337C35724E9E2FD19B0633964BF6A5346593D8F771E73F8FC29D5035B5FBB0532AA2C928DD153620FF493097D8756F5DBF3277023608340D74D13FA01DEFE25C82B105A801AA9E041B96001B0BD7F0B6B959D42F2B01185C1FD06100F3ED588A9FC09A617C0AAABD3FE30FB8D460522CF82F15128904010F290E24975C7E6C7B11C7740621F08F94CFABA6ACDB108244C8CD4970042535E67219E76DB74DAC54BC32A4B7EAB751C5936C359DF7758B5DCA47BC698671298E31C1F11E95AF5382D1F78B44D2C16A5EE0F666A600951CED3ED9042AE6B8ED29D03B9CA3D761600AA1B1DDEDFD3C4A0296BEB7996C975B2753D14EE674EDAD7479AC2E09AA72F08CC3631CD12450585CC574AAA2D5574F10B1CAA0E7B798FC0C5614A139AB8561B0095A6964846892C7B806CE142F503808FEFB54DF7156DC40180F78B8FECC8DD6BB2E376F33286BE6AB55D1AB44F7FBB0562D0986725A397D18A1F94255B6A2D8612CF4AE5D12311C97D75A26BA4F2B08C85B0CFECD623C515582204E125590953BA010DA99959B5410ABE6CEDADAD2C5BE9D17D7628207B8F445F34F940A3E4A4BD9DD291591C36687BD982EB044134A1D4A97835CB5F30FDB102CE50F211D453DD8FB3A3EDA25DCD9AB611F48DAD6416EC57DFD314C1162AA1CCFFF50D7E810C