builtin.module {
  func.func @snax_main() -> (tensor<40x72xi32>, tensor<40x72xi32>) {
    %0 = arith.constant dense<"0xB9B0DAA4FAD74E7783B074C28469966A9C626DFBC49F51F4D40572AC63BE915BC9C5C5FA49F9833AEB8A5DAF38BFC1B1E71D200F905565F592E306558262D5542B99740615D2AFAF98602EA609E5A1A844DE698C23EFBD446E4C5A7AECA26430EAEE2D65FCF8F6BD25FA0234C99D2DFB6F608F6415F4059D96ECD00CD9E92247FE27F202ED54C6A93D0B1E0D7B67E8FB314FCB33AF7C8267EE18ECD39601E1DE87EC7CC5163496782D3DDEB6B02A9650B17889D60EB12758B513B632D26AB7E8E6CE43D468A82FC2902D6C0B2F497DE8226C0A3D331C6D1917FF48926FBC85D0F222D2E55FA1918187F2CA5C1F69F394C111B2BF75671DC315BA341325DFE408B9F156DA6C1BDF8C60DABB689AD10ADF01F0AE7B1A45829AFA60F9318C97C00921ECA10D8C230664841CC01A816E29AFEFB82E8B90D4602BA2F3E5ED57E99EE79351938BCBE12FC507F30DF4730989D714EE6DE6EB9631588634492279C807420FCBB867AD51C2058975643BD58C22CA92EC4D852D7A81019563DFBA17E787CD57991CF9486E7C27EF03F2E9F457CDCDC4DF6A524881BFABD7137E7BB58A5ACDA94B9395A4F97A5B597016749F8384C355A829C434D5A89B6AE6443AAA6651AAB4EA345471F0495B30C5DDD6690922BB3B80A1F43882941B26E95E74EEB147BED3A9BB4C4BBD96238A439721D8278936A7493A58D0345A5D33843E8DAEAD79C0B08F1FF4964489D9A36078AD7920487DF142149D04AB7CEC51CF4716101BF0BAC304ECAB588AF2E9F23AB947B150494E194A6FC96851CC56B826B93062FC5A20F832E026E4DABE98CC3C8CF4DB25FF56CD2FBA0C629596ECE9E762E7CC19A324E99C9A0A9A0AB645DFA34737C195E3348A578CD262DD5269132305B991A35C6294E566CAE484B0A140F0FE6096ECD2189DB3C9E0F5E2257A7D56F7709262B570FF4B9C6665BF3207D1417EED944B79F6D3FEB9F7C1357AE97E06F1B1285C064389B767D74E132C5D92EF0F1D752197C8C78F7E4B9C186B27178B2DB4DB9318BF643CB8435090DB9ECBFBC884732869DAAC8EF6C49C38DB223BCCD09934ABA5E18CE9D6FB022836693D6B286D37B88BF2139576D5621AF4220C2DF25CD23BEB164EE01885999598D4C188A363A808E5A8F84E7229C0686D1AF5F2ABF2EC08B2300F87DC244E69AD462F2B7C4805F54BA0FF528AE6E5C08CF9EE5CDF158A3B81440BE64ECB6963A6984F018340D5787416F6C30F317713D3B8B64CCF2296FBC56FDECB42333AD37225B898791072D92C93D491F916948971B777875CB8DF1B48896941436C331C8CA0991C5AD941764835E82BB31D32B8BA9FCBDE5BA7C22612F28F3F847010C0B7C997768E0D09B267478E790E16026ECCBCDF7E6AC4C3DF77A6E1AA4AF58D872C5AA997F8935AD6156A0422D6EB27F56074203AD93C7BDDD8FF1306F9309CA84D454EE94F99B194411F1A83C03A7851E7927A6C4F139B58A747157A82BBE3DB041BD03CA855159923941ED98787EBB7AFF9975CD7BA2F99704A687709303904066101EBE92FB66AA95A94FBDED4FD4FEF7E6C551486372D5FF4F193F3A8704B4DEE9736B53161536660881DF662E9504AE16A1AB2AD2D06CBEDA70309CA67F0212EBE6D6B1CD5625E366B2FA18EB5B90B1D377364C75A9EB6D51F47E4DEA21B421ECB97214B8E3B862DE2ECD4F67AE30B358631649CD0AF613F71CD889F6AEC8CEDA22E75009197A41739672FFE7E84B280FECF570001228AE4F618C8741402CA2DDCFEE9EE45439AD2188548ACACE21E042F8CE1EBA944E16CEB204B6C851AFB62518919F9D7F586712B060C63BFDEBA5B047910E1E6C1285B76368FC8D34735DB72A72679E371C19BB0874A6D0D1C0CED8C874B1937D996459D2214C256066475CDFD8E0AC0FCC2B614C2D948D4194A985F83F1EBB9CCD94BA6D9E764BB04675C9C5BC9EE51F99B57F32BBFE430309EBAF3686A68EBD7EDB409CF71C16413CC327EB839B562703ABA5C074BAC0948BB09ACE4E7D56BFEFCE18077AF80A2E2F1833EF9BFE85600FC29C91C195D6C0C1E51D21174BC03B321EBE96B8F85F8FC665416AC4653E890DAF19BE015E4B01DF697FC2464A94E5629E7FB6894EAFCC3599902A764C31A06DFAA75E46B8B0F68CDD05C0200BB663BACA2D36BD497A6B3D4A5F112E1A3513E7D8AAEFE8F56F2D77864B4D596EBA5555976CBC040D7780B2ACE059FD6ADC0BC2CF882D5ECD403C92F23BA9BBBCB3B564A599AE51A58C089F1C2436B3790E30E208F95B7EAB044F7C8400267F9663F42F2A0CA02FF84FB53C018755DAF3D40D5E35B944C0869CA04663EF1D95FABA271E2AF2FB3812128860DF680CD053E311CE24F8392A3278D145F4B4A787B9CB504B075AE59C43A57A50801B61A7709CE1BE446B08049CF8D1DFD49DD2EBD3637E630D54999C2EBD1F20D07A6FE08DD6AA0A182331FBA18081D4554B1B3BF931AF20B077D95ED21F64D12A0FA275D72AA7D23EFD9C5BB81D7E64DE5ED59E204D712F189A7EEB9F32B9FBFF4A980538DB44D0C67DCDF9212396CF5875F3FC9098EB5E7186D94BEB51FEE4FE42BC69C628A8B247CE1F8B7C40E2890B07B92103B0EAAB9FE8BB46232C9CD43F2EAE9295E84383B845A36FCF37282D7539F013FFF21A8D09FDDAF3B698F4B159B6790149FF120594C0AA5ACEC529DAD28005E59ABA9F0F1BB0B6321B99208DE0C90728DA7BB108C0D30A13378D12121C819BBD05A868E25E0D72A5AEFC6E47180A4AA4D8A69D7346884513C64152E40986C9386713D0E4DD85FC9431E7E73C8C106E6D5A7069DF1919C805ED71180671D6307ABB70BA72BD9234DC16E13B22EFE08D4C6D586A3DA1534347D17F7321B2A820CD2664CBC63A240C5FF214A99ED1954259477A35B81292B38CDE8EC0E90696EA751C121E15960E62E255A33768D6517A9C226B67DA33981CB5F31F098111CA01D26F6915F0770062D7848C42249DC8E2066F22E2966CA4D7CFD63E3345A2A57E50F9975F908DFCBC7FD6E538EEB6C0821B3DC046937715DA2E0342D3B0031579DD85103EBB62BA750E451F56E1C5356E19F4DA5C85295B2460B2E2146F5FB8DF3351B62A0BD861D9A426D228AC762ED3859721928CEA6E3352E64640794BE8C2C056234FA1FFC"> : tensor<40x56xi8>
    %1 = arith.constant dense<"0x982BCDA56CE2D424215D8EBD5257B74E63425D979B1881EE364CBB1E57233D30B123E6D0BE1C3B054D4CAF9B93183E690974DF797976F673B482575A31E757537C065302ACA77DBD44867ED04AAB5A6E2F94BE872AB3879D7A807422DC73C72F87D84B28DEA20FC7AB2E492E03400E55D8E382AD24F737706F39903EBB84D906AE7DF1AF3C753804C45E0821F03CCD2708D26E5981F519AC8C1E5D6CDF26FA72057E3DB6D0203513C1BC2D1DCCFDFEDD25D41756AC722F4C2038C0DF299459382CD11B8016EEBFF9CC808A6C4C44E6B35BC32E8EA4EA9C15CBFED7839F2806EBAF172D426F31F33CE4639C7B5CE94163280D385E0BB3558852BD87DDB32932BE3989BB8968F4CA44D43634D50995297E9DB5283CA79BA348BC7B954A0B313BFF58C50E37AE22E79BE5067DE7825CDD9995A373F5544A12D4AAD56E41BFBB42F3C469BD72FB75C92DD83CF0F0097923B3E81D33990FBDEDCA33644A3583032AB7FA22F07B13AB755F9EDCA07ADF8A13728C17BBA4AF69123441BE135D1C7ACCDFA2935EA8594D283D03FD5D57711C0194B5085CB9367DF4CE4946C66096CEABA8F1C811D275F753F601CB1FAE37BB2767655B72DFFC1EBF1193024C22C68EA23CB17244E9817C1E22F5614201BBA16F49AF0D2FCA8B6FA987F6F1E185F35EFCB1BDE394C7C4A53889F9EDA8AC98DFC2067B596DE2A6A9A652ED576653444237E1AE40C3035602761220AE68F2775218FC977C6DF732B76203EA9522FF211DE9A02FA546D572F16D4590CC3D44F1029F304FD42B3A79BBEEDDD376303AD4F2B9205B6997977CAD23853D419DFCBE9F9CE06C8B519CD380126FB41C11F175479F1F87FD87AC0EE54DF255D97EB8FB257B8417E720378219FE6FD2DDE3A5D2BE16D8CB2A53A8242B429948202C5DDD4F66C31D9DD3C7F46BF926CD0CF1002DB221284D4391E3F90A6028AA4D955659C4859188FDE6BF9AAD3FDD031DEC814748128149576759536552A7C411DBB93BABE076642DD5FB26EA38C080DBC24FCFE9A059293B86776137000B9B05D570ABAEE85AE0BA611D9A3DA726644E0180EC83A4FC6CF71F4A1BA0DD3BBA4EAB4026AE08C0B664D6D86751DD86F05A20B26B4AE6605A8FA77D1DFF2501CE88A689D88EEC3598A7F74B22763972389E9A8DDC80DD1921A05E7CDDA4C8E62026AB995D78DBED4998A5226984FA5A135FC3C22533E417EFC1F59630DB84895CE0A9FEDC170B3883CEBFE5D26CFD326C6DA2168D5E97A4B21555C092135CC69F7753215400EEDA20B92679C71F3B8053CCFB0E3E539F8752614F7D4769571670600B2FF9A6A18CF3E09DCDE234047018918B81B4FF79B945821E87FDAC76D5050B4C73D3DFD2D3D70F051F936BCE31542914FF1107321D7A290A5DE96B8F4241723C261883E4E05EB3F5D56AB7DCA85CEBCF101056480A3AD09E00297419140DA0A93DE34C8D1E94DAEB327E1A2A98DDCCEDD05CF1EC36E9ABDDA4F0921FE1FF35CDA2177ADE5674D0D6A730E14964BF0CD7912034815AF6D53C40DBC29C9A5E34639222E7A5065CD7136EC2B1AA1EF0EE40FE2BD6DDFF84FFDA35F8B75AD440A2A7ADC4B279B718D8E0571E43C9F7D384296208D5A381BBBA18A742C9E7830D740AA4B9BC5B1609C65E7435422C62CC1E5EE202BC618B9C7066A5CE9D9801F08A48750E31B7145EA023FFF6AACF7765576732E4ABF806CFD61C3E77259C824A642258DF8701DA5C5940EE73E0203A8EF5B6AF9EACFEA4DC365F8682473014978EB5E733411D6D9B1576222EA808E7F40604C4B1BCF597390BDB2021021D9877F9DC741EA64167EDDDD85AAABB97425DE7C9DEFBDF74BEAEE9105FA8DE4B619038226BB7849D8DFFA7143F76E27DA811B505E15DAD98D3B6FB638D70A7B884AD6097C78175D2FD52CB6B4A53410CBBFF919918EDC72BCA96759BB821AFE55171EED2864EAD4B2DE0F2B29A7B6D52AE361F4FAFA28FDD7360757909AF761F876A7BA21BB27675B8F5A60502C19DA3EAAB7B05F1B56077476CD54B48C7D03CAEDB67BDD5232451D67DB8202E185A2F7B087C803E77353BE848907773C801273BCBD169B379576D6D0AFF45E86A8668B97BB277EEE64280CAE76C3DA022A7E622EFD592E4C6E92AE5030E812717AAF1C2804B8C20B52906CB505A0374A52A2389AE4A1C1F2F16845408978B384B414E7ED8891DF75B508A8A6622B78A1AD0EC51B5FA1E9ACABE21851693E3F921A511D53FA8B71C3A0A14AEA5A31704A424DE7A52B733165FC597F632FBDB22B6BFE16E02711D7EE1D5F6EAB218AB74339A483E8D5D7C8AFBF3057A91DB94C651DC9C29B4E204B30E946F372300F373E5A7FB5DBCF65CF1F59A53A3F4C0521CE4773FEF72C8D8B493F56A4C6050836B0364C35B801F425E9DF7125541A032C5D61A86151BE729A82A0D0321C451BE7A736A91B1BA096C86ACB355B15E51A15C4F7AA81D75C46F4BF3BA5BEEDE7347124D7558571FB48BCF89ED74237513617AF3ADDA8492C39A89C3CC54DCA9549C06427338B08D6D23A18AB728B23EE4FCC5AF271ACCF7D689BDB6B194CF79BB79BD96942E79DF246631E74AED3D2EA441B03C9296F7DA4700D82E25B542D5A0F911955E65DBDDE8E92C377E393E745DA3BEEF0FE5DD206F9D0A2131CA8EEE390AF5DD92E400EE43E1C39BC7359F0E743869993622B566A458AF0CA1EA33E64BEBC27BA27D2F480DC5B8DF00B53FB9178CBB318C8F02564F26BEBCF927FE93B9784DF7C367128EC867DA2AA770C6F11913CD361A54972E100F21874F42CF2895E14E9620083F6C6099B96CB50144FC7EF985C7CF02105FEF08D9ADD4417B93F9766EB9585FF92353BCFA43021C16746832ACD8A740C67EF076D634D04D15F40C27CDD444BE0B04055092D348546BD0DDC039F945978838D69FF470F259D64DF1A0226D907BF16558766DFC6991AF1F6878519BB542136B71F12DFA53CAD9068B3617A650E0F162F34646302D5B728F629C82F9B0F4C2732DBEA5BDED97D2E2EF6DFF17932D9911D1836C466ED6A3709393FF9A7D7E9A833CE38D1F8503B07CB41585CBC45410341DECBED0ABDB8DB9474BF89C7B6E00391473E0AFAB5945ACC495BA41054EB16E9A18E3291A544B061150CA67B0061A2ABBA74BB66DE877AD0D14CF86B13854AEF9641EA99E83A885126B0E2A2EE29E352B386B7ED00936BBFE5C3C28C5405251551964B552B38AB9F58D4A1E23A74C24EDFA1386149FC363697BA1701EFEE9497DB70B6E058BFBDC135EA6A3BBBBB5899E51A2C02E084801228E150E82B6207DBE2077B76FD0006D6B3C63132EA668A34ABF0022817B589ACEB2A0184428DC1B61638CDDDD651371AB3490C1FD9E28E4F5EB12955BD35DF30772AF3F821078F95E7B71790C36ECA1EC45D3CB6F5023673E8EDF30890F0ECCFC0BB65B3B18B3865D48ED2661B226E4286012936976558A97D3AA879C11D927CB201CACDA6BB2DBB0A017A26AF3B73A38098A03A399D8C687D6C158D1115968BC345570132108151859B0BDE18FA4F4E01FE6101200A2FF68139F5225C2BE4B4BE6137D338FBC1D300B1A4914D22B4147756DA24B00DB11F0ACD4604A7E93F5E7B145A68349659FB872500743A41B593BC5B389539B891556C11841A62D2B29432E4A2648992B59B9C1CB5692FE5315E8C711B5AF193422AA138D4A9DDC181ABBBE781A1C610574EE164235FC63AB45A7558089D73B31DDD5B532A4259EF5B0AE35F4AA559F56D0D300A2AE37FC28F57B7341BE72D9FA8DB2122421AED5959EFDB561A6F4F650B207579E853A4EE9C2814DFC61D812B00F68D48C894690E7019DE517E1FB0C33DE5D54C2F46FAACF79B0ACC7EC22E20B48A3C1C626EC130ED6E9A454C71693D6274DCE26CD0B99F9D6959AF0AD71AEED2C6E02455616BC5DC50DD9BD55064E4F1D3F3A9A24940A782B45D430C2F4D6ABD9BB9A63534C4E9658260CA0CBF264C5931C49C0AC5352A566190FC2FF5B57919AE488234AB35FBBEF0A51667C68D32B464AA5FB6E29275B503CBA33F95C9DF5A6D67E88209F03AD0C291E9FCFCE75597496E336F7C76B6C250EAE2BB8AB0CF3CBD8B4B20D47C71AED4C12767CEC32166585C075CA89D0BEED48345848EF5F07BF6BF6E811081B3C47B8CA25E7E1E0887C1CA6D8CE8B78B4F1D78C3049DE63F2040449385E3177C9E167EAEC7D0126F5066B5E46DBAD31A3A024EEDD1E0A2211CE94C768AFBBF8CECAAE2FB6EF4B55E588205B61EEDC2CAAB827569119AD44E16C83664B12D5CCCB04B8E94590A99A8DF1A3F11B4260331EF2B596BD9BEC8D560299F272CCE006424717635DBDE9CF5DD2A87A190F14899C0F7AAD0A57E74FE470BB142A47DAA7647B0D814061E5A1AB96EDA739DDFFE59BE4CA2D158F51BE8BC1D1B53F21C7E9FCDF305CA1FDFD76EE9E24E211488FEEE2E0E9779D8A889117E2ADA6195113C16EA45C3BF3CB2463FF35C77373C142D40542610D811337E8A8EC83F4D235704C215EED8DD56FF130CB99CB3382A2D583E027AE5DF72504D2C34A39FD5678B781BE7E5ADE3F09C0EED9910DD2F86B0A39FE8E4EE675251A5F48CECB88BAE62EFCFFEAF2B312121F8EF7313D07B99117570E3B07C9CDC1D53C6CD0437BD176F6237EEB76CFDDBFB6BFC13F15DEA9461732371EA156136EE43221AA54268F15179421E6B128C4AB740ABDC592923F15934F2F8CFE3769CE74129BD106823983506584CC123101A84ADEF97D803A088A459A927942D5E1715B4197106242372C8BE85FD61DB68FF7D1986C2568A2DE339C285812206ED7CCE5A30484F406D71832C50FB2979061C953A2241126B2CCBB704BD0C3D296914D1E398D7DB925BBDB1D139B4A4235029056521006C07B381C576A0E1B0397F4CAFF53E64FBEC544F6F765DECFA3186FC85949FE76F235C7D781535DBD02D632B00502E23B7632D3251F9BFA085BDF4CC9C423E649C5CA683B7B5B65082F7B80C03334F2A4CC7918CF92948778715CD4D4F83CCF7122D1859C17D2C5545C99A1F3F6AFA36D5A4176150B730B07EC1A695C29E03A2B54E91D478B752F325B154F455E5AD3CDE5E5BA5462F0435A55B11DE430E467506296BF06563856284CD498B08E2D741298E2837AE62AA6745736FBDB413D31FED4A554D4688B49D06662F5ACCFEBF87E96CA2852610E021CDE47B01D89348E5A1303C5A0C04ED9E2769D197367F0341004E370CBE459CED41A74536582514CA7EDACF70B5C8E5FB87A21EF327DFEED5B5B2AB4B0AEC5DACF00389F3F0B20F49D8534452B8FA75AFD7600C0267319F7AA52E3EC8B0F2A9A2CFA1EAE78BFAA9160810EF896D160CF34B95F8EF1C3E31E81DC57C41CBA0152A95F6D0D1484BC6297F419672933CB17300EAF391F789B4A228D532974B8BBE2FEE242EC9D5E982B24794C15DB121A3138493FCE2434C0A2BC27A9A52F87A0C643A31F9C147C267A0D7A95BCAD14A3A729C3D979EA34A7248B9655F60DA165661815D335AED1B660CA049D219F07C914E128A7141CFDFD5162C63EC3CCECFF180FB3CAB88049957B79EF62BF3F371A924D8019715104E62C234BEA11C66C154CA4B821A6CB1B4D997E33069C5D832A83ABB604D7CC1B696621AA3072E9E77060B90934C6B9E9F5BF475064CB29B897557DCE261F5D3D70453BB0C92FF9758AA5"> : tensor<56x72xi8>
    %2 = arith.constant dense<"0x2848FFFFFFB100002522000053EA0100D57FFFFF26A00000231BFFFFE1B30000E91D00009BF1FFFF1CDB000041760000B8F0FFFFCE570000503400001A00000061C8FFFF425800002A8400005DECFFFFD485FFFF46CDFEFF365FFFFF8A69FFFF690F0000E7ADFFFF8CF10000267CFFFFE6DEFFFFD4FCFEFF905400008EEC000033EF00001C42FFFF93DFFFFFAF7600002D22000024D4FFFF3898FFFFFF9B0000675B0000F069000092F80000B3F8FFFF635D0000EE52FFFF1002FFFF3B54FFFF57BBFFFFD81D0000243800006C100000EE85FFFF20DAFFFF82BBFFFF96CCFFFF6B6B0000EF510000AFDBFEFFE990010009150000A30A01001011FFFF64D9FFFF285F000071AAFFFF1A8FFFFF83C10000C9B6FFFFDC22FFFFA7E3FEFFEBF4FFFF1EA9000054FA00003ADCFFFF31810000582E000042940000CDEAFFFFCB62000084630000CC2800007DA0FFFF14C4FFFF70AE00004BB6FFFF5C1200006782FFFF63FDFFFF75B20000C6EEFEFF302B0100A22CFFFFB02A00002F5AFFFF92B7FFFF7559FFFF3E540000C9850000E32E00004894FFFFAC63000085D2FFFF04FAFFFF3648000088CAFEFF6B24FFFF8E690000F1FE0000B1190000AC4900008380FFFF4D4D00006C94FFFF940101007254FFFF460101000D0EFFFFA0400000AD040100910C0000D9E2FFFFEC150100E5770100332C000069DAFFFF8932FFFF51730000EB9FFFFF1A5B0000F31DFFFFD4B1FFFF884D0000A32FFFFF3651FFFF8C17FFFF077FFFFFED6400007520FFFF424D000032AB0000185100005BEEFFFF8D8FFFFFAB1FFFFFD67C000003060000AD81FFFFF74D000073A700005AC9FFFF1CF9FFFF9B4A0000FA1D01001B0B0000156CFFFF7D45000071CB0000C267FFFF1034FFFF6F59000038F600000B5B00009AF7FFFF5C9500003A610000B859FFFF8198FFFFEE9C0000F83F000027C4000006140000F862FFFF25CCFFFFCFF400006651000085C8FFFF192E01000FE7000085B4FFFF4B57000002C6FFFF4A730000EF8A000098FAFEFF623DFFFFEC4FFFFFCB3FFFFF7E170000FE9E0000E02F000054F2FFFF232701009C560100895BFFFF43A5FFFFEB86000033B5FFFF5858FFFF3783FFFFAEA8FFFF8375FFFF9028FFFF7240000037CFFFFFB6630000D234010046E600006F22FFFF982E000045B2FFFF7816000093110000D539000082680000F277FFFF8B5AFFFFC4B4FFFFFB180000B98CFFFFA3D2FFFF600B00008E8A010035D30000233E0000A29CFFFF48D7FEFF847FFFFF41020100A9650000F264FFFF4EE8FFFF1842000023390000EFA2FFFF4AA7FFFF932A0000B6870000850100007733FFFF1FD800007A9500006FD1FEFF98BDFFFFFE0C0000CF2F0000AB3300007C96FFFFBC4BFFFF055A00004C5300000665FFFF579B00007A230000986BFFFF38DDFEFFF535FFFFD674FFFF3A5CFFFFFCA7FFFF39F3FFFF64E7FFFF2D8A01005A790000029CFFFFAC5BFFFF35EAFFFF3D090000E61E00001BA9000060F000001FBBFEFF7C9900004740FFFF3B49000091A5FFFF43AC0000801D00009D9BFFFF79ECFFFF0781FFFF65550000766F0000B90100005BD3FFFFE518FFFF475E00003C33000015D20000C22AFFFFB6640000B8410000DBA6FFFF3A1E0000B289FFFFB7790000FE0901003E7EFFFFAD2FFFFF0C0E0000C67E0000A117000083EFFFFF0D7CFFFFDE44FFFFAE08FFFF5610FFFF3A6200003BA1FFFFD7ADFFFFE78D00002AAFFFFFEB62000038E4FFFF6A31FFFFC0440000E1050000A42D0000AE9CFFFF3F45FFFFBB5E000070860000E4740000462C010020E9FFFF2F1E00001599FFFFA04F00001ECBFFFF64200000DDDFFFFFB2F700005F4400001AD6FFFFF1C40000B68D0000A472FFFF61E8FFFF27DEFFFFB3B7FFFFC53B010013D9FFFFDE77000014F3FEFF82000000E5A10000F56F00002B6EFFFF465EFFFF6D33000080B1FFFF77D4000048E6FFFF1A640000492BFFFFB0A2FFFF3D73FFFF5B6FFFFF23CFFFFF7B7D00009D03000065B1FFFFF0F0FEFF9BA8FFFF28580000E5600000470D0000F4320000E08AFFFF6ADBFFFF6683FFFF18D9FFFFD1F40000B98BFFFF1B14FFFF8F7BFFFFCA8200005E29000058180000160FFFFFCA480000A81C0000D13A0000147B0000807200002A5F0000DFA3FFFF3B0100007E840000EDF7FEFFC6C1FFFF217DFFFF0C3800004F570000CA3F000020E3FFFFBBAF0000C799FFFF183B000061C2FFFF8A0700002E240000C352FFFF592F0000FE0000003849FFFF273B0100DEBAFFFF04ADFFFF9718FFFF6B80FFFFC270FFFFAF5EFFFFDB53000077C10000DD8FFFFF226CFFFF4057FFFF3241FFFF905B000069FEFFFFE58D00005210000014540100A886FEFF0D4500008FA10000CFB0FFFF8CC0FEFFA4AEFFFF5056FFFFDBDEFFFFD230FFFF74000000C7E8FFFFE15BFFFF2388FEFF089D00006E6900002787FFFF4E97FEFF2F0DFFFF250600006E370100EEDBFFFF1A2A0000663200008E900000CCACFFFFD5610000C9E6FFFFA437FFFF11D80000A68AFFFF61F20000780500007202000043BE00006993FEFF7D0D0000CA04FFFF91D6FFFFF28F00003201000036EFFFFFA4A90000A04C0100197CFFFF0270FEFFE8B3FFFFD9A3FFFF37000000907E00006A78FFFFCB1801006B25FFFF77CB0000E50BFFFF2EFAFFFF71090000EAE7FFFFB2F6FEFF7AF3FEFF2773FEFFB4EBFFFF89420000E0C8FFFF63E7FFFF0DF800009E00FFFF20E9FFFFB89500003D900000EEBF000061C8FFFFA60E00008E62FFFF61480000025901001B100000DBC4FEFF34310000D8F2FEFF5F8B0000ED76FFFF63B8FFFF72F7FFFFF31200002F72FFFFE01F000021850000BD550000F48C00001A40FFFF4B130000450000007B08000004520000B5E7FFFFB54500003C7800002865FFFF239FFFFFF2550000A845FFFF0CA4FFFF5021FFFF181801000B45FFFF1278FFFFBB10000061CFFFFFC025000089E200004BFEFEFF83BE000010E40000A93C00006EE9FFFFD5EBFFFF17CC00005D16FFFFFE90000037FA0000FFA8000070CE000092710100FC02000041D6FFFF1273FEFFF2FBFEFFF769FFFFEA0100001E8000002EA4FFFF244D0100BD070000DF9400009D54FFFF65A6FFFF0C2EFFFF629B000049EBFFFFE35A000013910000CC7E0000E33300006F99FFFF88E3FFFFF87100007B82FFFFE17E0000DA4900008DD90000B65A0000777E000099D500007F030000A76BFFFFA1B30000AB8A0000D3D800002B5BFFFF15D1FEFF9190FEFF0BCF0000FE1500003B9CFFFFB81A000004170000159B000070BAFFFF6385000013FEFFFF06F00000F1E4FFFF15CB010024F8FFFF04360100DFD90000124300002F550100D37E00006079FFFFA61D000068E2FFFFFE7100004342FFFF1A6D00005AA6000075FDFFFF5BE1FFFFEA8EFEFFEC7D0000454B01008F32FFFFB39800001E18000098900000B20CFFFFB19C000048BC0000793500005F0D00000BB8FFFFC68EFFFF32310000A284FFFF9AD1FFFFA452FFFF62700000D7F900001EEA00008891FFFF8EA8FFFF83FBFFFFAB5FFFFFD4B1000051C4FFFFCCB6FFFF79230000B045000080AE000032DBFFFFF8B1FFFFEA95FFFF0CF9FFFF815B01008E34000095680000491A0000E8C8000068B0FEFF5E41000089FEFFFF6972000000D8FFFFDD550000833000001BF8FFFF26190000DAA4FFFF10EBFFFF3399FFFF50130000055D0000569B00005438FFFF6FA0FEFF0486FEFFF02000006034FFFF0423000080150000993600008AEBFFFF7257FFFFC4A6FFFF7A320000D6D900000CEA0000524EFFFF4E310000792300007B0DFFFF466900003F4F000059B800004D910000A28C0000EA7300009E1500005DECFFFF2798FFFF540EFFFF615000007CC6FEFF3E76FFFFBF6500001D0B0000BD9D0000794200005286FFFFEEABFFFF5EDD00005D06FFFFA2B3FFFF0D0A0000250000004CE20000C91D00003D7D00006D25010030ACFFFF706C00002982FFFF0BCFFFFF824EFFFF5749FFFF0A51FFFF8980FFFF7802000037AE000096840000D4C0FFFF3679FFFF7B36FFFF05DDFFFF7A7F00002CA3FFFFA8FCFFFF0CB6FFFFA8ABFFFFAF5E0000986700001810000012740000BE43FFFF75030000C46AFFFFEF650000B9490000C1C3FFFFF81700009B9AFFFF4025FFFF6EFC0000178BFFFFFD990000321A00002CB4FFFFEF7700005F95FFFFAA96FFFF21790000663F010086140100F744000075450000BB9000009CA1FEFF90AC00005E790000928D00002F4F000088DEFFFF037F0000D13A00000172000038D5FFFF37ADFFFF6E83FFFFDA87FFFFE7F0FFFF3254FFFF1A16FFFF2FEAFFFF95C9FFFFC3AEFFFFCF0C0100DAE4000067000100CDB000002AE5FEFF68990000F94FFFFFF4FAFFFFF18B0000AE57FFFF39A70000942F0000002801002B99FFFF1C0100003A740000E7AFFFFF446200000066000057B5FFFF6A50000038F50000FE600000DD7000008A180000B8C10000B8CC0100AEB6FFFFCB6FFFFFD618FFFF386D0000248A0000B221FFFFEE69000005EBFEFF9572000053C6FFFF703A0100F6550000902C0000CB360000E804FFFFB5270000A5CCFFFFB93C0000A5080000FC73FFFF191DFFFF0BBFFFFFC643FFFFC2D1FFFFD86C0000A609FFFFAB73FFFFCAA70000E7AFFFFFE30801004F5900000659FFFFABFFFEFF0C350000ED61FEFF75F6FFFF01E7FFFFFBD4FFFF855E0000045200007F80000043830000100B0100356D000079F4FFFFD2830000659C00001EAE0100096DFFFF221F0000E70801006A96FFFF313EFFFF5BC0FFFF90E0FFFFCB7EFFFFA198FFFF1C02000076670000DDD4FFFF9867FFFFBC6E01001B060000A56C0100BEAEFFFFDC4BFFFFD588FFFFEE07FFFFD81B000067D4FFFF36A6FFFFFBD1FFFFE4650000AF67FFFF7ABF00005872000042D4FEFF7FA100006338000057A8000045D0FFFF71F0FFFF68B300007824FFFFB3C6FFFFD8B0000082D1FFFF2F060000C82800000140000058F9FFFFF74500005D19FFFF064D00006C1B0000D50B0000F2C6FFFFAF130100D154FFFF291B000087EAFFFF2879FEFFA4DA00003171FFFF93FEFFFF83AD00005A4D0000A2BBFFFFF59EFFFF127FFFFFB01A00006891FFFF2F83FFFFC2350000D408000093D500004813000087190000E3A4FFFFBD0900007288FFFFFD4000007077FFFF555C0000782AFFFF4D430000BEF7FFFFBDF1FFFFF64EFFFFFEBEFFFFD31D01003B0A000041500000BD790000AA1B0100DC7100003C0300005EE5FFFFA85E0000636A0000BD1C0000BA440000EF4100007C0C000075D0FFFFBAE7FFFF9934FFFFD57500006E3900009D2DFFFF8217FFFF3EF5FFFF802E0000F8990000F7540000710E01006FE9FEFF531100002FDC000017DF00008964FFFFA72A0000F45F0000656AFFFF0AE8FEFF46C7FFFFF492FFFF413DFFFF50FBFFFFF0FEFFFFCCBAFFFF49C50000DCE0FFFF69830000D01A0000A3CFFFFF0B9D0000DD60FFFFE7B3FFFF7CAFFFFF7B860000F5EEFFFFD52000000C010100DAB00000AFE2FFFFE88EFFFF80F7FFFFB024000060720000E67F000017C1FFFFCAA1FFFFF6F9FFFF05580000B7DEFFFFB36000007DC2FEFF7C71FFFFB28AFFFF84DBFFFF9A370000BED9FFFFC1D600005CAD00005A9AFFFF45BAFFFF52A40000C17DFFFF361E0000EDA7FFFF6D5DFFFFEDB20000B7AF00006134FFFF03BC0000C1E4FFFFFE6E0000679EFFFFA9DBFFFF1E8E00008FBEFFFFD21301005C2A000057EB000041B7FFFFA5C3FEFF53D2FFFF1C030000EB340000485BFFFF25660000B2ABFFFF2A82000051D0FFFF2BCAFFFFE7C2FFFFA7CAFFFF696F000061DCFFFF1908000012C8FEFF5138FFFF44AFFFFF482B00005DA5000029F3FFFFAEF4FFFF4DB1FFFFF5D1FFFF441800005DD0FFFF1EA6FFFF8823FEFF20F7000018DEFFFFD23AFFFF578F000010400000DAAA0000F9330000E5190000316400001FA0FFFF1DC100000227000058940000D2D2FFFF1FD200007FC2FFFFFF27FFFF78E8FFFFDDD7FEFFA07AFFFFD484FFFF746B0000BC470000BDB8FFFF27B1FFFF22B20000FECAFFFFCE450000433C01005C4B0100F7140100C3A100003C270000FFBA00002211FFFFF48BFFFF0474FFFFB28B0100157B00008673FFFF9CB9FFFF0408FFFF2B1AFFFF017EFEFFFD4D0000C6E2FFFF06F70000BCD3FFFF341BFFFF33B60000C5EE0000317C000046230000A0F5FFFF0CACFEFFF277FFFFAD72FFFF48DD00003E6900003F5B00007E9BFFFFBDC60000E360FFFFC05DFFFF62B4FFFF76240000D094FFFF61BEFFFFE0D1FFFFAAFB0000F5160000CB4DFFFF5B200000967F0000DB10FFFF51FCFFFFEB53000027C1FFFFDB7FFFFF8BB4000052720000B534FFFF34A800000CE9FFFFEDB70000220400005BE0FEFF86250000DDC6FFFF49F9FFFF0224000004EFFFFFE3290000BF6A0000D7D300006645FFFF042401006F6200001297FFFF681AFFFF3E34FFFF2487000092A30000ABAB00003D3C000064F9FFFF76C8FEFF9EDFFFFFEDCAFFFF1A7D0000B4B9FFFFB1120000A43C0000E6810100FC3000006DA90000C0A4FFFFC079FFFF061F000050A30000C9D8FFFFA905FFFF88A7FFFF5203000063760000E06300006C1900001F16FFFFB9DFFEFF10D70000002C00004BE1FEFF778C0000F5380000D430FFFFA2A6FFFF9CD3FEFF9F95FFFF4117000003D0FFFFAC0500002D65FFFFA5D2000029B90000A5D4FFFF6784FFFF054C00003E330000D8B1FEFF40E5FFFF9985FFFFED9DFFFF6B6AFFFF98EAFEFF6F68FFFF52E6FEFF41C8FFFFE77B0100785BFFFF709CFFFFA71A0100FCAD0000FA7500007093000082CBFFFF65A800009BE501003CC7FFFF37E8FEFFFF37FFFFC23E0000B0CE00007225000069C2FEFFFE3600000A05000010DFFFFFB4E2FFFFE471FFFFE29100004285FFFF79270000707AFFFF5473FFFFBB46FFFF916CFFFF5186FFFF20D8FFFF8ECCFFFF3B2DFFFF002300003006FFFF063DFFFF33770000C01200005A4A010069860000BB0AFFFF2F21000005C7FFFF0DD7FFFFBCF6FFFF9BC8FEFF531A0100C801FFFF63550000710F00006ACD0000E1A5FFFF812C00005B99FFFF8E98FFFF3C1F000000A800005C02FFFF23EFFEFFF2EFFFFF5A5B0000E0260000CBE9FFFF1E340000AD75FEFFD33601007A77FFFFB0DE0000CDAAFFFFC8EC0000116AFFFF2F560000A61AFFFFB966FFFF41F1FFFFF0F6FFFF4FBE00000A30FFFF3F5C0100E230000033260000785DFFFF8136FFFF08B800008EB5FFFF5885FFFFAC7E0000AC51000049050000B644FFFFB5330000356D00003A88FFFF1F340000C00B00006534FFFFB1FBFEFFE6340000B82300006E400000CEB1FEFF5E88FFFFFF22000053A0FFFFCE7B00004FA100006EE1FFFFD5C6FFFFD687FFFFE790FFFF22CBFFFFA087FFFFB446000089C7FFFF6B4CFFFFDA14FFFFB42D0000D5200000E7B7FFFF420F0100CF2D000047EDFFFF3AEC00003760FFFFA637FFFF71160000C86DFFFF4123FFFFC31700009EA90000B224010024E6FEFFECFBFFFF09EA000048D7FFFF848CFFFFC190FFFF69E3FFFFBBD2FFFF60D1FFFF60B2FFFFD45000004831000052B8FFFF4F2E000028C3FFFF668C00006B4300003D5D00000703000069AC00003069FFFF905C0000AE2C000013560000B57FFFFF666F0000F34500006A2600000C91FFFF4B9A000053B401008ACFFFFFD8D2FFFFE13D00009DEEFFFFF7BCFFFF2234FFFFB55A00004490000028CFFFFFEDE2FFFF4953FFFFDA61FFFF5BE3FFFFDA390100FB2F0000AC4501008C0C0000FF11FFFFC47FFFFF051D00009B8CFFFF0A310000DA7300006DC1FFFF3437FFFFE790FFFFEAEE0000E70101005CCB00000510000018AAFFFF4494FFFFCD58FFFF0996FFFF3A1600006AFEFFFF72400000C4C5FFFF740B010009DAFFFF5A3600003118FFFF1CD0FFFF61480000BAF0FFFFBD94FFFF21AFFFFFEFD5FFFF4620FFFF0620FFFF9EA90000581800007A9EFFFFE7E0FFFF560D0000D0A6FFFF6A640000B05B0000E6F7FFFF9CAA0000629D0000FDD2FFFFDCCAFFFF83B1FFFFA61C0100C1CEFFFF2DACFFFFA246FFFF52F1FFFF15100000AB6CFFFF7A0400004EB9FFFF0081FFFF3F690000DECA0000FF0C0000CD0FFFFFE995FFFF56AEFEFF0C7DFFFF027AFFFFB1CC000095FCFFFFE932FFFF797C010035CFFEFFF7E9FFFFD5450000952300009AAFFFFFF63B00002E4C00002644FFFF01A6FFFF47410000C2AF000047FFFFFF8B9B00008571FFFF07F9FFFF98E8FEFF252701008E83FFFF98500000B27AFFFFC1E500003B9F00000CA2FFFF96DEFFFFEBA2FFFF60D1FFFFF9FFFFFFCC3EFFFFFB41000035C00000AD17FEFF94BF0000A936FFFFE5120000B3DFFFFF76CDFFFF1A840000776AFFFF16F7FEFF6A70000049BCFFFF88D1FFFFBE9500007C860000C8F9FFFF3E4201002C98000004CFFFFF0B77FFFFD885FFFFB3820000F0F8FEFF47C30000F47801002D5F00008D160000722FFFFFD9D1FFFFF80EFFFFF2B7FEFF55E8FFFF5F72000004FAFFFF6205010094BF000044780000EA2FFFFF3BD4FFFF9D8AFFFF208A0000D4BCFFFF448A000083F9FFFF08B8FFFFD097FFFF12A500001224000036140000C7DBFFFFA0440000C4D90000FE9BFFFFC6D2FFFF6FC8000074C1FFFFCAD4FFFF2A80000093A9FFFF7C6B000094D5FEFF8D3FFFFFD46600006C2B00006CA7FFFFC58E000030D80000A83C00006CB8FFFF27D0FFFFE4320100411001005FD400004496FFFF22E6FFFF6A0001002DBFFEFFD10F01008BCB00006D9A00000A500000A67500000B860000414FFFFFA9C10000D6E5FFFFC1CAFEFFDC78FFFF246C00007740FFFF5A3800006C92FFFF0F2F0000CBB500006905000001380000B22A0000A6420000849BFFFF3B8C0000A9E7FFFF7E8FFFFFDF9EFFFFB0F2FFFFDDCBFFFF5B1D0000EDBE00008647000090B6FFFF3A77FFFFB3FBFFFF10B3FEFF42360000C892FFFF2BF7FFFFCABEFFFFF57DFFFF00190000B294FFFFD0DD0000D1F0FFFF893200008C4C0000AA2A000085C8FFFFC391FFFFD83FFEFFE5E1FFFF7A98FFFF2B5102005C5F000082140100DF25FFFFD2030000B11F00006E4F00007841FFFFA61B0000E2D300000B77010050F9FFFF3B3C00005B7B0000481901001D320000C6E200003AFCFFFF968D00000DDBFFFF88B2000025E6FFFF5AD3FFFFD85800009EB3FFFF32CE0000F3D8FFFF744AFFFFB20000002668FFFFAF9B0000ACB80000EEDAFEFFDCB2FEFFE33A0100C0970000E091FFFF40220100B65B0000F14AFFFFCDD9FFFF8A1800007503010039200000E7D800007AA9000071000000BA30FFFFA86EFFFF19970000FA20000072CAFFFFAF26FFFF488D00000B41FFFF3F2FFFFFAB80FFFFC961FFFF690EFFFF129E0000E69B0000F275FFFF31EA000023EEFFFFC4FB0000275D000060D9FEFF0B22FFFFC591FEFF253F00000A58FFFF236D0000B2080100FBC2FFFF096FFFFF4A220000D2990000E36CFFFF19BBFEFF9FC10000E6A3FFFF92D1FFFF1240000082860100260E00001CEEFFFF00B60000018DFEFFD1990000FF83FFFF3C95FEFFAD3A0000E5D000008094FFFFB0A5FEFF49550000C8C4FFFF45C9FFFF28D3FFFF865FFFFF5DCCFFFF6CC80000A8140100ACD3FFFF7DCDFFFF230500000773FFFFD678FFFFA5F60000BF2B0000157100000ACBFFFF9AD1FFFFB26FFFFF5D1F0000AA3900009CBBFFFF6EABFFFF7A0F0000941E0000ED6FFFFFF52BFFFF12060000A5F20000D36100000A4D01006C4E0100001400006C1300002BFCFFFFFB0F0100D83F0100431E00002E73000070FAFFFF525E0000E8D9FEFFFC250000217A0000BED6FFFFE471FFFFD0A6000028110000E13CFFFFBC28FFFF6746FFFFFE6F000078D6FFFF548C0000C6220000E9CC0000200A000053310000499CFFFFD092FFFFDD85FFFF032D0000B72D0000E10A0000B22A00003AD0FEFFEDE5FFFFD2B3000066A3FFFFA457FFFF241D00008469FFFFF1DEFFFF025400002059FFFFD41201000546000038EFFFFF95D7FEFF41F9FEFF6779FFFFFD500000F11D0000754FFFFFF972FFFF9FE4FFFF5870FFFF941B0000440AFFFF58D8FEFFD64CFFFF09F6FFFF39EFFFFFFCF7FFFFA29AFFFFA6A3FFFF1C720000918CFFFF6962000039960000FF11000018580100D07F0000AE8A0100C9330000882E0100926B0000A8980000F6FFFFFF5B5E01002CA7FFFF4524FEFF341D000002F0FEFFE635000014370000DCD5010033F00000A756FFFFE2950000713C0000B94800007E140000525600001B85FFFFD307FFFF5D0B0100806AFFFFFC890000B0710000B0B000002DA7FEFFDE840000F4C4FFFFB0AAFFFFCE65FEFF25AFFFFF01D2FFFF569EFFFF38DCFFFF01F1FFFF6522000098ABFFFFA07400007B1000002C2500007B6CFEFF695A000072550000B7B80000F9380000FEB30000F50BFFFFEBD6FEFFB0FCFFFF898BFFFF24110000099FFFFFEA94FFFF7A62FFFFAD0D0100ADFEFFFF86DFFEFF3776FFFF959401003D330100F2DBFFFFBF4800006E380000CB340000B9A7FEFF6DA8FFFF0E72000091F60000CA8500004F8F000065DCFFFF93A6FFFFF694FFFF0D650000D3FEFFFF6CF30000F9F1FFFFB072FFFF274D0000D1D2FFFF4528000099F3FFFF4D81FFFFCA81FFFF9EF7FEFF0E7801002F40FFFFD08CFFFF1C15000031E8FFFFE8F6FEFFE0BEFFFF16D7FFFFAE7CFFFF8BD0FFFFFCD900002E45FFFFB559FFFFFA9E00001BB00000FD94FFFFA7DDFEFF5C530000BF5F00009507000057B100001EBB0000A8DBFFFFB35D00000390FFFFAE9AFFFF841FFFFF398F00000BBA0000C23AFFFF7F500000D6AC000005E8FEFFD0870000CB0101009FA200002FC4FFFFF0B1FFFF697E00002880FFFF43C8FEFF65B8FEFF339AFFFFBDA6FFFF759E00004729FFFF970BFFFF9F4DFFFFAB8800005218FFFF206B0000161D0000007CFFFF571DFFFFF6610000884400007BFCFFFFF0D9FFFF9D460000957DFFFFAECBFFFF529CFFFF3AFBFFFF1241FFFF19BAFEFFCDFFFEFF37FA0000C8B3FEFF1BC9FFFFF9E50000253101004B8DFFFFE9E800009E75FFFF184E0000339CFFFFE6B90000729000006E77FFFFCE560000960A0100F191FFFFA7FFFEFFC1C7FFFFDB4DFFFF86790000FEB8FEFF1CC5FFFF5ABBFFFFA878FFFF70580000A2EA0000591DFFFF9668000000130000218AFFFF6B4D0000E4E50000E86DFFFF247F00004028FFFF3E7E0000DAEAFFFFE814000054790100D445FFFF64E0FEFF11E6FFFFA76FFFFF10F9FFFF362200004F1BFFFF76F6FFFF6179000049C9FFFF951FFFFF78B0FFFFF59F000008E400004594FFFF6FAEFFFFCD1B000004DAFFFF68AC0000C2760000202601000C100000FB8400000FD10000FC4E00004AB7FFFF1E7BFFFFA1A0FFFFE20E00003A5D0000D59500001C4C0000034DFFFF750A0000BE1801002A0F00009F3C00007E4D0000B0B000009A650000BE5D0000761E00002D64FFFF11280100301FFFFF0CF4FFFF93A6FFFFFF020000D38900009ACDFFFF502BFFFF2616FFFF42A0000059480000CDA6FFFFBD6FFFFF9CF8FFFF7C59FFFF7DBAFFFF3090FFFF5E4C00001CD5FFFFCD9DFFFF134B000019470000D2D3FFFF928100000A57FFFFBBD6FFFF4C6A00003AE2FFFFE849FFFFDC3800009A150000664700000DFDFEFFC31F0000407FFFFF6C65FEFFEC76FFFF537F0000B0470000FBB4FEFF5E7D0000C9680000F73AFFFFE91BFFFFD7C0FFFFD554FFFFF33000005B4F00009C9DFFFF34F10000CBB8FFFFA4810000DD6BFFFF92A000005A4AFFFFBC05FFFF3AC4FFFF70100000E42BFFFF273CFFFF4609000051B500009058FFFF343900007CAF0000954B0100013E00001457FFFF9B060000A3D4FFFFE67D00002806FFFF0ADAFFFF668B000030B5FFFF3D4D0000027B00005A65FFFFFBA6FFFF39A20000B8D80000A664FFFF9D66FFFF96EBFFFF0F5AFFFFF6190000F3FDFFFFDB64000035CEFFFF442601001D7E0000F2A5FFFF3C1D0000C54F0000569C0000C057000052C6FFFFF4660000D24400002BAFFFFFA1070000143CFFFF2A41000047CA0000C68200009158FFFF44900000F0F3FEFFCB220000BA6800009DD8FFFF01B2FEFF62840000760F000070C60000A798FFFF96F0FFFF662D00003AD5FFFF2D0B00004C5200008A0000004CE2FFFFA5BE00003D7BFFFFBDC100001474FFFF92C9FFFF185700004CFDFEFF60F9FFFFC4F8FFFFCA360000976F000025ECFFFF60090000F520FFFF094B00008076000073D0FFFFF8BDFFFF269FFFFF2639FFFF023FFFFFC246000069580100D5F1FEFF216200000D4DFFFF47F6FFFF2C7FFFFFA042FFFF7EF6FFFFF964FFFFDEE6FFFF16A1FFFFD5B0FFFF95BC00007B78FFFF3AE60000E0100000439B0000E93400000687FFFF5785FFFF3210FFFFCB4FFFFF2F96FFFFA7F0FFFFAABEFFFF710C0000DB070000478BFFFF8E15FFFFF2AEFFFF7B670000109DFFFF3429000033C7FFFFEB5900005E100100389EFFFF0D6BFFFFA83F000001260000CC610100D6F4FFFFB411FFFFDCA000009A85FFFF85FAFEFFDCE0FFFF1E6BFFFFE5870000B2190000816C0000276D0000EDCAFFFFB82E0000EA080100EE93FFFF2C84FFFFFA5F01009568FFFF37F2FFFFB23BFFFF3C140000612500005BCD000050B7FFFF2C84FFFF9B07000007DA0000F36000005CA6FFFF5D42FFFFAA3800009776FEFF197D0000E7A1FFFF2E000000CF67000070F8FFFF8F440000E29EFFFF47DBFFFFE38AFFFFAA180000674E0000A97400001582FFFF86880000FE700000F4060000D67EFFFF3496FFFF8A970000A01900001594FFFFC0EFFFFF86660000038EFFFF148EFFFF71AB0000CCE2FFFF319900002F8EFFFF87B70000C17AFFFF2796FFFF81FEFFFF0F4C00008883FFFF87ADFEFFC21B000068C7FFFF4D740000F472FFFF7B89FFFFC32A00001FB1FFFF0211FFFF9795FFFF24A0FFFF6DFAFFFF1B1CFFFF7592000080010100095D0000DB76FFFF6BB2FFFF7A91000071C5FFFF937A0000702F00006C38FFFF98BDFEFFD228FFFF6B84FFFF4A5EFFFF15040000A6BC0000B5E20000A67100001B6200008A6FFEFFEDAB0000B56E0000A01C0000612BFFFF4A5601006D240000E6EC0000C7BFFFFF30B2FFFFDE220000F7FDFFFFEFEEFFFF04150000482B0000169EFFFF98F200002888FFFF973DFFFFBF510000F682FFFF7FB4FFFF80FDFEFF9E4AFFFF7283000073380100A6E9FEFF0954FFFFEC65FFFF94EAFFFFB912FFFF23990000C3DCFFFF7E35FFFFF5AAFEFF38DFFFFF697EFFFF87440000F398FFFF6DA200005E3AFFFF85760000433CFFFF2D5DFFFF5992FFFF28710000A1C40000D059000092710000E62D000012110000A36E00001E40FEFF2B5F00006A0D000077AAFFFF6B80FFFFDE380000505F0000261DFFFF08A4FFFF62FE00003DCDFFFFAA4FFFFF43D6FFFFC0EFFFFFF403000051ECFFFF8F2300000A180000A5DFFFFFE21D0000B075FFFF582001005F58010089E3FFFFBA2600008166FFFF6647FFFFBC00FFFFB3C200003BA50000C696FFFFD2F5FFFF7F8100003430000059DA0000B8170000A85CFFFF92340000B790FFFFCE98FFFFD9B0FFFF32F6FFFF3438FFFFAE5AFFFF70D0FFFF737C0000A7F6FFFFBA7BFFFFEA97FEFFF8A8000045F6FFFF4FDA0000E28B0000A81F0000C95C0000EA0E0000B2310000A67700000B1D000059E7FFFF5A70FFFF44050000C4D000001C44000039070000DAE5FFFFB65800006C980000929EFFFFD54C00005DAEFEFFDEE1FFFFA084FFFFDA490100CFEDFFFF4251FFFF6021FFFFBEB3FFFFE9F3FFFF50890000BC010000E58700008F85FEFF660A0000C95CFFFF82900000AE62FFFF67D1FFFFEE6EFEFFEA7EFFFFB7DC0000B49DFFFFA9BDFEFF343500003A4F00004C2A0000D250FFFF5E4300000FAE00009F46FFFFA143FFFF7F48FFFFB114FFFFDAF0FFFFC9DD0000804100000196FFFF8A5B0100B91BFFFFD3BD0000C2F8FFFFA0C5000088A20000D8CC0000A3CDFEFF99FEFFFF465400005B86FFFF6BF5FFFF5E17FFFF1F95FFFF7CFF0000944000006A3B00007C9900004F180000C2A100008BF6FFFF81B90100AE2B010075FBFFFF82770000A796FFFF4EC3FEFF5333FFFFC212000007D10000312D0000A863FFFF072400009F630000D76100003943000022390000239FFFFF33EBFFFFD98700003C0101002155000029660000F74C000036DBFEFF020400001F200000DE530000DD41FFFF67A5010027100000CF1200000DB3FFFFB08D0000137100009939FFFF1EA4000099D5FDFF5B8100007B48000080540000C7EAFFFF712C0000FB85FEFFB4C40000EB290000AEE9FFFFF7AD0000216AFFFFF6DDFFFFBBC6FFFFD2A6FFFF65460000E0E7FFFF2411FFFFBA2B010046E4FFFFA7C900002552000028D100006AB2FEFF3AD3FFFF8910FFFF1E210000418F0000E185FEFFF30B00009CCC0000CEF0FFFFE427000066D70000693B0000FFEAFFFF78E0FFFF437DFFFF8B8DFFFF5CCAFFFFCEAE000011CA000077790000766A000031F1FEFFED1000002C740100612DFFFF396400000538FFFFD2BFFFFF3409000079A0000071B7FFFFC51F000039A4FEFF994801000B13000085220000B8B70000A6270100FA8EFFFF0ED7FFFF3471FFFF40D4FFFFB9CBFEFF500C00000EAAFFFF006DFFFFCFDAFFFFA79FFFFFA9DCFFFFC5700000F60E0000CC2B0100F6DEFFFFB6B8FFFF091E0000802600000121000067E9FFFF0188000092B9FEFFDC3C000035D2FFFF95B9FFFF195D010084F3FEFF7BA80000DF9E00001788FFFFBA27010097DFFFFF2C27FFFF4408FFFF5F77FFFF239B0000D631010079CCFFFF07C6FEFF09F7FFFFDC190000CFABFFFF1683FFFF805D000020710000DDA4FFFF9EB7FFFFBD6EFFFF855CFFFFD9450000A4470000B76C000089060000BA08FFFF76EAFFFFAF78FFFF1AA000002FC7FFFF37F5FFFFFA38FFFF07C4000033A8FEFF18D9FFFFECBA0000F74DFFFF445CFFFFC8B7FFFFBF0500001112FFFF86D0FFFF743F0100320AFFFFF43C00008474FFFF7584000084E30000DC9DFFFFDA83FFFF3DEB0000B92300004AFCFEFFFE67FEFFD063FFFF61D1FEFF824FFFFF1B28000079B2FFFFFB0B0000AD640000C2DAFFFF5F980000C880000093250000F9040000B92E0000F182FFFF9EBBFFFF2FA70000D3410100B2290000468B0000AA7D01009DB6FEFFA23800004BDA0000AA1A00002332000013A0FEFFA92900002E310000B8DB00009B800100FB6EFFFFBBB9FFFF25A7FEFFC386FFFF0783FFFFD84700003A4EFFFF6A010000346200002B9E00004A730000A987FFFF99610000D2E7FFFFF2FD0000C881FFFFAC5DFFFF5BD5FFFF1D6EFFFF7187FFFF089A0000BA120100A8EBFFFFAFF20000C8E3FFFF09090000966BFFFF1172FFFFD6CEFFFF8F8BFFFF4C1B000053B100001EB2FFFF43ABFFFFEA0C0100E678FFFF15AFFFFFCD4A0000CDBDFFFF3E1200006AF6FFFFDBA4FFFF023F000043510100A06900008D89000015DF0000ED6400001F24FFFFB08700008A64000063E7FFFF329DFFFF4C4E0000904601005BFEFFFF25E000006936FFFFACF3FFFFDAC3FFFF024000002D56FFFF9937FFFFFB1C0000A9020000090800000E3B0000C9E2FFFF9C590000229A0000136B0000D916000093CEFFFFC0A9FFFF87C9000094DCFFFF840E0000DF7B000099AB00003FE6FFFF509FFFFFC2EBFFFF8DC700002370FFFF44DD000093F8FFFF6C33FFFF06D4FFFF433900003DAB000018100000EF86FFFF3FF4FFFF5EF1FFFF6288000046D2FFFF3D200000B4DDFFFF4D3FFFFF9EE3FFFF8EF9FFFFBDF9FFFF5B1F010056FBFEFFCF0F0000287F000028AD0000E64500003BC9FFFF39250100D03500006E9AFFFF24A3FFFF831800000225FFFFBB23000029B6FEFFAB6AFFFF4F5AFFFFF7A600001503FFFF305AFFFF155EFFFFA85500001D7100006B980000184300002941000050170000001C01006FCDFFFF936E0000117BFFFFC268FFFF6C2100003ED7FFFF89090000B0A8FFFF3C310000ECE9FEFF2F1E00002480000058310100FF0C000063340000429CFFFF7717FFFFBFE8FFFF3BFC0000"> : tensor<40x72xi32>
    %3 = arith.constant 0 : i32
    %4 = tensor.empty() : tensor<40x72xi32>
    %5 = linalg.quantized_matmul ins(%0, %1, %3, %3 : tensor<40x56xi8>, tensor<56x72xi8>, i32, i32) outs(%4 : tensor<40x72xi32>) -> tensor<40x72xi32>
    func.return %5, %2 : tensor<40x72xi32>, tensor<40x72xi32>
  }
}
