builtin.module {
  func.func @snax_main() -> (tensor<64x64xi32>, tensor<64x64xi32>) {
    %0 = arith.constant dense<"0x44CF4BAB074A5C971DB54C21D62CE8F37BE6EED7930BCD5B8D0CD2A7DDD2D6C7DEEC8184B3AC2A94D1B0B058DD2E4E8BAF10EFA1DFE24A4EA48718A02B09BB33A179189CF319C3789787AFB06F4815C7EA04FC40A56F31BEB4B824F6A6FE3919DCE5D63A4F1ED1CB042BDE72F07197EDACED42F284B2684842D148EB5B067D3620A345FC25C758DDE5642C385ACFE118FFB6BCB2B64B5D351F2D2A1E88815874E232D2748833DFCE39FB4A21A2DF5D7D715B8854E182863B1EDBEBB5B3172B3BE4CD64E6492469AC26FF386EA4369824100719F1771E78991FA3DBD42432786E5F2E740792215D1EDADD0FA73762266E3612A5C3993D601AAE8944AC3661EA683A90D2BD5C8BF5C8ADBB4184C63F4CFF52723775E3585700D7A2B2B32F232CA29D558068DE91A960854F10F7C5281B66F1BF62282C3B7D165A67833C99612EB8678049F428FD797C86838E93398260BB07EC3FB2AF7B63127744DCF4595856874D57C133D4CE8DD517ACC3E3B9D827A410FFDC47B05EEBD88ECFCCF76D7A505324034D36E039833F97240F9B496B95682195F18FF8BAA8639F10E0DFFCC3AF4A268FB4B172B848D4D387771C3CD1F04C0B6C52DF093E5DDF93E5134F988CA795D4A83D35D7EB3370077E4CA52F0B27A9FA5DC84BFDEF83D30B491E30632A5992831A5785FA95A1E1AE6ACEDEC42FE58D1244EA591C78B2A26F7465F1B7435B6371C71D0360C8747747F70318516FEF0BCB004B66357C96014CE54325E72F373233401C2B72FB197A97033E194FACC74AE82714224330309DA86313428525D37B1746DEE8C0AC5D78681D6A54FCDC6BCEA3AB1284D8827405BEC667A8EF8E96E4F4F8F2BF7888FDD6005BF4604B9FF5A4049C7C8D880ABF8A785954EDF88189960053C868327C6412D88D05F41B6A7ABE1DD01A8A92E1579DD44DDCF95EEA1B1D47BC3A755622EB7B8710FF6D192BD8971786754A53FEEEC6DE7BAD4FFD770CA7EA97579B980C24156374620F97488CFFFBD7CA6D537EE3F4FFE27C38AECB194C0C10CF6AD6D8E287F5D6B67EC7008FF6B882B48016C46D16794255309A6ED11928C4B1558EDD834917CAC83C71B6441577D468C2F1E542EA1F3AD45444F56FE8A2A6135D9BBA24A158E85BED1BF1655F2A6840921B60F70C504711BD120FA552A7F3C392F8B7A01C13F6946D2E5E41D0BA29559A088A6F32D0A073E9895229D10966AA0B0F311828FC09C2D2918514CF16E5F73B6C885472120371ABD72F97F478CD274534BD01BD66426F5EEA606984E0CC1651D20D26291D05F3D3ABECAFDCB587C4ACC71095099A369D931581E391523308DDFD26D22556728E483BC3AEC82A8388B943D01557D1FF0BA026E07407E69FEDFF9FC9CD1B9EE12A0F7A3A5A72EB3B1F510930A959F777E83C5BE70A1271FF8E0B6F99B8E672B5E99A15422322008B9CBE856489562BC1D643D2A8F6BE57A0B4660DEAD372AC2FC8A7E031E876192B94A0BDC75059E255E934D081A944F55F263532F66BC512EB37777A38B34BDC9F683C4E3755F7C9D5D9CBD387454A547A172FB297CFB33F9A06243CA0E2A4A551410112BCD6CA9DE00BA0DCCF60E0624071E19C854B82CBFB7A9868E05F28C8A614474EC1E5198CCD085544ACB120874E54E47B8DC579131D236AA3A7ABB155CC3682587CF39C9CF9D1DCB03999182586FB06160ED68ABAA90CFA78B639308633F984BCADC84CBA724BBA5A6F1FFC73DFF8642F47E769427E4B7BAE6EDC29B79AED2583A8CD72742DB4EF0AAC894DDFD68C2968CC6A43CC1C5C008B568402632977FE57F898E63FFC7A0B3F846C85B393FFF4027589A63669741A6474B66EBF2D366652AA1F8E1214F6B3417AB38566E0B2DD751EF4123830AB67F8DAEF1A6366307E6EA66160FDCF2D7EC2F05B3B6348E81BBAF64DD585B3AD3AFF615EB131E7F45568B51B380F135FFAF336859A11261C83FB9AE96EFEA84E982DF038D75F79CBF49A55B72985958644C16A022B2F8E62EA6EE66E008A0E6AD2221410E6A3FFB00AC11557C81D10447E180AD54F80FDD0BED34198D75E2254D246A5D7C08A1490E3922BF08C67663BF2DBCB7D46E50C92A7681AD5D51EF7499977E0FD49FBA0D5E0D40AD4439155EE602C417E5AFD9C8B6D8CFBABC133F745D97B053F478BED9397483E7E8D2FCA7E0BEFECFF6CD6383A30A9AD3A2F6352B4524989F61A2DA1879378D4762242ADB6EED381E8BC076C47260ED4946791753DD4E89B0E0BD7914DCAA9A11EF944CB15534871D16739563301FDDEA3783BA6D6605181F5C4DFB17AE87824D0661E7916ED3F4A74E263EF5FB6A757721EC9FA856F46E6CCC074051D0BE40BAC99ADCFD0175A1BD54DBB9820F0B8326F85C596D63208E45F012939EF40D7CA743401325DD2DAF3B3661CDE039AB9D2926A0B3A1E409909B121EBF8190FDBE79381017721CF686349B1F8F3BB6D206D3543F942DDAEED44E9F58E36443BAE130CE4FA4DAB916DB5485100CC4362F64B39BEBA69705CBA41A8C7605B973521CE2F3249F39F41EC7A2AE86F7017A9F00BB3CC7C114EE34B24D9C26976B2FB2188D34373502B095974614AD82A88ABC6E103F37B8899E511B185316B233C074DDF38A7D0DE5DD0A1662D745A9F129A2352E5EB8357472E91A79BD9D5C213E860EEC1B9AC91CCF02F99C395182429B6901638E18FE0DAB68F65E4945594B7D7A642869198608B56B870FCB7FA7B146276C18E8B89FECFF4B057745FA2E8219E5525C88EA07D60FC3B108A8A88B2FEC312B72951E7056F2DDD978E7278E5EA92016A363030F5F071B15BF50DD7837AF8D1818E3BD74AA3005845AF3884399AD6A0ED0E7D030683C511EA664308DE8FD98454DAC90966A3A259DA5770F503619F1C4CF73266A0ECB49B508FB6646DC8971C78E566173E668F8C1DC03728DE2E7B5F28D13B58B9111DB1BCED6756A047789308B506814ED815032693EEB3EC466E20D49F4529467CF5CD50DD64721E64A36E3B841F01FBB704FDCE0A011DAD8782FF3DC947FCB7C54CF022A71BA4EBD82082F482B86C9A51A7257DE30D2E578F301A36B68A922C9326666EC7BEA01F076C79E7DAFA39CF5C99ACC1B67020B4C6CB0A91F1B79F669E3B86A3A6EFBF07DC446A3FE61A4B6548334B7AF805E0D24582A87D93D91B711AEFC2AF7B025C9A861B8B1D29E7D83644FDC8C1DB79B7870D69CAC7BCE3D45237CC1F2AD3CA83411DC4591425B1496641C0C3DD89CAB3DDA5B07633755E42BE7CD275D393C197F5D57C38FE32E7C33FFB4B882B189C0ECF691652C74F9E66A1C4376E354275B03A649DD85D0810F37C614F20853431CAF5BDFC82C0E6211CFE461080B008E6AA42EFF8AF6D27D9CFF84273249F338EE978A56BCEC5F6B391AEBA6168BDE9E16F9CCA5A3314A28146A0A4D0C0412F5E20E20FDAE21157226DEA812C40E20492CDC6FBDEA409A43BAFB154A13D470D6DB294B1FB78E50BF1C6156334CF30851893E28BD5DA32B9C6D0D92F89AD40F24109733DFDB2EC4892033D32FBE144C80D0928845C44B9ECEEE8B956DDAC6E4819CCC66AF586B3621826B858704F2DABA4AC557031DBA663B3BB212E7CDA8B3BF5615414F65EF50CED56B28CEC9E746B8A84E27318E75E70C99E03567427C3FFDEEFC59FCFF798BB505FDB48F60DCCEF386ED68001FC2700E0CA97558A8DBB52FC7405E4C7267C17D625EB79257673207D1E7A4FE19931A9A3AA6A6EE5FC4EF30E933EC28F85F02A522A53DD1D9915A7BBF8C17E8151E4E2D61423294D5E3127F6D920906927DAD7C2E03F04D6464D3D5D3E76B5427EAEB6B48F6C92B472D6D3F561D161E0940E771B406564B20931C455E99F73657A58C5B17D21CD21CB7E94909920459F3DE85F231678BF819B0D75C53F0CD23C03283C1339B9A4FA2EC4B1021FD3054008F3A274827C789DBD6104B0ACEAE5F729088CD72A34C9DE48536F272579AC1DEC4D43169A4ECB3371679391AC0BF859476BB59460D8C0740FAC3F060662479CBED784CAC973E03B7D422825CA75D4FF482C28F8F9DB6E21B9E6948CB7534E1B41C66A98549E91DC471E564D5D4FE76E4A0AFFCBFB3A438B32EDDD76A65BFC37465F3CA893045F4E6E3BB1C8D66A20D480524C02F0D80A17A00987FC1521F3918D7CDC2E7E90B26CAA0A9C895DE55EE68B3102D4F051F26F9658A8D349BA1C047B8C861DBCE1BFB37B37F21F3CA5E7B8F23A056F37FE0941A1A54F528B4C3EF47B605B0CB61D8D1FAA6940FF660FFE29FDAD1E49EF3073BF15352AD8E03B308B0F25416A86C102CF376FCE4D52DAF05DC7ABDD734A88C647E8998EC6F4C2C928B6F88F9E183E82D1CE5D0058666D2E4E3F01DB9903F9A4DF8544DB2830CF3B264022B08DA36291DC3E10DBA409970163D45425B4D23FB481FE52FDFE0572BBAF939E937950032A2ABF8D03FFCC2FC553E0BEFA3FE0C653B81608A884B9D27315270454AB3CA63D7C7767E132198ED980BD323113FF657BD9A032DDD7BB4A665E1952C69227DEA6A59F4BD9469B5CF6D4B9FA7E8ED0B365B9BE18D0E822DDFCFF45EFE71F91675A316EE1B70C54F2944C20CD60560ED4A1DE9C96C2785CDA150AFE238FD4AB729E1D1EA587F72E31EB1FCA5A00DD5333235D0276D1E96DDD48579EC2A3D16B3BF4AD19F430AA2C79436ED8A673130B3CAFA3AC79D2A26B91F03C0CCDCC709AA32560C59A9A6F661B62C561816DB0547CBF7807040BCE188E9FAF05300E332C5C533B9DFD12C76C25C15CB2B1CB7207151D10178B2F63AD740DC1F698F4B41671ECD3471F3CE68A9B2EC3436F3D2919C5AF612210A8AE0EFD39C9207B42422232E8338399D7D174783B6EBFFD179D4C5F21FF12AEE47199F5750090DF21D3AF818E486DD68B6CC36AFAE4A516AFD48DE876EE381A8E8DE0789583C497F89F5682AA73532051CFF83BC1D225F214F258817B0CF827818E776F04C2851039A3E7400410FA147D7EF6CF49C1F2D40A7A13ACCCA1B90B551D796CE53F07E4FEE5DFDD254E373AD3B9686B6E28EEBB188210EB05DB691E70652D71F7C08AFFB95F02D30885C0E1703D3C9079584CD0F83CE5D17DDFF0A3CB7687CAE2FD1C74A7E1E364F7DDAAD2745BE36785D457C782C44926267778F289FEF46C9096BB085AD2CF0D8188924CCB03E0CD9AFB6C5FD7E5A2E7AF97C85D3DBB61D375984C5B41953268AE7AA4084AF5642CC92E2A2584FF07176690FB55FBD4F5E127048DB7CE4129A998B1D4719D8990F86E8CF4B379A905F6705341BB2555BD5F6312B2DEC78FB92962D1B40004F5E91BE1C1F767D862B660F9AF6F69CE5EB70C3EEFD735CB6AE4EB9F833A403C1A505FFDD5BD63D76533AD6C0A9C23F4752EAEF0ED2E892A1796836653C146080DFF138C6D9C6AA834DAD5207CF2D6C7F911796771D1A4F539B35D20CEB58F6AC2339325B1E8FF80F8500A25214A644E74F3F8FB62586CB9A18AD2DF9CF664E2B2D0BD5098D778C9FC59F1F751FBF6D5121A050FC240A4E44F3186E54F1E61F5A6844574A1C91CF423152B9FFE44D30822F3A2DF5995AA838696004187D5B8311B59EBE8788BE45125302C7D25049846DFDC2931F16FC7B7649E895BD044D2D53B41CCFEEAD2D6C7E69150EA7C1171B1AE3D9D5D88E9CA807121BBABDA079F51D2E8D3225A76383B9E2FD76D5AABC7406D19FBE9632858F193BBD8FF8BD48DB78EDD79859D9659D0309858B522B6227D858B19A0D19CB1C002857ED6C483BE6195493DE7D8B9F766BD3DC7B226A862E08D"> : tensor<64x64xi8>
    %1 = arith.constant dense<"0x1DCB58BCB478068EEAA9F11498F77904A0EC81E4DD745B62786CA728685E4C25EFB7DB7D9DFF2236C815105126DED875CBFD24DC65D7CC6B84E905DA68B25AD12FE5BB7BCCE2CA930E9D45102BC5638ECE57B940793B55DD49277BFF6F498C363287FE83B29A4B2210786AB95B32C91C0EC0B0BCD1908E16E6602C6CE2DA0D014DECE93FF906DAEDA8B18F4BF7952FF96349F0C3E539A32C13D7A19EDCAE0844B5FA2BCB50DEB1D4750AFCEE5A68A8F6C53BE87E8E409A7026703AABB841607EE77423E754C7318DF6FF591144F9FC42E307BE521ECD3AFF4080A43FEF2ED91E5DA6AFA34A24EE2F7E63CA7D2CFC2C18349132CEA262D8EA0934D3C1576805665D9E3AE554C71D612984905B2D3AE4ED85753FE3624BFB6CA5BA4A018C1E811187D492D159993229E734483E479BD5BD352A00954549BEEE8B73C034C5C6B60051DEA3278A91053B316F8022DBAF1417DC7DDB5CC11A3562012AA765855CAB2EB1116FE342CAE1FF0E9F65D5E819CD8147F2D986D54F7B046EF6AB453381B18AF59560D2B1B2432BFE56B7F0895620A88661337D50758B067D9CB08279DB8CD8C516B99A93446E86EE134C04E14F4CBAA8DF8FABDCE9172AF62CB6F3C2D32D4A380989F32038CB828C2844D97AD0C4EB23DD9A357B4E0DFBD78C66A91691436FC1D1589A9E3866210E80F5FC93337681370CE5E946A10649769519ABA70F6A7A5C97CB23B822C2CA672E05FD208AA8095225379E42D04BEDA8104F497A45E2723B77B03D9AF39AB80386B82724D5A7D2169DAACE7CA9CB8DA8FEE731AAB8B3813E46398BE0566DFB2C98C9586231807A38603C73128EB1B5F3C1219D24F7C72FAD24DF94A5FDE6D684BC5864D686C03DE2998DCB7A4B70B39F23F39605763958D28FD7D91E2AE7D270395BA5742A9C2374EC329AFFA9DB91C43E6C87439B264096711DCC28C619F5124C3FA6AAEED596F6A26F918A1D312599C827F2E09D2623762939E30DB6021DCB339E62DED9B7E1CCEBDB980EADDA5ADF11C4726E0C30AE5815315C3C1DA22D0632479C01DEEF36FCF6E44B8F2F858824CF6D370BF49A4E3550C1A26282C63860D7B96B63288E5435E10AFC33B959CFC37416D59ABCE55C65C6FE2DDD2A9C737B0377A82D04C1C4CF9149D6006FF8BD6DE8B48BE7FD2FCB0EC0185722BF787EE7BFE4ED50B552B32E128975C5B3A45EF14CECB08B9751477C0456F84201E08FFE1758922A5FEC79B04F2998D9E032136D867496D5162A45B32B55C416D39C9B454058B8FE4FD5A068BBA63432DD3125990117D54764D4A74BCA386992EE50942B8CD0A6FE40BA327639F93F3932CCE5453D0EB713CB61576210F0BA92E6715E8B110D5ED702C79DF354C1A7F5581B79F63953DA036BF2FA97F9FD609D907A3FA86F92214ECD3692610AEA336119F1DB82826400B010E4F8ACC13646847BBAE34D2CA812708E29AFC1516C943EA06E8B77B271E9C7285A5C3FB2F04F15E3A192BDB7393DF0E8BA95A5FB8E065EDCE58224BF23310BF244453B6ABE3D38BAE45117F072E3CCEE75564601B24AA1EEC9E42DD9030C35B8C252B4677A527477F5DCCF2D7AEBE889C352D79145D37B9676FF9778D0D964A2F3D5E8D663291C85B9FF9076F242D349A2B07AD31244FF8AE244D94774ED9992D7BEED59B6EC66645BA2AD08D1B3EBAC9532856F6E79D6651A9F8C666161D27C4FCB87702379800B5F7C414EB190DA0EBB3DFD84322A026E833853325287CFDB477C2B28E85179ABAD5B2B83CD3CF01FBE01BAF1D26B8FA33F04288B96C68DA9C590286665F259F95818DD509A07370CE4E7916C9EF0DFF2594DB779AF0E35783C922C9BAC98F7510D4023C2F16FD1BE9981BC341BDC1E50D17421D317720EA40BEBD2D126FFF322D226C0506A53E388452C8E71BE16FE259112F9D60BA6468DDA98E6B7528861B9F4490EDB67E26AAABCBDE1421322810DC85CF83FABFDE0C2884A639F9241C4A74E1DE51D5B2B7439A4DB1255BFBA394A5D2DFC2736D21F085810EA73F5E9AC4D576DB63B3244AEDE4DA790B3811755ECC113A2A96714273A55A431A7DCDB22E5127ACF75B4FEEF75A61364364C6EA49D0586BC03E4E0675276B10FA084B5B0F275C662E5B300D93BD62BCCCC1940277AF5CA7D6EC7A701D4F58FDFE1FF92DF5AB0E83A5616119DC17E558E9E5915CF58A6ABA9BBDF83ECF2DC3593CFD407B5A9B0BD1CD08FABABD3B4EC2F936BAE5B15AA572104C9E1D48979C8FB4ED6F0FB83589B92178325E24F3D081C4143CCD394431B6025B1AEAC230C98DD97B796B08417AD8E59A50155E7284387A07352BB20D6919F3D0F92C1FEDAED316093B1D35F165722ECCD2C28045FAEECF5F18D2554D6FB055F81914D06631D6B2BFFF4B95A71B18038CDA090C1B1E8220250E4D39A4EA0640E3E4605893EEE79537B8806758F56E4F35CD2186695090C1A42731663E0E4B805C09B7131CCE7A386A9D88EA3410A3B94CB8DCE20CD0D9D1CE64FDC77E5BF64C5736E36BFC45E46C43922D8286C131139A2CE67DC0FB696F2C4E5BF8587990AF66C91A6C8B7D1D8B787A68EDF006FBFBF1732804C8E8EA2BD83FFE1E86216D9D2A6608CF91BBC878DFE1A8B6B6E7C60ED2A41BDC7AF8CC4BCAE6C1E04D3E31E493AF0231DFD8092ABACB273569F93DAEE7EEEB19EA30D6F911F5F3176622AFFDFF88BD9181F5F25C552B48B70A414650A9FC6ED4EBEF5F056D62DE5EDBDAB248F0678B2BA299BDD8B300C62307A0124B0634379E912A3035E5984C5C74A6FE8E921CDAE5014387B325821DB6995C9E16156A345A59273D318C83104AE22F1E563882CB208D090D6623006A162F2D07239E238ED9D795984CA26B5BEB5B75000C73E9EDCF68B4CD3B55CBB7201A289836B6D29C250DDE7A70F382BD734AFDF93AE6FF93667CB44FE2312A9B28533FCD4A9B095B31EF5F9D65B839182EBD495F391FF5DEFD8068CEA6754385D0B3D0A824EFD232516BAA688C146349E4172EE8BB8D8EFD83BDEC8F6E3A433D25B924B2A3345CA6CD138A946E4B8E724EEDD56E1C40819655CA1C12D8D6CA537C8DA8996499D1C89DDAACFF3442CEB0881C25B3AE123620C3A0479D6872C7D6BFBFD4B884BD716DF661033299D30FFD6D2CBC0B8131D32853926B55B3EC7E192E7211168FFFE79105F50EE2751C6D4C3F91B4E6CCA4F7BF63F00505360A4FE4E1B3FB646C02DF93803E3F3D819BAC2A7E4ABF1BA6036FF3D222C60EA4F02CC344357E4BC0682EE878E90C2C94A7246EC5D43FF1F86917DDFF60FEA8CA56CB08A4137AC79F727F6CEB3CA706E17793ED479460C1FE82819BAB238138C6F11D4923D40F2E0ECD442AD83DA5172641809EF075BCBC80208E2EABC0470A28BA9F5D6B412F4193F715591743A8C48CB18D6D3064F19A1436873420EB8C20A23CF5A127A742D7B9D925244BC0E5BE4AE6C65C210F8A59E3EC79CC299387C2DD1DC4C1622FC1D0B8B312D01F277DA755FE1D0B24EEF1F3DBFA9FE49141053391F8B2BED8F963F599D5198F64525ACE4F8DB653563B9F43C8F80B50C92CCB1EE5D039CE6ABCA80807C4037175F12F8036A2B9D3EA8CED184AF952F960CCD5904BFBEB56B1D95C58661A1376B26E9063C580EF7099F98D343EBD4DD9A960FB9938EA6064B5F812D70DD652BAD8997E9C0C20F8EEE22A50D332EA1A5A598EB5D8EBC2F1D9927D9E2254E7583FDD9BF0FC8143A2CD6C3D0EFE70FEB651F4F9E4FC6979047988A9A48BD32C9BB0FF39C06E7262515ECA289706D4834B87531461235ADE2E7D2E92B367438E64F4C040261760683058C9841C05487DD7CE58C75D59BA5FA5BC0ECBD723E11B64A855619DA32D85A14F92E09F873C9478C6F5ACC312B059F954B3DD862408D48666C2B899FB106F2AFF8643C3DB4D2FBF2AA0B8758B1CB9D08F36CF7A1C0B679367EA8DC1F23D90FD53470C829BC5942E833AB2DBE3DE6E4CC45B7C770B4E3B50B5C12C9183247B7968EA9FF16136329549F33484F06B4A5BF80CEBC2E79ECB205C18237043B2806931B6B91D974838FA2ECDF848C035BFA7A1F82DA3270F55FBBD943031B273797744B887C0FC430E160699FF18BD3212853B93501A61AC6B61DBB5919F76B373209AB411CC0ADC69042833E0DAEC10A5F718552BF85AF36A57676DD37F121F4B718BF217E80B54A004A17BC5E60C2E7419385366EFBAB215D8D05247BBE7B4B5EEB2A6ABD7B9DDD143319B6B2E06EE0C5AE387DA7E68786A52E562B559BC4C5A77DF3CE0153E8566799F91A0EA8A6A6D9DEC78590ED03D293BFE58CCA99B929D860D556B9EC14F54F9387138D0F36D708D5CAA3945719610B648C52EF2D04AC0FF22FEC774C28F6AD16A1201C69780A315125560B0A147CD807AE195DDF22FFF93DC4D2A0730015B9B547116703A32073739E0D81DC07DF6D528E3E6CEBB7A86E05091DA79DCDCD1B7B5A9F03A165958D3B66325E16DD798B6A46AE11BD1437CC6731F63E92F5B97B5C6568CD2215A177969FE4DA4F14D7FF0876016E573DA8DDF7457CBB0984D43BF5BFDE96439A6B2017AE1E92BF845CDEB938B44A75F0DE30B162EAFA1CDC510928D9D5EE373819203910808BAD91D3D09DFD5498280D9DEDD5EA8C649637ED5C14C38D78640DC97A933BC3AEF65AA4A6ECBC806BD1E77EA2F306950BC2BF8D96F928D38DA625FD83EED9047C84A3A9A70A18D781A25EB6023148FC8836E90CAB8E20B491E0203065908B7E3B4419ED8C9818E0F0606E5F642C55219C0CA2BE96F48CECBA98F58BBE5FB6F7DCA3F4C27BF82CAA68C893F31553A0A3706C793EBB3BD3F33FF8F485D9B016E959824FAB410AB4A637E058B45ACC7560FA3A8D94856DC3B4C39A4FB50F6957A38DA1EB35C48BCD46F5FDD8CF0D059CB497512405176934EB1C353E55F6A0F492C5658B281A1E8F6456B8A4566A96AC25DC6DE615DA751A3B171C20887CC40627FFAC4D440C6AAAE3FA3CE1A5F1A2FC758DBA01B73E98902480773972B4633F46CA1CA988B598B9287EE178E4DAE43339BC229B64456C2E69D8AA18DD8F13B19AFAC551BCD401A32903C555704827D4E12DBE1B1C5DD2ECD98AE550D0D886AA4D3AD89A9D672AD8F335C6D08FBDB1981D343EA1ABC2461F7E352655D978008CFC8D35E326688DE47E5F47557209A9A57C33E9F8E94B99226F5ABC48E36E0E5814753E2F5BAF69C5D0DAFE3B20E2865EAA14A8036A493719AF9EBE1B5B4F72073E88568E0E5A4D9BF1B36A22A3D93AA5E3B17002AD6EA2752AB8192EBFDDB1FEF3532A2BF6F39CE23916E96570498859269575ABD26C42A796C81C2C95F829FB52C3DF15A3CEBCB6E9975F737D2DCFAFD8C9903E468B8D6344E677863A6433842E122F6A2E4B342795EEC1214B2FB67CA5CAEAC35C495272855E0915D697D852DD587E6A868D375BB1489CE6E9C9B3CFA8F787C1AC55811F384A38004476C6BDF16342CC92F41CBA040FB3167C82A7F7BC4DCAD86B66147A6F44790DF6231AE007F574AAD24C366284802D99C2D5FC53D34783BFE9E65BBD09812BAA6D1FF4F59AA14D48D6A437CF879EE0259D10B6DD82520D424D91CB073B52884EC911B65C09001C32497C7B898C9C88E0D535591222FC3466AD818F4C8FC26F8F0B3D53699B095D580B8A4D349AA8A79D09C427093F5908CAD4F994921C20A4165237C2A5CE6CCFA9D4B33C643CA4795289B7DA42CA8B15CECBC2AC96BFC026BB286CDFBBF77C1E3426718DB2351DE63B3DE903459E46FA44D5A274C6A16E1F"> : tensor<64x64xi8>
    %2 = arith.constant dense<0> : tensor<64x64xi32>
    %3 = arith.constant dense<"0x37FEFEFFA74AFFFF49240000E12C01005821000073EAFFFFFBC2000029670000577C0000BAFCFFFFFF3CFFFFCC6E0000DE5500008677FFFF51C700002FD7FFFFA7B6FFFF226CFFFF814C000018FDFEFFEF2500005C110000DAB5FFFF2FEDFFFFE389FFFF0F5D0000ED0300004B4800009503000092E4FFFF4C150000F8070000A2AA000059600100520500005D9200007782000008200000211400005841FFFF4920FFFF5DACFFFFE2E60000AB3DFFFF1A06010061430100967A0000895D00007E090000777D0000C0C3FFFF425900002FE7FFFF60AA000039710000691100007D2300001287000055C9FFFF0C7A0000126600009ECFFFFFD11A0000E5DBFFFF7CF5FFFF4D6300005A2BFFFF82720000B9A70000767BFFFF3B50FFFF0D06010035C60000128CFFFF2C0101000C00000020ECFFFFAC66FFFFCCD4FFFFF5B5FFFF0B27000095E7FFFF5E34FFFF544E0000BF9E000080DF0000C0A5FFFFAD7A0000A0F0FFFF0B69FFFFE3E80000BAE7FFFFA577FFFF96F3FEFF6429FFFFE3D400009E000000E86100003C1F0100F33800000EC4000062F0FFFF300E0000F8560000366100004F3AFFFF65140100995BFFFF717500003D9A0000361A00005CAFFFFF66BAFFFF1FDA000067D9FFFF32AAFFFFFCD5FEFFAA6FFFFFC9AC0000B8CC000089FB00003D9600008AC20000550D000072B6FFFF108F000009D500001EA300007DDA000015950000E8690000658EFEFF206FFFFF768B0000F04BFFFF13AEFFFF0DA3FFFF1563000017D5FFFF5BF40100614A0000793801003A71FFFF63ED000016350000674600007A3600001E76FFFF48800000450A0000739A0000C558FFFFE8DBFFFF0779FFFFAD5FFFFF3DB1FFFFCDC3FFFF5636FFFF093B000060B6FFFF08F2FFFFEEDCFFFFC673FFFF939500003B1A0000F6400000843B0000F14B0000B79700009D8700004CD4FFFF5C0000009ABB0000469BFFFFBACB0000A5FEFEFF4F0DFFFF5599FFFF7238FFFF9C950000C638FFFF2F1C0000A418FFFF11230000FAE9FFFF623A000015DD0000995DFEFF22B0000011E0000048A9FFFFA9B500005FCC0000922DFFFFD12B010095EB00007ADCFFFF3AFEFFFFFC220000CFB50000EDACFFFF019F0000A868FFFF8C0D010000350000C650FFFFB7D3FFFF6CF8FFFF293BFEFFA413000005FCFEFF233D000023BCFFFF9CEEFEFFF73BFFFFFADD0000779BFFFFB5210000641F00001CCF00005DB4FFFF359FFFFFE324000020DFFFFF0065FFFF78C30000B8A4FFFF64080000BFF30000DC73FFFFC69DFFFF876D0000989DFFFF2A000000949E0000373400005C0CFFFF176D00000BA100009D29FEFF78C6FFFF559900000168FFFF881BFFFFC3C2FEFF8A030000A7A6FFFFF20601000344FFFF90CEFEFFAA10000028E90000A21EFFFFA1E400003EB9FFFF472600002F94FFFF489FFEFF414200008E2E01000A11FFFF1692FFFF4CD7FFFF97CD0000561C0100DDA0FFFF1E4D0100B958FEFF5D350000D8F60000FFC600000B25FFFF71D4FFFF3777FFFF126BFFFFDB5F0000F995FFFF6EBA00000B0C0000FB2C00002CA80000441700003708010056C6FFFFE6B0FFFF1646FFFFAAEBFFFF4593FFFFC2C0FFFF118801002046000077700000F1D60000FBCEFFFF9067FFFF5FCEFFFFDC20FFFFEF040000D3210000747A000085860000E51FFFFF4587FFFFF0B7FFFF9E2FFFFFF7930000CF6000000B390000D7D80000AD44FFFF6A7C0000401D01006F97FEFF0D390000AB15FFFF1DA4FFFF302A0000F1880000033A0000076BFFFF7029FFFFE933FFFF82740000586EFFFFBB280000AF9BFFFFCFB2FFFFD6B6FFFF2E0FFFFF2FD400006F72000039D50000F79DFFFFB0580000849B00006E30FFFF257AFEFF7E35FFFF019EFFFF60FFFFFF33510000BAC50000C6280000DB7FFFFFCE6100002F75FEFF3BC1FFFFB967FFFF4D79FFFFB98AFFFF382100003C74FFFFD2D9FEFF6C9DFFFFAA4900008547FFFF03670000E6D8FFFFB11D010042100000BE9300002515FFFFA83D00001EDCFFFF5AEEFFFF0DE1FFFF8CCCFFFFB6C9FEFF659CFFFFCB5000000079FFFF93860000528A000038C1FFFF2AAC0000A8C40000A5080000FFC7000050C7FEFF8A8DFFFF5D15000093FFFFFF81B60100ACD6FFFF2AA20000A6B5FFFF357EFFFFC14300000ADC00003E8D00001DCDFFFF0C98FFFFD228FFFFEF09FFFF814FFFFF0723000011D500008AE9FFFF77A30000DC9E00006C95000082300000DAEBFFFF343800009014FFFF649FFFFFC6750000846E0000712B0000F7D600001F90FFFF5CBB00003825FFFFBBECFFFF6A5D0100FCF4FFFFDC3900004C21FFFFC02100005F77FFFF6058FFFF61E7FFFF610D000007D2FFFF0FAA00005DE500005443FFFF2F6100006054000088270000FE030100D3C30000DF0F000010AC000051400100364E000017450000C2DB01006DB5FFFF12CFFFFF8B190100C012FFFFBADD0000E452FFFFDE2300000A050000138CFFFF8F9500004952FFFF72A8000011B70000485D0000C62BFFFF4EC6FFFF20DAFFFFB9CFFFFFDD34000042F3FFFF02F10000AC9DFEFF627CFFFF6B3200009B53FFFFB8840000A87000004953FFFFFFB00000FDEB0000DD300000D032FFFF1A5FFFFF1C68FFFFD1AA00009614FFFFDAAFFFFF2910FFFF175600005AE6FEFF8D73FFFFBD1C000002D2FFFFBBD5FEFFEECA0000776CFFFF33A90000FB2D0000CC870000FBD2FFFF484A000000A1FFFFDBD6FFFF86350000C1C6FFFFB4DBFFFF2518FFFF42E8FFFFD44C0000C919FFFFAD8C0000ED2F000010CF0000C12DFFFFE3E60100B8570000561E00009372FFFF3197FEFF635BFFFFADFCFEFFEBC9FFFF78F9000089E1FFFFE7B000006222000001F90000A272FFFF4298FFFF798A0000ACAEFFFF8B85000078EEFEFFBCBBFFFF33B6FFFF3DA5FFFF08CCFFFFBE360000725AFFFFB73F00004354FFFF1DB0FFFF04B2FFFF53DC000050D4FFFFE7FF00003DC7FEFF710A010043D5FFFF25BFFFFF4843FFFF0E6FFFFFF3070000E35CFFFFBE1900008E0400005873FFFFCC60FFFF231F0000BB41FFFFFF9CFFFF79A4FFFF97260000E7B1FFFF7BF70000864A0000420700008BA7FFFFBB2E00007235FFFFF859FFFF3E2F00004F1A000003F80000BD4601002C76FFFF145F0000A59DFFFFF79BFFFF1140000057950000CC20FFFFAE96FFFF6EA7FFFF96D3FEFFB28FFEFF16A4FFFF072500009B3800002E55FFFF9912FFFF866AFFFF787F00007AC1FFFFF39DFFFFF68CFFFFD02B0000B920000098BA0000851EFFFF40EB000001A50000C90500008078FFFF5207010066B600003E550000F0D5FEFFD0450000C7B60000B7010100F96D0000295CFFFFE85400001BAC0000843B00009B510100B6430100BD5C0000FD2C000060FB0000EF6E0000B7BDFFFF05CAFFFF20A5FDFF577001003E0E01002C3DFFFF3638FFFF80B400004C900000C27CFFFFA9CAFFFF7747000062670000113B0100D7310000AC1AFFFFCBD3FFFFBB2BFFFF0BA10000BDD7FFFF7A0BFFFF8210000072900000B84E0000AE3E0100490000005C7C00001356FFFFEB2D0100CDC200007FB10000EB07FFFFAABEFFFFF7D0FFFFDE94FFFFEB4AFEFFE0B7FFFFA4D9FFFF449C0000B690FFFF84B60000E912FFFF3A5C0000B6040000E1D0FFFF6713FFFF47E9FFFF632A0100E83EFFFFAC150000EDB90000BD540000633401000451000034840000A246FFFF6FABFFFF52A600008024FFFFC7590000ACD3FEFF1AB1000070DCFFFFAA96000037490100365BFFFF7E3BFFFF3EBFFFFF6F8300008920FFFF1F0900003DA80000075900001E1000003D5B00003B8400001A46000064B40000F5380000BD2400006B220000645AFEFF3088FFFF7632FFFF76D2FFFF8163FFFF657DFFFFF8AE000013BDFFFFBB3B0000ED01000033C6FFFF7CA30000D89AFFFFC2C40000985F00007BC9FFFFF1C5FFFF1199FFFF758901009C700000CEC30000C6E2FFFFC2700000091D0000949AFFFFCC0100003CBCFFFF5F0AFFFFBACD0000273C0000910C0100535A00006D4EFFFFD49AFFFF27A600005896FEFFE6BC000068CDFFFF527C0000B1CDFFFF7CC9FEFFE4C90000B5790000198BFFFF1D2D00005B4400007BC30100400D00006B8FFFFF2A2A00002D60000019DDFFFFCDBDFFFF930000000E85FEFF487C000013F7FFFF3207000022CAFFFFB916FFFF33DDFFFF2CF0FEFF7BA9FFFF71E0FFFF302CFFFF65EAFEFFBA6CFFFF9D38000038E10000265B0000C31D00004C8900001D3500005983FFFFA13EFFFFD457000051260000B56700005ECEFFFF36340000AA7FFFFFDBB7FEFF5B58000043E8FEFFDE1BFFFF81160000625600004ACCFFFF7B140100DC940100D5B500007EA30000234D0000CEE50000DF52FFFFCF24FFFF5656FFFF0BDBFFFFDC93FEFF8CCB00003CB3FFFF08F0FFFFC56900009D12010066D70000402AFFFFEAF1FFFF46DC00008740FFFF2CFD000051C1FEFFB63FFFFF2DBA0000A4ACFFFFA7F3000025A10000A589000033DDFFFF6E59FFFFF37AFFFF99F6FFFFF07DFFFF42B7FFFF904800006D81FFFFB2110000BB7CFFFFC88A0000278B00003D9800006EE400004A45FFFF9690FFFF8E7100007596FFFF64990000160400009C35000028D00000C95000003DAE0000AB210000C8BB000026D9FFFFFC6700005556000052BAFFFF2E040000AB5A0000605CFFFFB6F9FFFF87F6FFFFF7650000CBDEFFFFFA9D00003BECFEFF8A9CFFFFC6E900003488FEFFEADDFFFF82FDFFFF165200000196000027CDFFFF79FBFFFFAF76FEFFCD090000518D0000682F00009D100000390A000092160000C5C8FFFF88DC01002D5A0100613D00007AF3FFFFF1420000C4B30100F126000085D8FFFF451EFFFF841A0000F47A0000A93FFEFF70A1FFFF03520000278A0000EFB7000015C20000F6F100008F4900009F17000084C300004B90FFFF53BFFFFFC21D0000214600008C33000017410100FA9800007DD400005FCD0000291E0000E51200003016FFFF24EDFEFF37680000790600008C22FFFFDE5BFFFF27080000F497FFFF692601007CACFFFF695E00000AE6FEFFF642FFFF7C260000B1C70000529900000D220100B21500004EBA000086D7FEFF044B0000CD2B0000CDB1FFFF65D7FFFFC9180000ACD4000057EFFFFF0555FFFFE1C70000CBBC0000C3B00000475E0000CCBF01002005010069220000B5480000C85B000083FEFFFF032800004968FFFF899DFFFF02C8000064D4FFFF71400000CF2A00005E110000F6A8FFFF435501008785FFFFED6DFFFF32F3FFFF97510000467600003E60FFFF7ECCFFFF1E74FFFF71B3FFFFEBF600000352000002C1FFFFF8320100B2FFFFFF9C8500003E43000050DBFFFF08410000C9C6FFFF57C3FEFF8398FFFF3C500000671F0000254F0000213A0000A51A00005FE9FFFF92C0FFFF1E39000035DF00001B03FEFF66D2FEFF65E8FFFF077DFFFF91CDFFFF564F0000EBA50000838AFFFF0526000048B6FFFFF5C9FFFFF0BAFFFF852E00003E220000A10AFFFF7BDCFFFFAF3DFFFF7D80FFFFD5E2FFFF3595FFFFEC44FFFF98E5FFFFB7B5FEFF645B0000BBAD0000B0110000CACEFFFF8A84FFFF6AC0FFFFB8140000079FFFFF682700009C2B0000C2ABFFFF863A0000BC370000A2AEFFFF63260000D6B5FFFFE48FFFFF705A0000CC720000EE2800009824FFFF1357FFFF1A9BFEFF0B8AFFFF1CF20000575B00001C0300008E91FFFF24F7FFFFF340FFFF2A0D0100168BFFFF5DB10000938BFFFF0701000098E7FFFFDDE9FFFF3391FFFF88C4FEFF6C91000070BCFFFF9015FFFF298200009AA8FFFF6454FEFFD48200002EB8FFFF9875FFFFE63BFFFFB4B9FFFFAF32FFFF4767FFFFF946000005DAFFFFA400000052F3FFFF7BB1000024A100001098FFFFE8B30000F68A0000A7690000A8F5FFFFCB63FFFF1BB8FFFFD0F5FEFF74840000D0E3FFFFB11EFFFF3681FFFF6E7E000062D7FFFF9377FFFF28A300000A8AFFFFF1D4FFFF3A0D0100EA7CFFFF4E29000046860000E8BEFEFF8105000006E3FFFFC72D0100CD17FFFF45B7FFFF2DEAFFFF13F60000D0C4FFFFD861FFFF0F320000AEE8FFFF94DA00004B520100D81D0000D1CBFFFFE37EFFFFBC9EFFFF3EEF00001DFFFFFF47BF0000718AFFFF03540000CC38FFFF192F00002F06010084F9FFFF1CD6FFFF43C6FEFF2C700000F2D2FFFF5FF4FFFF3FF10000DEA7FFFF747C0000A5EAFFFFA933FEFF546F0000E432000005220000A3130000CAD0FFFF560B0100E1B1FFFF459000008AB00000BF1D01004DAB000028A4FFFF2581000096A70000F469FFFFE3EE00002534FFFF7AF6FFFF971300004BFC0000003100007F50FFFF392E00008E9F0000B778FFFF799A00009F71000092AAFFFFADD40000AC570000F427000058950000BB480000AB5B0000F75E0000774200008DC9000083D00000E6220000399B010021C1FFFF4F83FEFF986E02005811FFFF42170100128A0000B4BBFEFFDBD7FFFFCF4BFFFF63320000D513FFFFBD5D0000ECF9FEFF715300008882000072A9FFFFC6C3000006740000F52300000094FFFF7E6100009EF70000DDE7FEFFAC1800006AF6FEFF2E79FFFF62AC0000EE5C00005B620000C2230000D840FFFF039FFFFFCC8700005BDCFFFF6BC8FFFFCFA6FFFF661101002E5B00003ABA00008A7A000070EDFEFF205EFFFF8D44FFFF1A7800002BDAFFFFC383000018D9FFFF8D5D0000320E0100C4580100F957FFFFBC2E01000F870000A531FFFF5E670000228A00009C700000806F000031FAFFFFBFB3FFFF12920000F680FFFFB21C0000134200002144FFFF05FEFFFF05FEFFFFEB9800005B16FFFF08710000A368FFFF8A0D0000F8390000ADF9FEFF88FD000044FC0000BE0CFFFF545100003CBA00006D9EFFFF8B25000050470000B98600008E1FFFFFBB1EFEFFC6B9FFFF8C680000D4F600006DBC0000CB9DFDFFEFF3FFFF95DCFFFF10370000A364FFFF54B20000B2D2FFFF7065FFFF62A9FEFFCD480000060CFFFFB209FFFFD569FFFF7AEAFFFF2F64FFFF97A7FFFFD5CCFEFF935FFFFFF8CDFFFFF2B8FEFFFC54000071A8FEFF19EAFFFF33C90000763E0000CB2A0000E3A4FFFF0414FFFFCC9AFFFF79620100B8DBFFFF04D6FFFF4697FEFFF09FFEFF3844FFFF8C1C0000CCE100004C360000F8F6FFFFFDEBFFFFBEA6FFFF55090000A5500000611300009CC8FEFF42F30000F02600000A83FFFF76E9FFFFF17DFFFF7388FFFF7580FFFF8D6300003C3D000000530000715200006102FFFF34300000FE25FFFFAA2F0000F9140000092200002628010045DDFEFF49D2FFFF2611000050660000CC84FFFF4E7CFFFFBD350000B896FFFF11040000F80700003C93FFFFEAA5000060CAFFFF64440000235701006EBCFFFFABC6FFFF969DFFFF34BFFFFF3659FFFF61CAFEFF5095000011DF0000465FFFFFE6FB0000B17800007ACFFEFF127600007F16FFFF9A420000B9FAFFFFCABA00005ADCFEFF67E3FFFFD1BBFFFF1F59FFFFD49C00007C3500005F1E0000A474FFFFB37200009DD2FFFF100F0000BAF2FFFF4D7E000014790000A851010054030000CE0601007DB50000146FFFFF8FFCFFFF179DFFFFA8D6FEFFD676FFFFB9220000284BFFFF92430000BF560100623401007446FFFF97910000E3D50000C1C1FDFFA7D00000549000000F15010069FBFFFF0918FFFFEBFEFFFF2E1300007DFBFFFF9470FFFFB2EB0000ABB000000F5D000022780000463E000026C2FFFFF2020000127F0000FE5700006B8400005DE000008DD4FFFF424E0000AE5F000083070000201DFFFF254000004E87FFFF5C260000407FFFFFD2090000B793FFFF4A09000045E6000086B0FFFFFAE4FFFF1C37010030FE0000750802000C180000A75A0000DBCDFEFF9DE700004A7DFFFF8B5A00002D12010057BC000029E7FFFFCA45FFFF2EA1FFFF76A30000ED040100E0AFFFFF24410100B340FEFF12B0FFFF0ACB0000EE5AFEFF52EBFFFF2C42FFFF0FF8FFFF8760010099280100DA8100003B890100D0720000B0FFFFFF2ED0FFFF63AB0000794C0100BA9EFEFF5D2D01004E3EFEFF601CFFFFC6FBFFFF73DDFFFFE9E1000063120100D90000005382FFFF1170FFFF54AD000024670000D048000067180000C4DCFFFFEEB8FFFFE6DDFFFF2FAB0000E790FFFF2D4F0000E8CAFFFFDBA70000E8E2FFFF5E2200006CC200006D41FFFF45E601008273000076AC00006264000037DFFFFF42620000FF39000017CE0000C060FFFFB1D3FFFF01B0FFFF7514000048DAFFFFE64D000098130100B6EDFFFF609A00000DA7FFFF38DA0000DAA3FFFFC6C1FFFF43C6FFFFA6BFFFFFF444000057E3FEFFC99CFFFF7490FFFFD070FEFFAA2D0100A32CFFFF816AFFFF72950000296D0000FDD3FFFF31B2000019B700003DD0FFFF43D7FFFFD6E0FFFF91290000FEAE00001B3AFFFF775DFEFFE709FFFF83640000DA5DFFFFF979FFFF9E3FFFFFC9F1FFFF3EFAFFFF6E4FFFFFA1B5FFFF8FABFFFFBAD6FEFFB59C0000FA130000C936FFFF0128FFFF3A370000DA8BFFFF02A1000076E4FFFFC97FFFFF558EFFFFA8B8FFFFBD12000027E0FFFF7A3EFFFF76B7FFFF5E7DFFFF0C3B0000A7A0FFFFE0C00000309AFFFFB9B0FFFFBBCCFFFFB5E8FFFF52CD0000B30D0000980B010053FCFFFFA2AEFFFF6545FFFF93FE0000DEE8FFFF5BA50000643B0000EF69FFFF12FB0100A7ACFFFF58090000EA8D0100A397FEFF3E56FFFF1E33FFFF1E71FFFF1C6F00004937FEFF2178FFFF47AAFFFF4C59FFFF5EC6FFFF5D80FFFF07F0000015FEFFFF8E400000C01D0000A5BEFFFF493401004A8FFFFFE3E3FFFF256E00009531FFFFF440FFFFB4E7FFFFA585FFFF475400005D3C000037D6FFFF2B340000A3A3FFFF1DD2FFFF94DB0000103B00004A6F000068C3FEFF0661FFFFDBDBFFFF7B390000E5DF00001943FFFF4531FEFF60F0FEFF0736FFFF8D600000B1DBFEFF6E8B0000C6B1FFFFD91F0000F68BFFFFA3E8FEFF71B30000033100000DCF0000E034FFFF5F34FFFFF1C1FFFF33A5FFFF2F3F00001811000020C600003E8B00004B75000069B0FFFF6202FFFF9616FFFFEC6EFFFF546DFFFFC8DCFFFF320E00007B72FFFF43B90000DD1B00008480FFFF8FF6000061480100497BFFFF781D0000A6310000EB220100980BFFFF9AC1FFFF5E6CFFFF6180FFFFECB7FFFF94740000C5CAFFFF08A7FFFF5D25FFFF940F010031DDFFFF641F000012A9FFFFF9440000DF3F0100970E0000431900003D480000DE84FFFF50CAFFFFBD560000494E0000DB5C0000E68C0000ABD6FFFF36DDFFFFBFA200001308000079A0000083BDFFFFC29D00004CB6FFFFF25FFFFFB69D0000F0EBFFFFD1870000504E0000C57DFFFF0E910000A6AD000014020000957A0000DC330000A8B600007AD5FFFF160700008A2CFFFF57E9FFFFA2BCFFFF39170100F5D4FFFFB9A80000C4060000236E000097F7FFFF131F0000161BFFFFA565000031A0FFFF4B94FFFFA94B00008318000095BFFFFFFFB601008C730000790D00005489FFFFCC530100B744000098800000BA61000036C2FFFF6AE80000FA510000B4300000F9F8FFFF29270000E98D0000E0AAFFFFE1170000D15EFFFF61E3FFFFB518FFFF057D0000904B0000C9A0FFFF9A020100851000004AAB000030FF0000BAFDFFFF2A880000839BFFFFF20000001F950000060901001F72FFFF8FFBFFFF35A3FFFF6E590000455FFFFF8EBDFFFF5D9FFFFFC16AFFFF96E5000094FEFFFF2BEEFFFFEC6101003CC7000007FBFFFF4BB9FFFF3C14000043C9FEFFC478FEFF96250000C5030000FA2400009E9901006CA300000BB8FFFF61BAFFFFBF9E000032120100C88900008AC00000596AFFFF24EFFFFFC074FFFF218C00005928FFFF217AFEFF7C7B00000DC5000035680000D4530000B7D2FFFF424A00004F27FFFF808BFFFFF15800008DE1FFFF69B3FFFF4FBC0000A48CFFFF6F7A0000AFF5FFFF3E26FFFF798D00000A2A0000E8640000475DFFFF17C8FEFF34080000095DFFFF3513FFFFB07AFFFF5480FFFF4E100000F57EFFFFD64E00007A9200007AEFFFFFD3CBFFFFFE1BFFFF6C310000DCF3FFFF63B6FFFF6F3200008C960000472A0000C7B70100AE74FEFF48B4FEFF985900000548FFFF18A6000083E9FFFF4067FFFF2F1700004177FFFF5DFDFFFFE0E7FFFF4632000054B300004F450000F30B000048C2FFFFE029FFFF6774000075FAFEFFAEE1FEFF48B9FFFF614EFEFF907D00002572FFFF40D6FEFF90DCFEFF4597FFFF36070100C818FFFFD2C7FFFFAFD8FFFF1044FFFFE7240000D3070000DDC6FFFFACC3FFFFC66FFFFFD52200009CF6FFFFB253FFFFD18BFFFFCA740000C145FFFF7779FFFF971E0000D347000095010000A88A0000A8BA00009F9DFFFFE5AFFFFFEA14010095BDFFFF2F540000F3CDFFFFE2500000FC31000048FEFEFF15F4FFFF01570000624800002493FFFF07ABFFFF50040100383FFFFF1239FFFF7F1B01007F600000A1BCFEFFDC9600003BF9000035D80000FA84010077A60000188C00007B6FFFFFE6F00000E93900001E1D01007A7C0000DEB7FFFFCF9200003FFDFFFFCDB2FFFFEC1E00003F8F00009EF2FEFFBBB50000052AFFFF1682FFFF87B50100F888FFFF734D000014310100DD12000016DBFFFF940E01007D5DFFFFABEFFFFF3BA100004D9E00007C83FFFF0080000073DBFFFFF4A8FFFF1F2300001B9D00005811010043470000154A00000AB0FFFF9B4700003A7500005531FFFF497D01000FB1010080470000259EFFFFD68400006A74010064940000F15700000DFCFFFF771FFFFF67B3FEFF92EAFEFF7974FFFF661EFFFF39B90100E2CF0000C6EFFFFFDA02FFFF4F23000038A2FEFF0B0DFFFFEAF6FEFF482C0100E6880000A3A400008D19FFFF6DAC0100385EFFFFCDC10000D1230000EC49FFFF5C42000087EAFFFF0DE70000A585010032CF00006F320100562EFFFF2E5500002FC8FFFFBFC5FFFF92E80000EE03000078F7FFFFCD3D0000C2E1FFFF484C0200006800003CA600007A8D0100FA4000005161000030E7FFFFB71C0100BD8E000004D60000A7D6FFFF922E0100E90E00007E1C0100D92E0000D6A3FFFF1B6100005B4E000084A0FFFFC11B0000A1AB00004539FFFF6393FFFF0C880000DB560000C1A7FFFFE81E00000333FFFFF9AFFFFF84350000ED15000026B200006DACFEFFE8A0FFFF358AFFFF89B1FFFF449E000064B9FFFFED8AFFFF0EA00000579E00007C1B0000A2490100B28BFFFFD15FFFFF9B76FFFF1E2F0000E2B10000CDD2FEFF10F1FFFFAD140000EB99FFFFA2C6FFFFA5DFFFFF444AFFFFE96700009EFDFEFF3B98FFFFE5FEFFFF7F69000088F2FFFFECD9FFFF5B6D000072030000C7CDFFFF0266FFFF996F0000E814FFFF707700003B4500002B2D0000C9AD0000EABDFFFFAA0A0000415FFFFF34BBFFFF00DCFFFF1861FFFF9F150000AA83FFFFB02800002A9E00000711FFFF650DFFFF5EDCFFFF01D1FFFFF85C00006621FFFF526800000A24FFFFFF300000BC6BFFFF64520000E73700007A1FFFFFBEBD01005A500000EEE7FFFF9B2F0100C797FFFF5D33FFFFDCCDFFFFD26A000029C7000016FDFFFF0C8A0000B17CFFFF2FB8FFFF81350000F848FFFF495200000C2D0100ED8C00008059FFFF9E63000061210100A889FFFF3B0601003D130000E92FFFFF8015FEFFB24C000071440000017A000079D6FFFF77C6FFFF8D4DFFFF14AAFFFF8338000058B6FFFFF7E1FFFF403500007149FFFF293B00001095FEFF109AFFFF36DEFFFF175200006CA40100133500002093FFFF15F5FFFF553FFEFFAE9BFFFF881B0000D3B5FFFF04E6000029A6FFFF9EEAFFFF251B0100421C0000DBD8FFFFBC9E0000A487FFFF6C32FFFF81BF0000042300006F2B01008E28FFFFB17BFFFFEFF6FFFF11290000BBA90000C1BAFFFFFF2C00007B910000A5CCFEFFAF6B00006E5CFFFFAA03FFFFD86EFFFFE80901006567FFFF7C8BFFFF9442FFFFA079FFFF0A55FFFFA05CFFFF0DAAFFFFDABCFFFF518FFEFF696C00001713FFFF46D5FFFFF5AAFEFF5D390000773DFFFFDA3F0000E08C0000254C0000A96DFFFF76FEFEFF8C7FFFFF5572FFFFBCD9FFFFD7F5FFFFB7B2FFFFE3B1FFFF7C8D000033F40000C07AFFFFC5BFFFFFEAB2FFFFFE390000ADE5FFFF6B2EFFFF7D660000B3380000A6F8000036170000E6E400008AFCFFFFDF800000454F000030B2FFFFAB940000A85D000084020000FDEAFEFF3D7D00000290FFFF4AA6FFFFDC7FFFFF791B0000849C0000A4D2FEFF563EFFFF780800007D59000059BAFFFFB1400000CAC7FFFF01840000ABD2FFFF231B01003667FFFF7BA4FFFF5CC9FFFF17270100111CFFFF1E4800009DA40100C399000015030100B2A8FFFFDB910000CC560000A32F00006CBA000096480000DAE5FFFF33A4FFFFC1BEFFFF306D00008390FEFF091EFFFF967501003CC3FFFFEB2600000C5D0000E01DFFFF97410000EA00FFFFCD5400001E1B0000DC69000078840000A0EAFFFFF549000086F10000404EFFFFD424000002CAFEFF67FEFFFF103E00000155FFFF9E9D000058EAFDFF42520000F04CFFFF7169FFFFECC90000B80D00008A8200009FD0FEFFC55C0000A90F00005C8A00001AC200006E6501007EEA0000843400009808FFFFDCCEFFFF7774FFFFF9EAFFFF7B5D00007E570000AB980000466B000079E5000038B6000078C400004E5E00002A1DFFFFFECC000020860000177C0000E04E0000394AFFFF7A64FFFF23160000A67AFFFFA66FFFFF9EA5FFFF6221FFFF551A0000620F00003A800000AFD4FFFF28C900009C080000F8DCFFFF6FF7FFFF4C4300004F130000E891FFFF2EB9FFFF3844FFFF7391000084B2FFFFB27B000072CEFFFFD0EEFFFF95F0FFFFEB57FFFF117D0000108400004436FFFF6AC6FFFF7D7DFFFF899B00008D1F000065A5FFFF59A30000920300001DD2FFFF3F2DFFFF3D800000F43F000058F8000036B3FFFF6D4800001855000041A0000043BB000070160000BEDEFFFFC4FA0000FF63FFFF28CF0000B6ADFFFF5A81000090D700000119FFFF6F5C0000F3D9FFFF424E0000C8AD000087FAFEFFB774FFFF56D2FFFF8877FFFF93680000E9710000C10A01004D620000F9810000F059FFFF51AB000075B6FFFFD8ADFFFF7D1CFFFF06610000BAEDFEFFDF950000770B0000C5840000A5DEFEFF275100003A6501006C0E0000DBB1FFFFE6C6FFFF69A6FFFFA2F8FFFF2DAB00007485FEFF8C1EFEFF850DFFFFF96CFFFF7B4D0000552601005ED1FEFF095DFFFFD7130000B1DAFFFF33860000BF3D0000D38CFFFF7EBBFFFF410901005EFEFFFFA8C2000077A800005A4FFFFF6793FFFF694600002E4BFFFFC7EAFFFF886AFFFF3A330000AA360000B7A40000B100000061FAFFFF4ADBFFFFE4E6FFFF3EE1FFFFA83000008398FFFFD0F7FFFFFF570000E76500007CCF0000D08B0000BD66FFFF29A8FFFFD34B0000BCCD0000BD010000B9830000D83BFFFFA02100001748FFFFFA8000004432FFFFEE4D000018F6FFFF58D2FFFF0BD0FFFF9118FFFF7DD200008D55FFFF2733FFFFC38600001F21000034050000D049FFFF64E8FEFF83D5FFFF128E0000D4C6FFFF53140000E260FFFF9F010000567600009D43FFFFFA290000DEA9FFFF3FA90000E99A0000F496000059BE000021BCFFFFB3150000EFD1FFFF48EFFFFF28FFFEFFEA92FFFF7E050000AC87FFFF36ADFFFF6E76FFFF98C600005AA20000168CFFFF90250000C25E0000757600008BE3FFFFE908FFFF78410100181F0000B173FFFF8AD4FFFF9D92FEFF6C3E00009AC1FFFFDDC8FFFF72290000A2D6FFFFC98E0000F5D6FFFF4000FFFFCE330100B201FFFF81450000853E00003DD9FFFF1D6A0000A21FFFFF5BE5000089440000128CFFFF1F3600002BD3000071A2FFFFBA110000C9010100E4C5FFFFD3B001000E0800002856FFFFAB03FFFF0F10FFFF8CE9FFFF7D0C0000E82800004D7C00000BA7FFFF2A1900006C73000028C4FFFF834A0000D2E0FFFF692A01002E880100A425FFFF79D7FFFFF56BFFFF6AE7FFFF657000009E320000FE7A0000C18A00007550000090A2FFFFF1AEFFFF25AFFFFFF5280000BB9CFEFF80FCFFFF3C000100D9630000C090FFFFCDE9FFFF5030010000AAFFFFF1B00000FBA90000092700009C1F00005D29000046DC0000650C0100CB890000944CFFFFC20300002FE9FFFFE7EA00004E8C0000C120010063A100008BECFFFF30F9FFFF577F000046BCFFFF2F190000C40E000051E8FEFFDC4E00006D60FFFF9E2B00008DD3FFFF1A380000B5AAFFFFFF5D0000CCA1FFFFC9050000E455FFFFE50600003DC500002BCB000060CCFFFF7DAFFFFF308600007DB800009B64FFFFD740FFFFB6020000723AFFFFA13D000062C50000D4240000BBD7FFFF018E00003A61000090C4FEFF0FB9FFFFA9A4FFFF83D0FEFFDFF10000C8A20000C77A00006CBDFFFF083D0200EAFD000095390000F331FFFF73EAFFFF453700008753FFFF570D000048ECFEFF40CE0000FB98FFFFE57BFFFF8472FFFF6760000073B2FFFF9086000092D9FFFF8E46000054E4FFFFC7D4FFFFAF5BFFFF6A3B00009C7600004537FFFF1CB30000C4CEFEFFA61701009F050000CD000100C87FFFFFF13D00003002FFFFFA7F000009500000258AFFFF9ACAFFFF1DAEFFFF9A09FFFF6D6AFFFF9D95FFFFA71000001A2C0000B993FFFF8A34FFFF0D080000875AFFFF7F93FFFF669D0000178C0100B6220100EF3AFFFF5C4E000039150000E04E00007D2EFFFF29530000A294FFFFE98B0000EBFAFFFF6489FFFFECEAFFFF10780000660E0000C36AFFFF38850000ACCDFFFF290A01003C61FFFFBE45FEFF09EFFFFF07A5FFFF5E8AFEFF5EF2FFFF4174FFFF613D010041D20000652D01009C1B0000EF460000EB8FFFFF21B9FFFFB48BFEFF8E38010099540100D047FFFF4D2D0100F05AFFFF24DBFEFF29610000E9FAFFFFDC95FFFFD10601001A19FFFFC3AB00005D23FFFF99D900005AC7FFFF212EFFFF57D50000432600006C83FFFFE3FAFFFF5A67FFFFDB6300004798000039F6FFFFD50A00003BD2FFFF5C6F00009F22000019CEFEFF13CA0000EE80FFFFEFFFFFFF7913FFFF388FFFFF3EF4FEFFF87E0100DD2F00009D0F000083750000845A000092950000757EFFFFB5B100002BBDFFFF1BC8FDFF71C2000008B9FFFF755800001DEB000090FB00003337000028E5FEFFED3F0000977AFFFF583400004F2F0000B41AFFFFA1DBFFFFD0FFFFFF107DFFFF772AFFFFF17AFEFFE59C0000AA9BFFFF7BD6FFFFC882FFFFC8FD00000AB5FFFFD167FFFF6EE5FFFFBB4F0000CFD2FFFF510AFFFF1E020000A8E6FEFFC0EEFFFF4B67FFFF10E7FFFFB53CFFFF8671FFFF6B39FFFFEA58FEFF7E4BFFFF96B6FFFFFB590000FA37FFFF056BFFFFCC96FFFF119AFFFF0D1D00008EA20000C6EAFEFFCA79FFFFB3A10000DD3D0000622001008519000043380100271EFFFF56110000157BFFFFC91E00009EB3FFFFAC37000033C900006B0B00002C16010085BB0000383A000043C4FFFF9F33FFFF3C1B0000EB54FEFF5E4A00008F4FFFFFC5E00000179CFFFF8D1CFFFF34080000CA17FFFF18C6000081C70000A792FFFFBB09FFFFCFCCFEFF1A910000AB8CFFFF89EBFFFF1125FFFFE743FFFFDA9400007993FFFF2C0F0100221CFFFF03D8FFFF59CBFFFFF23F00005D7AFEFFB9320000A3B7000023B7FEFF92BE000042BEFFFF7FFEFFFF36400000DA5FFFFFBCDDFFFF4273FFFFE7AA0000B5CD0000CB020000CBCCFFFF0BA300000F3A01001AA700004C71000033F8FFFFC2CAFEFF1DBAFFFF081CFFFFD6F7FFFF257C0000C955FFFFCCA4FFFFB41B0000731E00008A6E00009465FEFF6B2C00006EB3FFFF2C780100456CFFFFF4F0FFFF5526FFFF2F94000054E0FFFF59940000341300004FAD0000E278000000F8FFFFAAFCFEFF50D6FFFF896800007347FEFFFE71FFFF5927FFFF81BAFFFFE7D9FFFFF048FFFF81230100EA2F00005EE5FFFF1B6C0000F026FFFF42B00000FFE6FFFF8CDDFFFF6C330000A5BDFFFFA72A000023B70000B717FFFFD29BFFFFEE5C00009E1DFFFF6D080100387700009317FFFFBEE1FFFF30720000360C0000CCBDFFFFEFBBFEFF6D38FFFF1EA5FFFFA3F10000AB900000B87B0100A540FFFF1E72FFFF9B8B0000D4CD000041BF00003B050000E19CFFFF7A1100007EF4FFFF6745FFFF0CB70000AD470000143BFFFF54AC0000D5F8FFFF6353FFFFAE85FFFF88F0FFFF30F20000BB9A0000464F00007D8100000EFDFFFFBC4F01001335FFFF2A71000031C6FFFF8D2A00001FD10000E453FFFF1781FEFFDEFE0000C5B1FFFF0E4300009267FFFF8C64FFFFE2820000409D0000996C00004F000100E1AC0000F50E0000E9440000F2C7FFFF1A4800002C20FFFFE43F00008206000097E4FFFFE8DCFFFFD9A5FFFFAF1B00003942000029450000752100005B8100008752000077DEFFFF7AA5FFFFF5A4FFFF6B650000DBE2FEFF73AAFFFF165B00002994FFFF578AFFFF8DE4FEFFCA3EFFFF2D61FFFF00DB00005B4E000036F6FFFFA138FEFF0D4FFFFF4A2300001361FFFFAD4E0000183000009849000039F6FFFFBF2E0000D14E000004F9FFFFBA5601003D4501000866000036A4FFFF698D0000E47A0000FDA6000061E3FFFFCF3C00006E3C00001AB90000D0F700003FFAFFFF10ECFFFF7ACBFFFF3BADFFFF02BBFEFF9AD0FFFF7274FFFF78C0FFFF223BFEFF3C89FFFFFB2C0000EBE8FFFF6DEF0000A1CCFFFF67480000D80F0000F6040100BDD7FFFFC94A0000F859FFFF9213FFFFDB3C00003243FFFF3C0D0000D5190100CD04FFFF9E3CFFFF4CC0FFFF7728FFFFE2390000FCF3FFFFC09FFFFF89CA0000FFEBFFFF60E1FEFF1ACF00004BE0000039990000CA71FFFF9AD7FDFF9FC1FFFF7C50FFFFFE5E0000745C00000D0BFFFF5FD0FFFF94B10000D1FBFFFF10C400000168000018FAFFFF5E0F0000DBEBFFFF263F0000FCF3FFFF26F9FFFFDF58FFFFC025FFFFFE1000002B2D0000B4F2FFFF067600002AA4FFFF32F1FFFF0DCDFFFFD6C5FFFF0F34000002B1FFFF487DFEFF78D4FEFFA1E8FFFF9575000020D6FFFF53B3FFFF6A0D0100E0F90000A89DFFFF17880000EF740000902EFFFF176B0000DA94FFFF050E0000BC3B00004B54FFFFF44400009FC2FFFFF8CDFFFFFC4400004DBAFFFF18CD000050060000DA35000071FAFEFF1ED9000022FC0000897000000691FFFF3C5DFFFF477D0000B5310000646BFFFF7C700000F1D70000B135FFFF747BFFFFC20EFFFF20E0FFFFEA4F000099A0FFFF14230000B0DCFFFF6AF1FFFFDDA3FFFF172DFFFFBE3001006218010063750000179700001186000058F701002B23FFFF21340100BE82000050BC000022850000524C000090E3000036A800005E390100895EFFFF3413FFFFF462FFFF9BF8FFFFE0A7FFFF8A62FFFF257D000049FCFFFF320AFFFF5F9BFFFF1B6E010076CBFFFF9FC6FFFFDB100000695D0000373500008C6DFFFFFBC30000589BFFFFC9F6FFFFAEB1FFFF71A0FFFF0CA4FFFFE4550000764D000076F8FFFF2FF9FEFF18730000F4220000BFA6FEFF5B2400008F6B000056C0000031C8FFFF27580000A81A0000D3010000978800000F190000A44200005FE6FFFF19D4FFFF7F46000062E9000008B3FFFFA27CFFFF8730FFFF9BB3FFFF6FE1FFFFE5C10000FF8E0000C13F0000FC950000FE4201005E680000C1030100CB9A000004EE00000DDF0000D457000078AFFFFF6A83FFFFC9F00000EABBFFFF8C6700004EFCFFFF90730000430E0000B860FFFFA8B7FFFF2C5600008596FEFF705900008AD6FFFF714A0000AA920100ABACFEFF44740000EEF3FFFF62590000F92700001BA5FFFF11F7FFFFB03F0000DD200000A7CCFFFFC7180000E732FFFF8427FFFF9C21000017C5FEFF328C00001CF6FFFFC3CCFEFF669200007CD8FFFF75A2FEFFA0A60000B8D3FFFF0B090000E056FFFFFE5D00005CF8FFFFE261FFFF85080000622D00008BDAFFFFCC4C0000BB3900007C31FFFF5E87FFFF63C8FFFFB49F00002AC5FFFF5666010050AD00006CFEFFFF5E84FFFF0E4A0100080FFFFFD33300005198FFFF19FC000002940000F5D60000E77E00001CF9FFFFC65B00005CF7FFFFC0B6FFFF851000003087FFFF842D0100B8EFFFFF08A6FFFFB2FBFFFF4568000051A400008983000083C00000177C000034E7FFFFF06D0000B89EFFFF3892FFFF1FB4FFFFDB32000040270000ADE4FFFF0301000073400000ACE3000026B00000C0FCFFFF976DFFFFF9DCFFFF37E2FFFF473C0100B1BCFFFFF93EFFFF30D7FFFF4BB5FEFFD7D2FFFFE44FFFFFB8D1000036700000048E0000F75DFFFFFBA60000D3BB0000480901009D22FFFF0AF2FFFFB54D00004B69FFFF53D3FFFF73120000F368FFFF495EFFFF737F000090EEFFFF9AA10000576C01006DCCFFFFFA42000087160000D53100002213000087C3FFFF6E66FFFFA41500006E530100044BFFFF2E5FFEFF37F70000FCE1FEFFA35D00009532FFFF76450000388EFFFF34EDFEFF3B69FFFFFE80000027F5FEFF0D1BFFFFA2B6FFFF3A3F00001E7BFFFF59A9FFFFDED9FFFFD473FFFFAC2C000093580000D558FFFF82B2FFFF8AEA0000CE94000027A9FFFF73AEFFFFF6180000DB4A0000788F00004C52FFFF46B7FFFF56230000FCB7FFFF726AFFFF53C9FFFF4AAE00005E570000227B00001E51FFFFEDE000007D9AFFFFA97A0000971000000386FFFF5C08000098CCFEFF4C040000D0910000538A00002EB7FFFF226600003F37FFFF9DC4FFFF4267FFFF1DA2FFFF9AA7FFFF78B60000B33900008D0FFFFF644DFFFF8799FFFF0DB500006E0B00004027000039C30000318E0000A129FFFFD38B0000325BFFFF358200003DF0FEFF4AFFFFFFEBC900006606FFFF548FFFFF429100002A2B0000BEE90000D9A00000ED3C0000BC91FFFFE5000000E42AFFFFA853FFFFB997010029AF0000551C0100CC1D00005BFD0000ACAE00002AC3FFFFE5F8FFFF04C000002AC0FFFF7BE8FFFF8E70FFFFB17AFFFFED0C000097AFFFFFFD85FFFF8F9500005F4C00004E9CFFFFEEEF00002570FFFF5A490000A78500000E000000C1090100D6960000A93A00001F1D0000E8A3FFFF2D83FFFF23D4FEFF8AABFFFF93A30000D9D1FEFFF9820000C183FFFF8A8AFFFF41F2FFFFEE49000024ACFEFFBF93FFFF39E5FEFF80CBFFFF819DFFFF26A60000E840000026BFFFFF09CC000045EA00006E020000EAD4FFFF296C00009DB6FFFF1ADCFFFF28BBFFFF3C5D00001630FFFF344E0000CD2F0000F40C000068D9FFFF9A14000050C1FFFFEA850000C5710000E433010095790000880E0000BF7A0000DFC10000B4ADFFFFF4510100DCA6FEFFE65401008F470100FB5AFFFFD41B000033280100F39DFEFF7E43FFFFF6A1FFFFFB2B0100BAEBFFFF5BC2FFFF7F880000162FFFFFFAC4FFFFB145FFFF22DEFFFFA64BFFFF537FFFFF924600003CACFFFFF1110000A5D9FFFF86EF00008EE5FFFFABEFFFFF9B0800004C76FFFFEA8EFFFF5575FFFF27250100231C00003F9DFFFF3EA7FFFFD7390000DBB80100607DFFFF606E00000EE0FFFFA846000069B700009FEBFEFF85DC00008CEAFFFF016B0000F80700007BA6000024EEFFFF982B0000CEEC00002173FFFF26F6000067E5FFFF5A2800005C5F0000A4BFFFFFD08BFFFFFE4A0000FF510000623000007753FFFFBBC5FFFFF03500001EB5FFFFD0AF00004566FFFF709DFFFF0325FFFF8ABBFFFF00AF0000AF1000003A4700005E70000088EB00009B65FFFF0AE80000FC6FFFFF403FFFFFF13100004599FFFF0B8AFFFF69600000B1D5FFFF76CDFFFF8D95000059FBFFFF316BFFFF9197FFFFFF2600002CCD0000C4A800009D77000053E7FFFF2BD6FFFFA21E0000D74A0000557E000069AA00008F13FFFF05360000BC06010080AEFFFF93390000218F0000ACB6FFFF5A080000E89F000085C9FFFFC0100000D9590000AD0A0000BDBF00002A21FFFFE2ABFFFF15230000A1CEFFFF0B3A0000E0FBFFFF8FD6FFFF91C3FFFF465F00003091FFFF6D9800001FAA00000E360100D2E4FFFF4611FFFF48E40000F86FFFFF28DF00008343FEFFF67B010071C7FFFFD9ECFEFF0074FFFF4EF4FFFF82B4FFFFAC3AFFFF52480000E56DFFFF961900001D45FFFF6D540100B35800004CA8FFFF9EA8FFFF2B3300003DF0FFFFFF0201008430FFFFCDB7FFFFE56B0100AF8C0000EA2DFFFFDF0001006FD10000D3E1000073A2FFFF249200002B72FFFFC44E0000B4D8FFFF730EFEFF6A820000F315020049E6FFFF3002000079060000A41CFFFF88030000E6AEFFFF196B00004273FFFFBF7EFFFFA748000079F40000F31D0000B2170100867800003ABBFEFF99E4FFFFC91C0000BD4E00007C4400001E1B0200D8A400009A8A0000C0B5FFFFA7A30000D23600003E41FEFFDAA3FFFF86C20000BE8800005350FFFF10E40000609E00006EF8FFFF3509FFFFB40B0000C765000047A9000033B9FEFF330EFFFFA4F9FFFFB535FFFFE459FEFF91660000252C00003F3401003F380000799A000036850000DA2800007B1500006AD7FFFF045900008EB30000BF1C00002D710000DF80FFFF3CF4FFFFCA0C0000F9FBFDFF593900004181FFFF14A8000045580000AAC1000065F5FFFFE877FFFFD983FFFF718800001962000055580000000400001240000091220000AB430100396C00002876FFFF41E3FFFFB9D4FFFF0AA2FFFFB36500005F68010030BAFFFF73DDFFFF78CFFFFFB92B00007BC5FFFF48D5FFFFE4CEFFFF7215FFFF8AA30000DDDBFFFF4290000098670000F3C6FFFF89400000F9390000DEA6FFFFCE36FFFF65350000770401000104000013FE00007182FFFF1CCB0000771F00007E140000E206FFFF4AECFEFFB188FFFF30ACFFFF909EFFFF14380000F1F6FFFF1E94FFFF77ECFFFF93ACFFFFCC6C00003D61FFFF72DBFFFF798B0000DDCFFFFF9CA90000C0B40000723F0000549400003BFCFFFF633E0100BBE80000AFA600001BD5FFFF41270000F0D3FEFFBF81FFFF3828FFFF62C7000099A0000056560000FFD0FFFF52E5FFFFB333000024360000203B0000C592FEFF2D6E0000A7580000EA8E00009861000050AE0100B0BB0000B0AF0000399B0100009800007D8FFFFFEF5D00002A2A00004E12FFFF62B40000393700001D930000BCBDFEFFDB5D000065910000EE98FFFF1F1501002F1C000032E5FFFFC07DFFFF6C6B00002E680000D82A0000C0F8FFFFCC61FFFF1DDC0000E8B5FFFF6B05000065A900005A55FFFFB036000039D0FFFF579AFFFF11B4FFFF94FBFFFF448AFFFF9FD800006D470000891B0000CAC1FFFF0F890100301700004C340000E0AB0000E3C70000F456FEFF5D0601000BBEFEFF56160000A481FFFF06DDFFFFD0E4FFFF28650000BB090000ECE700006A9A000091630000284A0000C3AF0000C1180000425D00003294FFFFBDFB0000F0A6FFFFC6240000338BFFFFB7440000F944FFFF5158000030540000A52AFFFF0659000008EC0000638CFFFF69E4FEFFBD6D0100BB1A0000367DFEFF51A10000F4B9FFFFCA8100003B90FFFFB7A6FFFF5431FFFF5F610000E33500000D53000061CD000077F0FFFF839600007E5E0000489FFFFFBE760000B51AFFFF7B560000EF97FFFF0FF2FFFF4C01000096870000A2900000A951FFFF8439FFFF7264FFFFE41DFFFF26B9FFFFBCEEFEFF77BCFEFF254100007D320100E970FEFF63C1000098B5FFFF11580000E111000042A6FFFFAA7800007CE4FFFF4094000035BE0000EA12FFFFA3940000BF0B00001876FFFF2D690000775900001A9900007299FFFFADF500005E70000034A5000067ACFFFF66980000E759010000770100232B01008AE1FEFFDFD20000EDA300000E860000DFCFFEFF035CFEFFFA7BFFFFB983FFFFD9D50000009D000032E1FFFF3AE9FEFF76BC0000A5CE000086950000B3F50000745AFFFFB91BFFFF439EFFFF2612FFFF79EDFEFF05D2FFFF1B9100007A700000CB18000053690100114E000044700000D4AAFFFFF1920000BF30000066060100437000005B9300001AEEFFFF6FD90000D0AFFFFF2A9F0000888A00009C430000234D00007D56FFFFCEF4FEFF7CEAFFFF9D9C000037920000D5290000D984FEFFCBC00000622D0000754300000ABAFFFFB776FFFFB63CFFFFAD860000109CFFFF17B10000942D01004ECDFFFF70520000645D0000FADCFFFFD437000000070000016DFFFFDBA5FFFF42280000518300005B66FFFF3017FFFF70D3FEFFF12EFEFFE931FFFF19ECFFFFA194FFFF26170000517200005EDEFEFF811AFFFFDECB00001397FFFFA24C000008B7FFFFC1DD000081ECFFFFDA4AFFFF588F0000CCBA000057360000A082000003C2FEFFBD190000B96AFFFF9EADFFFF2A680000E021FFFFF52CFFFFA3C80000FE1CFEFF9AF2FFFF85E9FEFFDCC000007E4A0000C3BFFFFF11160100FD59000029D8FEFFBAEEFFFF6E6100002823000029D8FFFF0CEAFFFF01AC00003AF40000E761000076A10000EC530000CB85FFFFC1B6FFFF643AFFFF67CAFEFFFF69FFFF04D300001D25FEFFADB9FEFF7FEBFFFFB73A0000DEBFFEFF65B6FFFF14EAFFFF543E0100C93EFFFFBFA0FFFF766CFFFF1FDFFFFF8D280100C2B4FFFF503101009A13FFFFC9E4FEFF456F00009952010030AB0000D358FFFF8F6C0000D2C60000D5AA000036B0FFFFD6610000F8C20000D0FAFEFFAAEA0000F39EFFFF14E2FEFF531C02007B98000029520000DC51FFFFDD59FFFFD52D000071E1FFFF35E9FFFF32B5FFFFEC590100BC85FFFF3FE4FFFFDC4A00004843FFFFBB5D0100CF0D01002BC30000A3DB010017360000B25900007114000059BFFFFF474EFFFF85E00000F44C00000FA4FFFFA694FFFF5EDB00006A4C0100BDCFFFFF93C001008AF2FEFFD6A8FFFF645A020084DF0000A8F4FFFF2B550000"> : tensor<64x64xi32>
    %4 = arith.constant 0 : i32
    %5 = linalg.quantized_matmul ins(%0, %1, %4, %4 : tensor<64x64xi8>, tensor<64x64xi8>, i32, i32) outs(%2 : tensor<64x64xi32>) -> tensor<64x64xi32>
    func.return %5, %3 : tensor<64x64xi32>, tensor<64x64xi32>
  }
}
