builtin.module {
  func.func @snax_main() -> (tensor<40x72xi32>, tensor<40x72xi32>) {
    %0 = arith.constant dense<"0xDD32C882033D85AF095BC4E3E61F7474A17DDEE8DD2CAB3A4E2DA3CB4B7D02E68CC902C230702ED250C65E2130FD336933B4EA9B98030EE6A0F1852BFC6B25F65B3DD2EFF55B3E64689B028C014B80938AA2B504F1F159C4DDF9407D648D7E9962C5A54F450C9DB70C7B50083426DB8B09A676473D9F790D3E3C239FB069B4233F8D35F092BA38CCAA9846D0BCCCE2F323DACFAC68F2256D9B88109F4534F0762F5B913586D9A5A7165AA21183645F6067F3695046CFE1440A73A7ED7E04AD29066D3444C51EB5E25474F51B06D3AAEE79EA4FB2203FD5B1F69EEBD437CC276886A2CC3E6437296006E7C78419992A0DF3AB68B63423AD45AC87C990D3E0C35AE8A77A6644C0528AA488E09B24B43D0EC4660C2D6BB3042C6106CC63BAC914263F9AFCA7601630278324C1D9049C1F1F362740FA41855894D24EADBF00D768DCD6AD260737FF94D46FDF8C6A44EB139DF9DE54E1F9572735C3251B67DC6CE6EDE8F9C4D915E95FC0BF70FA7D8EAB5CA7A4782CE8ED7A87C92D6A505DA003A64709854805436FCBCB15E0106D751078BAAA29EF4CEDCA830628D70F648E7A8EEFCD700893A16DECEF8534623133FA9F216E1EA5019AA48E31C951B058A0D9603AC650F47140DFAAE175D1950EE29078277EFAE01E32DC17823D6C4FF8F79547ABD950DA3C688BBECCC8A39607E590EBAD190D8371FA5371B18CDD03D191E73D578AE5A482226376A3BA4136EC88532CED088CB86902B8C58F0E3A9C6B2DBF0F5C5507C10A0EDD2C66E37D3511EBC8752F83EFE24826587C0DEDC8B91113C96B79D98D9A4B0DDF65781EA5952EBD7E3649A9BE90BBB4965B88485B723A9F2BD6B720441648F9E8E7376A4354F2926AF0BFF791FB1B478A8921D363506346FB49C369C06A9FFD8975EE345CC90BBF540FAB1C41731A0FDE4B3FD66D3F14E9C7F7686C9CBFD0BDC20E1FA2F8AB4E2C44F0E5507816C2EB296F71082585F7AA3DAAFDA59F62793A1196D67C8F32FF2154BC97D382F2C0098DB8D78E1749325AD9D76A2C7C76CCE483D71834357B40F7AFE8FF1ED3958C18E2312F9C754B94AC9AEF1ADECA077DDB123A63C00955A40A2E24AECAB966F1A3160D6DFBABBA345C7D92F5D0452E5503261FC08132FBF62053B61491FC629CB3EC7AF228C2661651F9ED1B9D2432B24BA783C4BF1204A3A4F0679A1953458D619E927726E5813ACD0EE4DCB1AC4975C936297A35689C0A8DB08519EB79730DC40E3F12B55B3E19E084E294248C121FAC65CD37D1797C2C7210826542AF5B8E6E47FDB19605D510689500233EF0A89EF9B3F40234877702BDB900CF1FB4A5BC89E3A1E8DBDC098B15671A87F6A8A69336C1EF1A0CBCF16B6D1C1D5A93699E35BDBFC501915FC8000F0515DB2DD26A78E308F1AA87AEF4C1204F8AAE3056931B1295EB34CC243C8BC28610A7D4F30D4F56581EBC69685651CEA6260EFD1AF0F66716B1D95BE8379C1979903F446031A83089D5DE794E7427214A08EDE13E8EDC5BEDECE05D1F93B74EFD70A694673DD039EA689ABD8FD86F32F779516B978BB03362B126757B93FAE86B0887F2134BE69A9FC2D3FEFE093D1CCF32D314B9B9E90446A9FB510178F25FD3F28A5BE61F71CC4D32CFAE88F6EF3D154A9A0FC664F4FB497CD358793D2AA5B35651D00F2BA9799BEECFBB9D2AA223AD43406617EAA7F340E5C1C82332189BDE31DE04ED9686865DB3E1EA316F8778FDCAC3A6BAF755FD2BB7D4D193DDEB8E8031CEE97BBF5156D10FF49BBC716803F665F8905D0779C1392EFF8B5EA1CB7EA8ED7754D2CABD7E130FB4099FCDB0656F2DBA6D44D335E59B16237B23F7BB646E2F53DB2B590D90B6998623C0183A6CF1D85F7CB70438D6E48BF214A636317959608E1F545B5548F3A3FB3A664136DF0296CED4AB753B2D55E5D9F7ABF32D74C8676EEEC92B094310FFE243C425225BBBE67139F33110CB0D1C42EEAB9F3236B87D7E0CB7CDA1684BC300B5B41C6F28019075CE713BE2B4E09EA9B7E509132D12659B3F7B71E384DCAEDEB2782D65D1ED9D8B6D3873101AC5A2CC999F8FF012DD879B42EA4CA5F590BE34F9153D57B441074DEFC1181A8F336C677A6FA3BDC050A13022F0724C788327504DDA20ADDAB33113B82CB6E49CF8B7A62A560C32AC74C5C9C6607B647B7D50F31DA12824BFD28E62E2BC60AEE7F71775CC1527A0EBD6F2AF1AD790103ADEEC2FA1A16596ACB1B59CC2B15A9C6141F84BDABDEF9154B3DD8D62519D4DDEC624A9C3188C31C71C739DB5F2C308E6517DE425FDBDE724D8688C630A73F0658413FE6802D5C4AB604846AE3AF3A626E4916ABAB9EA027AC8A768ACA75AEBDEE9BCD5EDCF4F3C400E07E48B988C86BAF3493274D4214E2C6285DA8165C7490D0B5300FD7C4F4E821C9DEFED9CF85ABEA3C702F4AF6CA75D5E53783909ED6EF3CCA3DE93C95B0DC7C456AF91F1BAA5B84BAC2F04072E8D7DDA64E72A0119901409FBC9C485F038D61BA3906B7C2798D6DE0C939C7A49B401BA34E6774F29C33594A21415E28382E1578ED909E945529F4BADED62152B9D8FE277583D672EDB888A8D88778EEC323ED12B2B188D57E03F3DD999CE4C6ADEC37CB9BE0C06D81C617EB45446AAAA6798AEA938DE3454C9FED292A8B59A32BDA56C71C3F4A5132F817A35BF40E98E15ACFBF587CEF390F0E071D711D7377A87221063F3ACBDE0ECA75C7240C151379FC712BCCCE3EFBFCC8798A2CE4137081C83E6C5739DB401D7EBED6CEA90F45F43F81A2931FB852BAF69297529E5DF6AAF2071785C3AB5501DB777032C218CCB29F8881372087D5516EE5D7CC2A3F19847BF860CC73E05E0B013CA49A6D617425C7EBC11B548F022C7F3F70A00B6428AF25A57415563749D1F942D9D93B64E159ACC366DA9899B0DD41615B7BBC66AC6C20DA656CEB7389BB2DF820D254BBB5EB8DF51CAC162DE8C2A3A7D795B01E668946377AEA95F86AA076EB36C3FC4D425D70FD9E6C22A2ED716A6802F1316BA5C823D053F1CFCA7898CB79F85BE4344E63E992C80EBBB91638ABAA90CF539D4F4BB585D2C7EE96E5F2B78BA7B828442787A1F7CB03E7158083E090401EF63FA4584B555F01454EE46F869423BA2E607BCF49876AE89B70EAA2A6C7BA11B1573F9497A8E4ACE"> : tensor<40x56xi8>
    %1 = arith.constant dense<"0xD1CFEF78C02ACEA6B99912F6E5E24529831883DEF3AD8B1FEEF634192ACCF9C3DF686D7E03942F9A7506DC1332F1929FCF3A4D6CAD8FF1B41DF451FB8AE2827DDFD3280E82CCECB8B693EB4C2F18343798907EB89DE57AC002A0A1B403B6D819116631E6DE99A1CC169BB96CEFBD9413B6343BA819845C90B0B9B3356EAD44FCDE10CFF2F2EF1B06BED0D6E2CB9845EF3B2D0F71490C7A174AFF45395DD723D8B34CB048665344628EA8DECB05E9EE4DD2CB547CA021389B3EBA5AE7CB6CD41C75442EFEA22A49C8F7083CFE9E774569F21315E6F9CA22114F6D5EAE22D650B467B1E8EF5EBE5B2C15AC18D43F109D663BFD95FA98B3177EC321F68B757E211A48B6383737220FF71A30D20B9D391D22608CC42A17D4AF9096103184FB465F28F998E6335B0768089A025D33734AD8A6FBEDCBA062E97246EDE633D1D5A3105663269255BFA432EE5C86E757225E0579C7EE9A8E98CD3C23805E99CB508EA502152E78B7C9AE0F0CD4D24C60AF74A59E2CA55897866A0EBC2EC9B517CCAD93E1714ACC06FB0BE9B4AA7A6C599A49F4E1021F1327BD29AA6F459F876F1CD2E3F5A3651862DDA785CBA44884A3CC18CE962189229E7D1E7674A7B62165F2BDB9EEAC9A1938FF8C005BC40A8F3B4D792A1CAF4D8E0B8834FEFEED990C1208E7C7ECA4297D25AC44608D40253A1985F944E2157949B39D688A8FF20C9B1D8BE0D068D1300240588DC73998B9B45624BB2E751FFBDCF3F9E655FB7B49B679F7A375CCD8AFCD1B312FC0149C14D789F6791E58943FEB3999A064D7459EDF48D87162F4DDD92FC9EDAB9AC2AF7AC380E07C9B63F5FD51E767DE7B5FA4810F6CEA8FD861A9CE1E8BA3D1196AE7FE66288DC675ACCF02546D3CB6BF72CB6238FD98DF0E3818AEC88B39FB23EE754CFB0F0E948B72D8506615A4F33FFFFD01D6B44ED6A569E1A65AF0297467FA1A6BC99C91A1DF56A12CF17D8A5D6D2B4F10101D102777FA1354A5CB217E37E55A97A8CC8246EE19B00C823441FE709245ACBDF46C288EDE9D44374829A637FE1F6200D1B2437DD704AED1DA7A047115DA07C43F2E82A7CE0038F1BDA1EF0648E26278BB524C1932C631522152AEF2B4C9EF7917D0CF5B6FCE1C33A13A82D54ED1AA5B0226DDB90DFBC3CC191BFA77B02A353B98DF400035AAEF1C1651AE0BA6C326F2730983B5673D3BF0A23891F6C1713392ABE8EC63DA3895D6DF43FA4B931582544F9E38E35583219A5C03CFA09B8D640C47146BF6AD9DFF74B8D9591F03C60A2EC32CC7958CB4E13E47020E94E2AE6140993E4C25AE2AF0690D6E9B8F43570EF461E7823CAED5B70D8A6AAB91B41C3F557B8A4863D0ED553A4AB89A8FF11B560EFED6E311DBA130947EF0A185271118004B1F6C5A51E1021F311C1791D823687C08570174D8B72F1FB13CDB86484EAE771D2DAF0E0B9C40D869074EEF2B1F4A65DBE2A49FA9DC4068F0E4019831B591C36489624548494C1E658A37DFB67D4032853DCEF8B859F6EF0236425A7C65AE8D0715527131D26CAABD1F8F7254147ED318BC6D178497122C22AAEBC706122DC7A4B6791AC0256EE1F1643D8A0DBAEE9EE4BFD3AF076E072B4E85A35309E79A348AC17EDFABCEE0C82F1F95D27A6CC9A68C2DABAD1E270515EBED7E9838A45F6F1B2D24892967AFB6C3502BB6D7CCCAA5FEA506623072591F30727CDAE8D2AE98DF84B9B031D284526BEEEC067571B17C4E4E4E8BDFE5F8F09867D54BE7F3351F5C18B9A6F5C2E284DC4F53A6095CB54FA55EB6F4BF9427C77B70DAC2741CD9B34C4A9A76D5F3A63411C4701941E95ADD8DFB02E2DFC6F3F58911A0FD48DAF3336CDC82B38F4743F6CF3BFE15CCBC412589B221FBFF6BC6DCCCE9BB88DECE0CDC09484C95E219CC4A1A83664D58B80A800A26CA6DDAE8BEAF42D33E3F7757BFE713CB82DDDC50F06A573514A0DC353338E9B80FC5A22618768A4B08B07B76406057A3766DE467DD178EBDAF212DC2CFDAF2A395C2099B184BF75BB62A3FE149F1489CBDC6C18586E092C96B1F557DEA3F338E8AAA0B19D9562AEF9E6189D6A2168EAA5DAE27372830EDDA23087A58B84F8822A53C7CFBCE2BB96571FC177ACBF24FC64F3B9A15B21CF1DD36154B1AEA833B46A75063B8EC2FEFCD229069C808822214A1E7B41B3E96D8DBE8A02F73630844E7D84FE5D43165B8A21322EA77ACD914BD51C54B82141D7A0006D1FBEF87904C56F7A4BA584A4D8330933C864064501ED8F3E934B617F82202A1D6502955980CBEFE171B07AD9B7CC7CF3182A718513ED128BF729AC28313108506A0277B0371E63D5E334398D9ECEE9BDA2976C228C0EE796E4CA4FA9C3539804A26804468B658B4DB4429FEF2FEE3F46B66990542B6B205D227E034B4508283A92405FC3D4ECD0CF60D4131E4BF3AE0C84AD8FEEC6E3A3FFB7E80D0C51265AF3044EA517D20A84E40A2688A04256ADF17297AB58BE83647B79E0D5F2A6E5646C36C40BB3A2D4F22FEF1CC379F1445E5F1B4145291B85B63AEFCAF219840E4616E87F82813BD445C19AD6C3F15E36C459D464F9B6626C824F0ECE5862AF7FD524E81DA620254DB81279B4D25742AA7E7ABCBE510C189AED8B628D9ECDC3DFF7E6FAB65DA304BB3A2195584E55EDF44941C435A120DCBED21A3535506C2F9AD5CAC513284284F257636A01041E8A18A24881ABABF3E0FB413F5ED148372EC24890AE745573C82356C38E3A1AC0EE3870990C5548CD68D1720691B1EABCC9FC02FDC12EBAE7803E87C5B6B814264E3653471D142041A23445D9306E7862B0BAC6964DC944B0225B0909301F5EAC7B7F66693592E46AE71B7C4517D0BAE66529EDD90F73AAE9D54E4F37B470E12B7DD5176CEF17572ECDF619AF8FF1A495BF2E7855AAB475071F63CE0A940E93CA54A91FB897ED9983F37D007CAA88457D6A6F64DE5804ACC79352F46BB2BF20F931F3B6B0F820BB44F006853FB2C93E3188C057A9A08119FA084B7085FC9A5D7EFDF4D5DE70C4CB79C8C8013049FF2576152484EAC541C7838FA471CB85725AFCC8BA7C58D59E2C97DD07E822BB647F238E215F786DBB494D28D9C486482658A3283A5BEB84EDCDEB9349EAD6F30B5A2B568C22323D7A1DE8822CF02FE2C1529EB2C791C42607BEBB958906E1D73DB06C915DA3F75378F088013151CCECB557917BC862BF9770E1326E78389B765F7EAB60B1B47AB5DAF07943900E051FD98288A156E1D27445C39BAFEED5A3080F05F6CF6454E9D0A2ED7FDAC331CB168E92FF2B185AC105D28B783A047D91B9C9FC53705D8076F4DDEAC74B775A0F537FBDA07F63381E51A412D1DAE2BC77981FC57E36C853C4EA10B97AB0AAD76DC9C1B51BAEC7630E8C0A14F228A98FE04EFCA3BD3357263B5424BD3E8992E1D86E6D8E6E252F1B91C5CA6D9C65E65588C8D816FBC0757DAEFDF3EDB8597F785DB1CC9DC0739154A6A7A2F72B27EFC12CBBA6C414629FD64A1EBD48D81A797F54BB14A1DB0A3F9C3C267F4D5CB470454CC15F87D9D420F04D59D5E6B1335BE4901901DC7D8541054F0C1F752FB2FD5102739FC6BE4B8BA2FE8D10AF5D9F6159957AB1D3FE8899221D85F40829B8A77B05B207ACF8C67FB2968434FBBD447D2C0E5383D7B11E87D0F553F21E56C729750E0F8F185A207225F5EC6C26310EEB3D2FA1015FA1D1675C9F7918A4C5E8C0DCE2879295ADE284ECCF3CAB24CFCB281612053AA4B5B819E1007A89BE2B046FF4524239051D1ADE63C2D2B80AAB6CA31D682714E186B38FC8587ACA8DBB0FE4E7A8D274C4B66E702425E3D09A1DD7B764E4F88FF7038057A5BBFB887AC0A2962F0DFBFBDA92C1805F44841837ACDB9DC0336FA270F2EE02C53BD2F71D3883AD7A07B2BB2A7C24DE7543C8A65C3F18C8DF5B81C93D69B70C6DE3250B4A075CD47EE8043A16F896EBFA8156228CB50BFBACA23BB3C3034548D47659163F9EC93FDF4D090498C1FB3380B6EF6CE7895813756602310F4189BE25EBB96674CA2EAD714478BF448E9298643E32FC65D5D9CEBBC02184FD4AC9607E91703F7D0F6684FC76E0C17FBA9D3323B80A76AF7D2C90733A1B6FBD849C121F91BA3B5CB4822211E1C090B8EC16545123FA3369B52091BB80BC5FC55332311B83FF2F2F25E377455106BB10F3782CDFE2650C0D3908AD3B8523A1A50B11399CCDBAC764E3A2B3201E74F726E1CCF2066D7B8FE5C05BF43263E457EDD5657B68567F5936097F0AD8A539AFD4DBDD9DC24DD0E12B5563416E39327C18491B236328B475A6DFD565B8BC2ECF5CA32DAB3D29EB8086FA1760AB982053FA7FA28FF1B2F20430948A9E58A2A5CAB8FBC2CB1F164E6B30BA854F26CEC66CF3EFC7D5EF3487ACC6ACA2B108B082556D6D20C3314DAE67C198871A380B36B2DA4DA008810665ED6B7107DE64C001C115BA91A0F5F439B125801684B45850541CB630A25320D90136F02B642DA5A6ECD261772D97EB76044EF683560027A21DEE1AA5FA573FB275DB4B6EEDBB124A28025E0AAC75834D4EDC22DF99E94269E8A10C8CE4EDF13ED112D69BD4D67EE6F84994E11748358A2F3CBCE4C7D8CDD5E72ACD28EA02DA77E75FB7954913D555A4999F9E7B8E8264BCC5F29E3608DF9DD00C3956C1E2B765AFA8CB4F3F5BC252918202624E17A3C18ADEC7519182925AC29561E00B868BBC1AD5DC7A6FB55293709044DFB7665757308F89FDFC610B406F79E30EBDC0D3AAA0A0A6D0281E2E6E1F72E846E8C211B1B46CE5ABE466848E9A71FCE41E87687FA80FE13AF9F96C5C935D48FAE7517FA37D47B12538F8B2259EF07B6E275BF01A21543E8F004BC73803B9F38BBA6E12FD06B591AA6B6B056605F325DB4D6870AA4F539455EB7301467DF3824665B007E564477D382A4772D5C79F92BA9DC375BC1F7E8BE4DE731A7413590A3D1049F75FDF33784402429F85F6F831F57FDD904A482B7FFD90EEC2D2AAFFE6567F6367151774F4291DB5B850A89DDF015A31C79B247372BDA4FEC8273DB303B180C52027A0893905FA98E446505588CB44716191C0ECFA0D10B0256DC4E1B1DFA5DEC58A30D9CD884AEC39580ADCCC3A7EE3BEC055A3473D554C91C2C3A388644546759EF7D12F642A46B297488C6C80BB55437A46A2D00091D6887B84009BB328B6263325FC73F171138259F0E9382A36E2BF24867292681017C796043855A6E7E82F6F34297E21C29D178A98A4D893440871C4339423D412F74043E5C25DAB3EB6DBA4BF140ABDC8AD522ACB0A640950BE5D777C93569CB3BEDF23484C02D84C83113B898C4B31B66445BD2E222BBDFBCF44C3C2BF31895CBAEA84E66ECEE337892F6DF7E48690921A20DC4DDA37404F0E2A0C9888A1B6F2E122A3FF0045D180B0E718BE33829C525B04A33B2041544E602E7829D109FD4B85C0F6D2FD2B627EE213235CD8E89755B1A36833629E8771409C28741DBA7D8C8938E4A1FF0AEC74219A2DA441A3EAACCE829F97AF4499F0F1C17C31D6DE67B42FE9D4297E5A3D22347163D4E9FC164744B97036761EE5C648BC3360DC80149A762294FA2D3054C428B6231F9022F656E8961C934F892D89998974708DF4F71629F01BBD58EC350F148B1BB7430B66694E2644EEC8C21BF6AC635ADDE18D87AEC0E0068EBDA03480ACFD67DC8DFFEE972C53B277DAB60254923886A1087387B9D0845E5"> : tensor<56x72xi8>
    %2 = arith.constant dense<0> : tensor<40x72xi32>
    %3 = arith.constant dense<"0x30DBFFFF1B53FFFF55B7FFFFAE320100DE4A00008A550000EC46FEFF7452000029EFFFFFD902010086FEFFFF0EA1FFFFD5CAFFFF1E2E0000D2D00000F9B2FFFFBD110000130600000B290000C56B0000595F000081B10000BE72FFFF77F0FEFFA42F000015CFFFFF7661000001070000BF060000A9B1FFFF2E25FFFFE159FFFFDECEFFFFA20300003E710000AFF6FFFF10BAFFFF578AFFFF683200007F36FFFF4F4CFFFF44EA0000AA1E00003A33000006CCFFFF5A3F0000E1E0FFFF80020000697E0000D9DAFFFF8C02FFFFE18A00000DF8FFFF85DBFFFF142C00000231000016E5FFFF93F5FFFFF286000032780000E22400008A8C0000827DFFFF983F00008B6EFFFF18FD00007F4BFFFFC09BFFFF7F95000069AD0000E4590000EFAA000080FDFFFF3C7E00009680FFFF5BF5FFFFD288FFFF46770000A79DFFFF8FED000016A0FFFF10DFFFFFFDA0FFFF2105FFFFEF3DFFFF93C7FFFF266500007BDEFFFFD3DC0000869BFFFF12E6FFFF4E3C0000DEBFFFFF224800000E1B0000AEC6FEFF0E5CFFFF502400009B8D0000D03000002853FEFFC26EFFFF08E3FFFFDB250100C8A1FFFF9A7FFFFF19BFFEFF1FDCFEFFA4EFFFFF5DE5FFFF9A94FFFF2FF90000348EFFFFD01F00003DBCFEFFF90E0000ABF5FFFF05B200002A0C010087B7FFFF8C0E01003B54000042E4FFFFF6C60000D20500002B9701009F7AFFFFF28C0000BBE3FFFF40EFFFFF42060000A2AD0000599EFFFFE02CFFFF7FC0FFFF80CCFEFF1C4F00002464FFFF80720000E671FEFFB68D0000A0ED0000CA56000016AFFFFF75F20000500A0100850E0000EB130000766B0000C72CFFFF634E000005FFFFFFB3E2FFFF9ECDFFFFD3E8FFFFF3B0FFFFD98F00000F70FFFFF342000067A70000339DFFFF16990000065700005BA1FFFF5FFAFFFFC16A00006F97000059C3000071D2FEFFF7280000A72500003992000083FCFFFFAE04FFFFC2540000F7B1000062B5FFFF48500000DDCDFEFFF98BFFFFEBFBFEFF6DE6FFFF4A9400002A54FFFF2B1DFFFF07C1FFFFB739FFFF626CFFFF805AFFFF59DF0000E7CEFFFFB67A0000225A0000A5980000103F01002880FEFF9653FFFF2B9C0000BF5501002D020000A11300007E34000013B5FFFFCF1CFFFFFFC8FEFF044BFFFF728A0000F66200005B4DFFFFF30600001D3401006A040000B7C5FFFF182E00008D400000907BFFFF6274FFFF9C69FEFF35DAFFFF105C0000E69000003C6001004FF3FFFFE880FFFF8A4C00005EEFFFFFFA75FFFF22ECFEFFFFF1FFFF9285000096BDFEFF6FD30000A787FFFF3B23FFFF4DF60000731F00003BFEFEFFA6E9FEFF821B00004DB7FFFF6A73FFFF1460FFFF6BBFFFFFA29100008AF00000B1AF0000C0E8FFFF8F14FFFFC7D1FFFFD37F0000F36B00000427FFFFCBA10000047E000066BBFFFF4B8000005799FFFFA56AFFFFC5BA0000F53800008B4200006F22FEFFCF3D00008BEEFFFF3A05FFFF6729FFFF14A30000A334000026520100D04CFFFFF274FFFF11F3FFFF0BF3FFFFEC9A0000A49E00008AA7000071E5FFFF68CB0000F8310000C27E00000DCCFFFFC881FFFF3BD8FFFF2DE5FFFFA682FFFFD0E0FFFFCB040000AFA4FFFF55270000076F00003660000085ACFFFFB741FFFFC0AE01009C420000BFCC00006EB3FEFF004A00006D72FFFF20B40100389AFFFF2FE1FFFFFCD3000044170000FFB7FFFF29020000BB44FFFF603E000055DC0000CF7BFFFFBCA800009B51FFFFDEF6FFFF4A580000B99AFFFF4E23FFFF25B8FEFF89DFFEFFDBDAFFFF117E010046CFFFFF2B1A0000D04BFFFFE27CFFFF6B6CFFFFE055FFFF41C0FFFF886B0100343A00004C95FFFF0680FFFF3E21FFFFA325000073FF00004F7EFFFF54FC00008A98000027DEFFFFD01C0000F267FFFF8668FFFF14C90100CEA20000EF7200009B2500008515000056FEFFFF6D900000982C0000A5BBFEFFBA9800002B3CFFFFB4110000B632FFFF681B000009440000A0E2FFFFEDDF01006B61FFFFA548FFFF0E020000B4CCFFFF2F650000683FFFFF65170000ED830000E33F0000FF1FFFFFF1770000C46EFFFF27290000B85100005E8600002060FFFF3B080100D5F20000D672FFFF144DFFFF080A00005F0700003B25FFFFE9A2FFFF6DE2FFFF7F3CFFFFCEEEFFFFC2B9FFFF7544FFFFE43701000F1F00003D06FFFF44CAFFFFBCB0FFFFEC6CFFFF67570000ADDB000067070000828B0000F1FDFFFFE493FFFF55410000E116000020390000AF2F0000FFEFFFFF9B6000008312FFFFE986FFFF88DBFFFF0BCAFEFFDBAFFFFF37B20000329700005825000072A8FFFFDA1DFFFFD975FFFF8566FFFFFB4BFFFF26530000FDBEFFFF8C37FFFFDBC9FFFF770500005D110000F570FFFF0A6B0000B9ED00003073FFFF617F00005A8CFFFF79D2000039DBFFFF7BD1FEFF8E6BFFFFC2CBFEFFEB10FFFFCCE3FFFF1611FFFF4E0501002BE8FFFFF6CF0000A38600008AC70000746AFFFFDA070100EE2DFFFF701BFEFFE610FFFF9E0A00003DF3FFFF13AA00009D960000E9E4FEFF8197FFFF24B1FFFF066D00004A8FFFFFCF21000048E9FFFF93D500007B120000F3B600009F5901008B96FFFF4E9F0000F3FAFFFFA5E2FFFF35C1000003D1000092B00000D4D5FFFF34BAFEFFCC880000E9290000590B0000853001002E84FFFF770200002A400000195EFFFF0DD9FFFF93E9FFFFD3080000383F000074FEFFFF04200000218EFFFFBF4AFFFFBE45FFFF473D00003960FFFFD9C100003B3DFFFFBFA70000BFB1FFFF93060000D0EA00003B8D0000FF0300009A74FFFFCA5A0000B119FFFF3EA50000469301001C37010000F8FFFFFDF2FFFF6A34000016750000FBE1FFFF11580100C6C5FFFF286DFFFF07140000F0E5FFFF73E0000073AF000016680000E8F6FEFF13CFFEFF1F9500002ABBFFFFE8200000302DFFFFC7C20000623FFFFF8BDEFEFF388CFFFFECA9FEFFD6B5FFFF42550000640000005001010009E900000484000052780000342E010086180100C0F4FEFF86000000C2040000C52A00002E1D0000ABF1FFFF3A8C000037E1FFFFEC42FFFF45F1FFFF0AC1FFFFFE060100220D0000A8EBFFFF13A500006B7F0000A343000053DDFEFF2863FFFF481A0000708200005F6EFFFF9789FFFF2274000085CBFFFFD6900000E6AC00003BE6FEFFA97BFFFFB00C0000F24D0000730D00008D4D0000520DFFFF8608FFFF0C40FFFFCC4CFEFF7F4F00004AEBFFFF4298000068BC0000AE3BFFFFBE0D0000A7D3FFFF74B100008ABBFFFF45F2FFFF16C400003DFD000078A6FFFF341F00009D3400000B140000E35500005CA500004C12FFFFB301000085FAFEFFBC3E0000ED2B000006E6FFFFC8CBFFFFD3F3FEFF4E53FFFF922500003F810000BA5F0000AF50FFFFA040FFFF904C00003D0D0100110200002720000077CFFFFF4FBF0000BE0D00007B78FEFFD4B40000BF38000063BCFFFF4B0C000079E4FFFF05FEFEFF44D2000066B10100744900000033000010EEFFFF6B22000038E2FFFFCFA90000E2D9FFFFA198FEFFEEB5FFFF3789FFFF8BA9FFFFA6B8FEFF47A2FFFFEC0E000042F9FEFF052900009061FFFF33460000592EFFFF25B1FFFF57B4FEFF763CFFFF8032FFFF9514000019DD00004A4601005BE50000A00F0000EDFDFEFFCEE5FFFFF7BBFFFFA841FFFFC0EFFEFF9DD0FFFF1B6DFFFF9A09000031110000C8F0FFFF990700002524000037B8FFFFE588FFFF5AC40000856FFFFFA7A600006AF8FFFF2BACFFFFEE1101003D600000B01100005D29010076A4FFFF250A00005B2C01001C2B0000B738FFFF21000000FA5D00007E0600003E9CFFFF60000100E7B1000002E2FFFFFA1E0000EE56FFFF626AFFFF6FADFFFF5D9AFFFFA61F00009025FFFF61B90000E745000006860000435C000079980000A2780000811E0000BDD7FFFF9D99000016F60000FE110000DE8500009ED5FFFF8BBD000016C9FFFFE1EA0000E3BAFFFF818800001C87FFFF343C0000EDEEFFFF4D68FFFF2582000006F9FFFF1AF8FFFF159FFFFFECA100009D5B01000998FFFFE4DFFFFFC3CAFEFFE35F0000335A000039B300006ED6000039F8FFFF49C0FFFFBAC8FFFFE0D60000A089FFFFE981FFFF7895000068B7FFFF454D0000E7FDFEFF98CC0000DC7A0000242A00008973FFFF98050000AECDFFFF451E000018B9000010EFFFFF4F810000A86EFFFF66E3FFFFA0A9FFFFBC4301009322FFFF3BC6FFFFC3F6FFFFFAAB000065D6FEFF6C6D01000A0700004C540100BA5A0000894DFFFFFDC3FFFF1A9DFFFF1B3800001E150000FD370000B5110100A66FFFFF1BA9FFFF87A6FEFFD76A00004FE5FEFFCD1600008D5A0000C436FFFFE84300005B4D00009CFFFFFF2FA60000331F0000DA63FFFF8548FFFFEB7900001CAC000071960000A08000005A85FFFF64830000BBBB00005ACDFFFF65AD000098F9FEFF9B38FFFF87F3FFFF97A8FFFFC599FFFF5D2F0000A4E1FEFFCC8BFFFFCC8B0000B9EDFFFF9DF10000B9300000DC9BFFFF278AFFFF630F0000A1A4FFFF9B9D0000315E0000A545FFFFD7460000BA82FFFF8DC7FEFF589FFEFF2A8FFFFF388D0000F611000033DCFEFF3C1100007192000064B10000928FFFFF9096FFFFB8CBFFFF78EFFEFF1A1201001EE800009F9BFFFF4AEB0000043200000F280000E6E3000048300000B5420100A5D9FEFFFDE100009A8FFEFF7F92FFFF1FEFFFFFFE1CFFFFCAC9FEFF7D2EFFFF5F4B0100B5C60000C7F4FEFFE48600003071FFFFAF2C000055FCFFFFA6D4000093340000BFF1FFFF104A000057C000000A48000083C9FEFF62A0FFFFFC06FFFFA69BFFFF0741FFFF1289FFFF201EFFFF3B2BFFFFEC5D0000ADBFFFFF438AFFFFD712010031850000363A0000863E00003D520000B9DDFFFF2996000079F2FFFF88D6FFFF82E8FFFF9F60FFFF165AFFFF353B00003B9AFFFF1B90FFFF62EC00004CB90000DB2700006E53FFFF383BFFFF15DFFEFF0034FFFFDA3F0000991E0000A10E00002C6DFFFF27ECFFFF874C0000D2330000514C0000631500005F370000B47AFFFFBDF20000F2A0FFFF39B8FFFF4216FFFF1A5BFFFF464300003ADEFEFF599E0000AD7300001D4500000094FFFF64F1FFFF6B490000591D0000F8C50000D9550000647A000007D100006EEBFFFFAB51FFFF5C070000D82000002FEBFFFF1A3F0100D7ACFFFF8D220100D5C0FFFF62580100F33100008EEDFFFF9B51000093AF0000E1DA0000716300009246000065C500003B120000BA2A0000EF38FFFF09E9FFFF034DFFFF6D62FFFF0464FFFF86FAFFFF0EF3FFFF27B20000ACAFFFFF1FBC0000B0520100E8F8FFFF8EB30000E86DFFFF73E4FFFF570901002CBCFFFF8FA6FFFF01C9000026DFFFFF67DCFFFFBEEE0000AE2600002E74FFFF6C7FFFFFB9A9FFFF2C3FFFFF157F0000C72D0000E7FB000045BF0000213AFFFF1F6FFFFF7A78FFFF07A9FFFF256EFFFFF5B6FFFF26D3FFFF942B0000F2FBFFFFDD62FFFFC4830000620700004B6700007339000052EAFFFFB0760000E59C0000A731FFFF27DCFFFFE6C5FFFF376B01001882000098CD000073BAFFFF515D0000BD2EFFFF2F280000D7E9FFFF36A2FFFF8DD0000087E4FEFF82780000EF81FFFF5E09FFFF7842FFFF00820000982300005214000033890000846500002C9EFFFF3C1D000058680000924BFFFF335D0000A74AFFFFD492FFFFB2A70000BAC2FFFFA072FFFF5E8E0000A5E60000D098FFFFB1FDFFFFD91A000006BBFFFF671F000045430000DF6D0100D84DFFFFA39900001B7CFFFFAB14FFFFD1A7FFFFD61F00000ED2FFFFA3FFFFFFB25EFFFF7FD6FFFF5CA4FFFFD83B000021DAFFFFCAECFFFFBB2B0000DB1E0000D5B2FEFF29470000CFC90000B5E2FEFF7C99FFFF012B000021E6000007E1FEFFA9B10000D266FFFF7A82FEFF8E62FFFFE9C4FFFF55280000C8BAFFFF2EEDFFFFBBBAFFFF40FA00006CFDFFFF6C8600009581FFFF92DFFFFF743201003F4F01009E10FFFF18BF0000D56B0000EFADFFFF2F670000293C00004E0E00000FE1FFFFAFFF00005DC2FFFF590100006C54FFFFC64101007A56FFFFC9B7FEFF4932FFFFC885FFFF5FA10000D9AAFFFF9AFDFFFFB9FEFFFF912400001A51FFFF472AFFFF95ACFFFFA0E5000025380000CE7F000084F9FFFF3CC00000106500006675FFFFEAB6FFFF23B1FFFF2D7BFFFF4D260000A534FFFFD458010069480000D8EB00009AC1000083CA0100FB9AFFFFA6440000FCEFFFFF4247FFFF674700007870FEFF31F3FEFF8A210100CACDFFFFC3930000DB3A0000442C0000D3060000E4EBFEFFAB42FFFF3370FFFFEF3101000CCEFFFF8BCBFFFF9770FFFF83D6FFFFA5140000A0D5FFFF69EAFFFF345600005E02FFFF27C8FFFFFDFB00005D1E0000DB9AFFFF31F0FFFFA6D50000D0B6000007AB00008B32000041D5FFFF79B6FFFF56EEFFFF958400003F71FFFF6B91FDFFBDFAFFFFE85D0000A04E0000F90AFFFF3BC600005197FFFF79E8FFFF28D4FFFFD567FFFFEA9F0000C295FFFFDEB1FFFF3E81FFFFBC53FFFF7C6FFFFF0190FFFF3C3F0100B161FFFFEA11000006E0FFFF64B7FFFF0C8AFFFFC54DFFFF1755FFFF338BFEFFF814FFFFBBBF0000300F000003AC000003C8FFFFE31A0000CE9700009F46FFFF80FCFFFF622B000041B90000A78CFFFF435BFFFFE055000073630000E4C6FFFFD84CFFFFB7A200007C6700009B1FFFFF85810000D088FFFF3D01FFFF38200000E7970000701A0000E8B10000EF16000054170000E3650100666AFFFFEC3E0100DF5CFFFF40A1FFFF6357FFFFE09800009FE7FEFF4F14000063060000615EFFFF9DF8FFFF69B9FFFF5297FFFFAF1300009B1C0000BA680000452F0000983B000024EDFFFF500AFFFF02B0FEFF8079FFFFECCFFFFF01F20000632A0000065BFFFF376E0000DE040000B324000061830000CF7EFFFF17250000B056FFFFA58CFFFF0289FFFF16FFFFFFBF460000ECECFFFF2FF9FEFFE996FFFFB9D5FFFF8A8CFEFF4E9AFFFFFDB5000051F500002B2900002468FFFF291C0000E6C1FFFFCB390100F45AFFFF3F8BFFFFBF9A00004F190100B6A0FFFF042501003972FFFF2423FFFFB5DD0000BC9700003D810000631BFFFFC133FFFF408DFFFFF71400009AC2FFFFC6CEFFFFCF9AFFFFF5450000A3160000510400000BC10000B95EFEFF5EB4FFFFEB3DFFFF44E3FFFF6798FFFF3DFA0000CFAEFFFFE07B000010C1FFFF136300007A6C0000DB6200001B070000DFD3FFFF7D890000420DFFFF107AFFFF12FD000048AAFEFF6922FFFF4F88FEFF894FFFFFBF8C0000C6C0FFFF7A7DFFFFD2330000259D00007F470000ADE3000071B8FFFF9E3DFFFF9F9A0000887EFFFFF96C00007CB800003681FFFF0BA50000C78EFFFF4BC2FFFF9E2AFFFF10A4FFFFC1C1FFFF9E5700005FFAFFFFADD70000BE72FFFF254100008885000030540000490200008D0C010083630000247AFFFFE9A6000076CE0000CDB0FEFF9BCFFFFF0728000092830000045FFFFF064E00001256FFFFE3E0FFFFF4BAFFFFB5750100BA240000697CFFFFD508FFFF2E71000066B5FEFF371F000056CCFFFF4DA200001A6CFFFF7B44FFFFB93400009B31FFFFEA7E00002E6E0000D80E0100BEF90000E34A00007B3EFFFFBBE5FEFFFD9CFFFF56B50000DB4DFFFFF4AEFFFFEA6800007A0A00002E970000B89200000315010030350000FC7F0000DE0700000B7DFFFF55C6FFFF23CA0000FC12FFFF72D200000509FFFF4BD6FEFF171A0000F2030100929F0000E3AAFFFFFC47FFFFD458FFFF29A4FFFF0CFFFFFF784500001847FFFF76D4FFFF3046FFFFCD23FFFF8055000086E9FFFF9AA0FFFF0532000041C6FFFF21EAFFFFE8D5FFFF12BDFFFFEF26FFFF18B6000048C9FFFF7366FEFF3FE400009496FEFF04EDFFFFCBE3FFFFDCFBFFFF11070000C997FFFFCA9D0000455700009D4D00002DDA0000BE90FFFF112A000098CDFFFF8D180000F506FFFF6C13000035D4FFFFA1080000079DFFFFF03D0000361300002CE2FEFF494800008E9100001DF0FFFF29A7FFFF6359FFFF5D9F0100C324FFFF11D1FEFFC74AFFFF39EFFFFFF1D9FFFFEEF7FEFFECA60000159E00009A660000148D00004CD3FFFF44F3FFFF45FE0000DFC300003F890000449A0000E32E000054E1FFFFF7EFFFFF8ABAFFFF57120100C8B3FFFF3680FFFF7D1FFFFF49F6FFFFEB240000D86F0100C43B00007A2A0000431601006DE8FEFFB553FFFFDE5E000035FFFFFFB61600002CF9FFFFF1B5FFFF0860FFFFC58BFFFFFD6D000044E1FFFF2A950000C15F0000B8FBFFFF4A430000821F000065F5FFFFC8C50000F5D7FFFF7A09000092360000393A00004E12FFFF369E0000519CFFFFC83C0000C9FA00006F5F00000CEBFFFF85EBFEFF65B5000038D5000051ACFFFF4ADA00001D27FFFF448D00006E9500002F9A0000634DFFFFDE8EFFFF40B0FFFF255FFFFF787A00003FF8FFFF1D21000026F3FFFF7282FFFFE240FFFF6FD4FFFFB7F5FFFF355CFFFF885A0000CD2500004086000035ADFFFFE493FFFF59C0FFFF3508000011E20000E8DEFEFFF12B000002F300001DBCFFFFE349FFFF9BD4FFFF37D5FFFF7CD4FFFF50C600000684FFFF73FEFFFF157C0000FA640000E1C0FFFFBF0E000047D3FFFFDD53FFFFF6060100D33E0000AF09000026FBFEFF2B79FFFFEB46FFFF432C0000C53B00005A0DFFFF72C7FFFFEBDDFFFF0F5A0000CDCBFFFF2A2C00000F18000088700100E6CDFFFFC738FFFFE0E7FEFF8434000015B1FFFFB2900000C7C4FFFF37CFFFFFCED30000A51B00009571FFFF92BB000015AE0000B8F1FFFF9B5C00005980FFFFF088000098E600007546FFFFD278000058D1FEFF374200007508000092C7FFFFAD640000848CFFFFDB84FFFF0A47FFFFBAEDFFFFE8F100009D40FFFF52A8FEFF035900007FD9FFFFA82700000CE500009F6000008B68FFFF8AA7FFFF7C930000423200000BF800001AB9FFFFEAE6FFFFE76200001E380000B5CBFFFFC863FFFFF3E000008DD2FFFF821C000033DC0000A0E7FFFF20B9FFFFDCE5FEFF56EEFFFF668200007593FFFFEA1F0000A3E300001971FFFFFFF6FFFFCA6DFEFF06DB0000E2480000F4BDFFFF6BD1FFFF1C9800008C3BFFFF422900001E6300006344FFFF34C2FFFF723C0100759600008E2100004D5AFFFF42C4FFFF931400008C210000CD25FFFF2F51FFFF4182FFFFF6FEFFFFDD9AFFFFBCFEFFFFF5A8FFFFA81C00007C6FFFFF30E7FFFFB14100004DCCFFFFE7300000592F00006B4400000EDEFFFF7EB5FFFF7FDFFFFF5F4600001B34FFFF8C97FFFF4D130000CCAEFEFFA6F800008D4B0000FCAE0000FF1F0000E65D0000E9C20000756400002159FFFF47DFFFFF520C0000509BFEFFF8AD0000929BFFFF70E6FFFFA694FFFFBA32FFFF250C0000E527FFFF565D000077C6FFFFC46BFFFFE505FFFFBC0C0000A59C000034080000115D000012180000A49A0000F46F0000488E0000EA57FFFFAF440000F36E0000AD1C000075BEFFFFB87CFFFFDE4E000074310000D54A0000096500006AD6FEFF4DFB00001B8400000508000056E80000FDD2FFFF0BC001008CECFFFFC85300002F53FFFFAA29FFFF07F7FFFF930800001B34000074BFFFFF8C320000BAB0FFFFA7ABFFFF2C46000070F7FFFFE5180000444DFFFF92DAFFFF7546FFFFE57FFFFFB0D2FFFF36EDFFFFA40E0100A7C1FFFF72CEFFFFC587FFFFBBA300009169FFFF2A4BFFFFDB2E0000EA97000035200000BEDAFFFF88A400007168000057150000C5CAFFFF0C1F00009CE6FFFF4325000084F5FFFF0B14FFFF6DA2FFFFE5AC000011C8FFFFAEFDFFFF88BAFFFF67090000F2E0FFFFA8E9FFFF363EFFFFDF86FFFFD421FFFF83C600006B82000072B4000054CEFFFF7CD9FFFFB55400006C6DFFFFBB77FFFF87830000534900004763000055CCFFFF54790000627EFFFFF7B7FFFF9A2E0000D4450000BACDFFFF30F8FFFF0F33000092B7FFFF68510000C270FFFF8FD5FFFFB3AC0000D3360100093EFFFFADD1FFFF47BEFFFF1B2200000086000075FDFFFFA7C3FFFF0E4E00004E4AFFFF90EEFFFFD353FFFFE0EBFFFF7AC8FFFF1D040000D91F0100F7270000412E0000975BFFFF21D9FEFF4526FEFF40140000028C0000C1D60000684B0000C1F4FFFFD152000076C4FFFF636C01004CEAFFFFA7B8FEFFBEAFFEFF9FAFFFFF364D0000CB5FFFFF5B3101006C4900000C4400001336FFFFAEE4FFFF16C0FEFF1F88FFFF56D5000015C1000002CF000090D9FFFF5D45000035590000545301006DA3FFFF0CA900000F97FFFFE784000048C1FFFF60B40000E3B60000CC7200004B220100BDE8FFFF9D19000048F1FEFF786B00004678FFFF6122FFFF5B85FFFF2B63FFFF7B4A0000016E000051EDFEFF8E86FEFFB7F20000B8500000C4050000438FFFFF54410000A5F1FFFF351F00002FA6FFFF93B9FFFF015E00005B50FFFF7B430000072B0000CA33010006DEFFFFDDE6FFFFB4620000BCE1FEFF5F82000035CCFFFF8D95FFFF134800007F6EFFFF2B2B0000AD820000F2700000C31D000032F400003BC8FEFFB33AFFFF97DBFFFF9914000056FBFFFF92990000B88BFFFF9EA800008AE5FFFF7E98FFFFF29CFFFF324200004E190100E9D000004F290000A4FBFFFFC068FFFFC1E10000C439FFFF96FEFFFF1596000079010000D8C4FFFF3C180000EBA2FFFFF2B3FFFF937F0000EEAB00004687FFFFAB89FFFF34E0FFFFC11801007023FFFFBD12000022F2FFFF8AC700005E9600003B96FFFF2AD6FFFF53F8FFFF755E0000169E0000B6E8FFFFC9050000F703FFFFB91D0100DB90FFFFAC38000049DEFEFF0CE2FFFFC98CFFFF550500005D1F0000C2C8FFFF62100100A3D6FFFFEC92FFFFFA150100EE3F0100AD83FFFF1AA5FFFF35BB0000A7D00000F14A000016B7FFFF08790000222A00002EAAFFFFFF6AFFFF859FFEFF8674000058ECFFFFFEF5FFFF72BFFFFF2471FFFF6DC70000B05D000077DDFFFF88550000593700006731000042480000787BFFFF3B060000D5AC0000D329FFFF0AA100003B94FFFF08B1FFFF0AF8FFFF3394FFFF7A13010001C600007BE5FFFF13F0FEFF6E5501000B3C00004DFBFFFF6763FFFF843CFFFF3FB3FEFF716D000056ABFEFFC30C000091C7FFFF9B440000BA87FFFFE83CFFFF6B4E00007860000041C3FFFFFE0E01000AAEFFFFE66200004156FFFF29DEFEFF0EE8FFFFEF8B0000485D000014F2FFFFC5D1FFFF07EBFFFF134B0000B25BFFFFEACF0000202000001D380000DAFCFFFFE83C0000CB6CFFFFAE5A0100F6B2FFFFB02A00007823FFFFE91D00006A9FFFFFF2120100A0230000DEBCFFFF2480FFFFBD4E00005B5C00001A6DFFFFAF5DFFFFDCE9FFFFEF3AFFFFD3FD0000D189FFFF48FAFFFF326CFFFF3B0A0000DF96FFFF9BEFFFFF79A4FFFFA238FFFF1A2E000011D9FEFF95F20000344A00001E5C0100A1FDFFFF2608FFFF58B8FFFF3ABDFFFF7DDCFFFFB845000023A60000C6D6FFFF0FB2FFFFA2E9FFFFC2900000AC560100184BFFFF4D1B00005F5C0000799D000026FEFFFF3AF2FFFF311A000018AC00008F74FFFFBBE6FFFFBC340000EF3C00000698FFFF39EAFFFF98AAFFFF880D000000BE0000128EFFFF24160100933B00006EB9FFFFE7040000702F0000E0A60000270AFFFF783E0000E5D9FEFFA1C1FFFF64D1FFFF02F9FFFF8C1400000B87FFFFFC15000023D2FEFF83A1FFFFAF430000536CFFFFFABAFFFF76B6FFFF23C30000886200008B0901006F77FFFF8380FFFFA6E3FFFFDEF6FFFFAE550000201B0000B85E00000C2100009D2D010065CDFEFF0C490000ACF5FEFF83A5FFFFC7C900008043FFFFB6ACFFFFAC8AFFFF8CB1FFFF5E430100400B0000AED60000C3CCFFFF5ABEFFFFF2F7FFFFFDF2000098B6FFFF53500000DFB1FFFF4A9FFFFFC6EDFFFF7986FFFFA6FBFFFF7D89FFFF28EFFFFF9542010026D0FFFFD2CDFFFF5B22FFFFEF6000007876FFFF16C4FFFFD7320000EC0B00005D0E0100D6AFFFFF473CFFFF5D090000D0A2FFFF65E0FFFFAE6BFFFFF601000041C3FFFFB81E000039CAFFFF22280000B20D000044A7000074FEFFFFB783FFFF4C2D0000BBAAFFFFB80B0100FB74FFFFA32BFFFF5317000040560000B34800009CA200005AA2FFFFA62500006C3C0000C85F000016BDFFFFFC160000E3C30000F1CAFFFF86E3FEFF09470000911E0100D2AEFEFF492B010011800000935DFFFF73150200E61B010060F6FEFF3613FFFFD47701000C99FFFFCF68FFFF5283FFFF9FCDFEFFD9E000007E40000044220000C63A00001689FFFFF3EDFFFF8A43000077FEFFFF2018FFFF2B77FFFFF7160000202B01005CD8FFFF7AB0FFFF5BCAFFFF512E000098B0FFFF0375FFFF27FAFEFFADD9FFFFC5DEFFFF53E9FFFF3021FFFF46ECFFFFA820FFFFC0DAFFFF00E7FEFF425C0000E59D0000730C0000280A010046310100B399FFFFF14B0000E44601004ED7000079B0000060460000AA42000091E300001C320100CB7A000063F4FFFF4387FFFF45A2FFFF432B000018430000A0FDFFFF98F0FEFFD4530000F42B0000641E0000F9310000B1F4FFFF43350100883000004CCE00000032FFFF1410FFFF88C7FFFF0C03FFFF26140100F9F4FFFF17CE00004D440000B2FD00001D4E0000F6C9FFFF90A8FFFF211F0000562D0000000E00009F69000057A1FFFF600B0100AD7AFFFF2B73000080DAFFFFC05CFFFFF556FFFFEDFAFFFF3A2800003D080000CBE4FFFF9D1300007EC70000DD3C00002476000058D1FFFF40B60000B6E2FFFF20DDFFFF0E62000067760000A781FFFF65F2FFFFC06BFFFF214F00006C2D0100C7BB01005955FFFF41290100E49BFFFF84C7FFFF5DAB0100BBBFFFFF763E010044E7000008E1FFFF4EB9FFFF1942FFFF15400000C713FFFF39FCFFFF5B950000A07BFEFF570200003266FFFF6B580000C412FFFF16340100B957FFFFC5A8FFFF5AB7FFFF57050000DB1FFFFF55AB000049A30000C091FFFF99560100E302010082F2FFFF569AFFFF7D5D000068580000725CFFFF753BFFFF4C09FFFFCAF3FFFF81220000ECB2FFFF62D3FFFFA1E0FEFFFC7AFFFF11800000359CFFFF2B74FFFF5365FFFF6517000033780000D61EFFFF21580000EE390000477BFFFFB961FFFF675DFFFFFF5CFFFFBAC5000053B7FFFF91CEFFFF30DCFFFF75FDFFFF415BFFFF48130000E591FEFF5FD400004368FFFF822200005B7C0000F98900008BB90000B613000052F5FFFFA48FFEFF132C0000867DFFFF4C370000568900006C2A000092C9FFFFC47600001FF7FFFF2297FFFF0DD8FFFF89720000F97100007BACFFFF7D6F000015190000FF5A0000556700001B420000515C0100B5A50000F158FFFF76640000271D0000FADA000023E0FFFF00C2FFFF3058FFFF782FFFFFEE070000F995FFFF5C8F00006DA100001F8EFFFFEB9100006A1B0000B461FFFFB6650100434EFFFF945BFFFF75FDFFFF3ED2FFFFD8C900000269010005B9FFFFDA80FFFF8EBFFFFFAD3D00009216FFFFD615000051D30000699B00000688FFFF25D90000C5EEFFFFD6A8FFFFA99BFFFF2DFC000087E3FFFFF08DFFFF8231000093280000BE45FFFF2866FFFF5CBD000018C4FFFFDDF6FFFF2C0501007E9A0000BAC1FFFF8E31FFFF3F6B00008FB0FFFF20CEFFFFC4D00000AF9AFFFF3B34FFFFECC8FFFFDF0D0000C3A6FFFF6A39FFFFC4F20000EEAA00008AD5FFFF9BBCFFFF0EE2FFFF039FFFFFD585FFFFCF0B0000D7E2000033C8FFFFD850FFFFAC07000056F5FEFF46DDFFFF7A3EFEFF184400003AF8FFFF09C8FFFF352E0000E7490000F0D8000085CBFEFFA84300002B72FFFF22A40000E2CBFFFFF24F00008E47FFFF2995FEFFB092FFFFF7390000E5E70000B593000072050000F91F0100C0540000312A0000A61D0000B2FCFEFFD68AFFFF6FF400009A3E000039610000CEE7FFFFE6BDFFFF36F6FFFF2CA4FFFF0FD3FFFF5D220000023500005C860000CEF5FEFFE4AAFFFFECD7FFFF27B4FFFF180B0100F49DFFFF143000008A7BFFFFFCC8FFFF1E110000633F0000137600008E2E00004A5C0100B5A000004498000067970000D18DFFFF9FECFFFF6A2BFFFF86C60000487FFFFFD2DBFFFFB60F0000CB6B00008A5CFFFF2F79FEFFECF70000AB0D01000F330000489FFFFFE3EAFEFF35E60000F7F8FFFFC9FA000045580000377300009977FFFFDCEFFFFF0A300000A2ABFFFFEB8BFFFF0AB1FFFFC25C00008DD3FFFF17030000E15B0000DFEB0000A9ED0000159AFFFF0BC20000A23F000072D2FFFF09ED00003F27FFFFC357FFFFA2C2FEFF7714000063F8FEFFA9B0FFFF55EAFFFFFE450000BB7200005F74FFFFF659FFFF83BB0000F1ECFFFF7B8600007F54FFFF5505FFFF6B61000062CCFFFF0D11FFFFF25E0000A4F4FFFF64E800003ED3FFFFF7130000299FFFFF89C4FFFFF089FEFF375F000020D3000084BCFFFFD37B0000C1330100D40A000001C8FFFF8D2E000061D40000A0740000814A000096AAFFFFC7F0FFFF9690000094330100234B0100D3A100007775FFFF9EB7000071CFFFFFD14FFFFFE4CBFFFF77020000B4A0FFFF4D600000EE82FFFF432900005D5EFFFFFAA5FFFF30190000DE070000E813000061FAFFFFB58CFFFFAC11000018B5FEFFCFDAFFFFD27F00007E7DFFFF1F5F000020D4FFFF445BFFFFD329000005DEFFFF62560100DF1B000026D5FFFF2D560000D0C900003F2D00000D8CFFFFE493FFFF242EFFFF35100100D4A6FEFF632A0000BABCFFFF06C0FFFF95A6FFFF42FCFFFF4CEDFFFFB4750000003200000392000004BAFEFF470200006964FFFF52B2FFFF6F77FFFFAB96FFFFE9BB0000765CFFFFD56E0000CE4EFFFF88C9FFFF102AFFFFB88E0000655EFFFF4AC5FFFFA731000037690000B5FDFFFF7D300000D5D40000AD9900004AEEFFFFE52C0000358C0000689AFFFFA5D3FEFFF9280000AF79FFFF6835FFFFCB29FFFFDD0B000090F4FFFF7BB20000082EFFFF68910100B312FFFF274A0000DC9400005DAC000035CBFFFFA81300001FD600006B59FFFF731200005E53FFFFF195FFFF58A6FFFF3E2F010037E30000174FFFFF73E3FFFF8035FFFFA12800001436000069F7FEFF87F5FFFFD12900004A52000033BBFFFF55760000614FFFFF7F61FFFF46DFFFFF0EC8FFFF06E2FFFF8EFEFEFF3F7CFFFFF074FFFF9AF8FFFFA97E00004EE3FEFFA60F0000B01B0100418200002EDCFEFFD2DFFFFF868E00002DD2FFFF76CFFFFF4FF3FFFFC67E010065FFFFFFED21FFFFE583FFFFC772FFFF4966FFFF41A00000AD06000062650000332A0000E00C0000CA4DFFFFA16B0000DEBEFEFFAEAFFFFF044D0000410701005C0C0000A75A0000648BFFFF456E0000B1B4FFFFBF2AFFFF1F5700005936010057270000E86AFFFF6C4700004499FFFF7BFCFEFF410300002D8E0000ADEF000097BC0000C4CB0000BEC4FFFFBAA5FFFFC77B000040E00000F9E7FFFF05360100790401000CC40000F9E3FFFF1890FFFFC5100000433D01007405000091B8FFFF34A7FFFF0958FFFFA7F4FEFF9D7A0000B77AFFFFD12A0000E8EC000018BEFFFFEDF8FFFF44FCFFFF30A50000FD5FFFFFE40A0000CD64FFFF9B080000563E0000A9030000491DFEFFF0FFFFFF96500100938200000014FFFFE99DFFFF941E000050A400008AB4FFFFA51801001CCEFFFF7E680100C392FFFFC2D3FFFF149300006F650000039CFFFF37D7FFFF1F91FFFFB9260100B63700007FB50000ADCEFFFFDACBFFFFF0BBFFFF945DFFFF6B38000045D10000DF320000712C0000EFD1FEFF688AFFFF08310100892600008B83FFFF4F9000007C80FFFFB96200001B010000F52700007A2A00007FC70000BE62FFFFB394FFFF1E360000FCD20000025300005959FFFF8DD10100EC7800004EBCFFFFF0ABFFFFF0670000A50C0000A189FFFF5D4300004055000087200000492E0000DC4B0000A752FFFF8E42000050AAFFFFA5A4FFFF505700003F9BFFFF26320000D7200000ADA10000DF1A000065AF00006410010047AEFFFF18D0000095E7FEFFF68DFFFF848000008EAE0000CA9B000019030000024C0000C8F0FEFFD5520000723200006C430000370200008BB2FFFFD7F8FFFF08C3FFFF3EEDFEFF775BFFFF2E9EFFFF7FCCFEFF89A5000058B1FFFF96570000DDC6FFFF"> : tensor<40x72xi32>
    %4 = arith.constant 0 : i32
    %5 = linalg.quantized_matmul ins(%0, %1, %4, %4 : tensor<40x56xi8>, tensor<56x72xi8>, i32, i32) outs(%2 : tensor<40x72xi32>) -> tensor<40x72xi32>
    func.return %5, %3 : tensor<40x72xi32>, tensor<40x72xi32>
  }
}
