"builtin.module"() ({
  "func.func"() <{function_type = () -> (tensor<1x13x13x64xi8>, tensor<1x13x13x64xi8>), sym_name = "snax_main"}> ({
    %0 = "arith.constant"() <{value = dense<"0xE65C61DF33BD6A4BDC83E2738E1575AEEA74E33BC75419473C2EC11994AC4B18E65670A7F998A2F252C16FA756741799CA115E8E4AD511F5D7383D5DF46DEDD5E32C6219E76B12A417BEC435022020261586C585B47DF08E8183CC78D76954386B759A551D7DC470A55BDBB60189B3803F940CAE3B13817E941973AE20C4931E4B5162CDB9CD151C95F0D6067C984F816B7213EED8EB6785B07E0DCA5A21D706BAE4221C7EC9DDE6295E35A3C7728B5B7D49CA3B8AC8794F6349DD8E6716BB3D8041F43D7BB1972ECA81493D0BCE1EB2529DB3EB8769E1B65E24037384357BBFFB28177845FDF702AC648B648DA55CB28F081B0622A82E94F827ABC86BD3F326B8279091D5E58303A96A72D8A2B471BB29B3778D28B31071A0734E79272AE288AB7BCDD9DD9684B48A8199015B9BBBD365A92FDB5833BDEE552DF03BDB6A2E4665BD9F2B3DA81C7C6943FE87C3CC552E2F4D88A220E1AC4DB84968D00C9CE423E7BFC2B18627AEE78F1B2903DDDF4181CC4CCF7D8357EC05ADA305B52ABBB5E9B4750B834FD411B51FD2AF5CA584883E32B67811791F57599AEF46AB96A3F3218003704910A8E53DE793656303B96D8D798F19DEFFAE3AAF736B8EAD18D347F127964D1D8812566EABB27BE4D5057883148B3DDE8F76A759C8D354DEB3584FDA00E36CDED03FD1A1F7C5EEC3A90AB4A4A85497D3B51619AFD4DB58789A777BD26BC73B18E61BFBA16E0A6C6127C6A81C93A41C1458CB8E48DC4DAC6FCEAAC0409593D83F8084C61F247C888AE4ECD7553145007496E56B875FB2078AA2CB5765E981BE3C1A830A94425072D567B2D01A743407019A3622B6203A2271C84AA079F145FAB1A01B84177492698DA26D66E844DB797B2C26A818299D9B4CBA6A06D8745C48A01C59C7F7101F8BB38FF3213B35D4A04CEC98AFDCC59076716DDE16091CCFBDAEB92B57B6BFD3A463F92AE2F8473A2BCADF17E777B62355AAD4C65ADFA063A2262D0F409363F862FE87E2E43A1D9E2E9F42784DB5173602EAD259804F424284C44338595C2F0F7601E9BC7E9ADE450D310DC1E6E3E9FE9A5BD98A085151054E806E358ED4F3EDD9D7E39CA95E0186FBDBF8F04C451E9B325E23B3BE3E8B88DF43D065664A6B22705C31F9B322F9D07C53B210DF30B10203D78D325DC6D66864B92BA3161D51BF66983B1A6C5A8EE90E86B30A2A4CEB419C527BB3A30412BA8C5ADE711F743493C6BFCF193AA6ADCA72EC5D31D54CC5A99BD7E661C12A806E292A551FAC7A604EBD262ECB383FA622742B819B058A985F9BF35FF49BF43D4DEB366BB7AB8E43AFD3E520EA9D3FFE643D279E62CAD5920AFFC688D379E5344E76A7C19FDBBDE66558D5B6DB662CE8D13D68A56860DCAC9C00F52AC5F875D9BA9A854F253D6FD6EDF89AA280F3EAE9514C73C1DA6856D85C82A586CEE61D47814562A6AA47D540021A953A0808F25BEABD519DFC248E5CB860FCC331B2FF2F9E69B478C42B72EDD61782FFBE4E07E271BA9F95ABF5ED3DD21F6E80B8DFF64F0457455F0E688C7933334EE1E7F05496DDBD471C9070354678391980C1B372E2768BC5B3BF7D4DF4C0A6C032012DCBFF02DDD736F0DC86CDE48669A5F0CE6BC8376BEBD0ECF1893A42CBC4F0E88C1C81F0837A01122F005B38B9E9B536AD8DD683F68864DFD5C75F16D6D8609C04680059E422126DD3BDFD36C22E015497A5B4D46B072B46CCFD596A21F21F16D37C45E60A0D1FD577BD76783A17C393912C364D32944A007942372C21DEFA5055BC10B17EBD7EE2EC3AA5111A4D9789A7DEC41FE5F8F34B5E21E11E417B4580AF2255DB99E60A07A8097E2D81516FBA9D970FD8E04CE0E2565548EC15A6FB249ED23AD09902C52D3FAF4F49A032DCBDF08A82E73D5B1342C4177B8AF2D33A5BF42D2337E1B81299BF84D9658D36420798037EF5BB4F12207BB913ACC2D9DF8BAA2546861F98B3C723AC68A1467020CB613027C747E5FF9681E3A6DA0B04D1094D6FE7ABF4560012B4A38A877A2C5B9FD0D7389FB73C58198C9D313705B51638386C1ED51C0A5DCF1960A96D9E32E2F688C286C102BA7B3674280F5849ACD9F9B551EFE2EF7B7823A10E73BFC204BBAE1707F03345C281886ABD00FB8AAF1555977D38A5770B6E2F6544D16C0EA44C01661FF474617A6F9222769BCFB088284AD6689CE4C7E24CE5D91226CA33AFBB58394F483E58028429651391B85B17989863B5580DE7F76C25472066C46317AFDC24F3F25659CAB20A95F046056F47FFE0A923958C4925258766E750C22BD36FBE1B7D602714623CDA82EF6CCDDF7D897A9958152C70E2C05B291888C279DC37CB81118B2FC8FF37AAA9EDD3ACCED151F90C41AED1FCB58BA031226C4BF24F6E66263C43147E2836E9B963EF89AD20E0D136C3162084A0DB3CBC0D51EFFE94E5CDD3AFD347AD138F9A3F776550DDFFD7CE260775013E0634E65942040F3810D1D928FF925DCEA02CFC112F6A630A4B917B973A23C102F21FA2DE55316622F6CD64C395C49EC06D9AF6BE1D468117A5B897796538187AEC8D22E4B2A21BFC35A9DD64879776679ACD12219AF8B4EF6140F84B943D1ED99D532C00E0FEA5259B792F13EE1BBE2B3F2395FE6095BA5D44F17BB17BEB6DBABC1F7238AFA34BFF123260C7835EEE12A212B9863F743F44B02CBD251DA98B90A0D7AD2B5C1A7E5B6441701DC8CEF85C29B474ADC411C7F40DB46A852AAC62E23842DEFBFFEA3F68767483A4047C7397C9266DDC8D2CD470F91DEDAD81020D3430F677DE420112E24C2F763B82777A6053DE5AF364C9933E80E1CB7CA8C2CE544315E21F0B5FB05697645920443AC44CA1D1C2CDBBFCFF60E3AB91E8E8DF98070A0E69FF8AE55E56276FB5DA9E58B982AF32C215956EE7076F112D4A8692970F6098F132FBB59F9DF11D2E8F502BD5ABF47D16C650DB410B5CA3FE5E90C11AC0310469A918CB01051B60592F12D29083233DE7ECC259201FEF32081D79A2AA553375B0FB352F1C87DCA61C050D5C55A8CB299668CB76CAB24F9942F6EBE217E34FB14716C118F3785D17A90C1C8CA24A69BBDB639479D56702064BD381B8DFE300A3303D202C92DD4C93703BB1C089E42687AFA9929934336D1F13E50F91394B0DAA8C4BE35763F2D77962565906D60E649187DBB4A6E0E1FDB014C1B38F989F57BFF056AA8A143E67892CD503B389B25081D418EEB1F7394E30A7BE426A0A3D6CD97BFC44DAC915D84456B959C017B9FAC35CD55D4E87B0F990C033260F8929927189C57315528E4F22CDB5F4B5DC6ABBFE093B8907A0E4EA1FD3603B310587B96F53B4CC9E45BB5603C56B8BC0B7EB3E9A778440F51FE6D48FF543D4599585530E57EC83BB8D5F6342B1F35B8608DDFDCEE9AE90E70AE2BB9333B61BAE23279BEBA3B39F61390F1A7BA18CF15179F111B378FBC2AC04E9346F361DC62DD212E6038A10D2114BF7A099E6BEC3D5C592B77BEEDBEEE0F0B914F93E36379594D9E5B8C064E2FD8659FDB0AFF4A0F076BD973494964B8256FE8426ED08DDAB320B07C13074A331E80046658EB984DDACF9F2CB6A80C28CA86E7EBDF1A16B8FC0DF34E2BDFD9E1A0CF5948898AF426F36D8CE50AE673182296C5CC26FF43F29C70033E5238F8DF2743CB4C604664F663C3FF2B8283EA56A0DC4C208EF953B191CDC5B633A7668EAEB429FB78CCBCCEBBF195067100F86A1DB328D1DA864B38242D59C439E38CA2F839CED05D74D6F369D5BA40097C454468BAE2C9A9870B3ED8ADD4838CF6DF65A3DB3417A736BA23444F162AC4BF4E3F90F2BE48459288B995959EB432F095AFDD459114EA6F2B5F9E3E627D8A075D6AC7D5C74F65D6690EFE411D72696E884E67916CD8C89DA281D75B67B72C4FF1522E3FC7D62A18B198B336C49C25E1C66DF096A8379DAB820122E756E39094D00DFA6C400806BC25B7723940AC4A520286CBF982F839236A98FEC281D974B9092CF6122717616F52481F93A7170F149865B3F805EFFE375151FD86B225A6D3270D3838B4D17C6D2130B67DA2D319ADFE322AE4812FB092E24A0E665A0208FD0F53C932B4F320A2D0B2AED9552E45683718B15BD20C21F57E2C0FE87522015907627344726C98F4567AAC469B4ABDE9FB29CD1A2C60C2941918BD06FB6DE164C99AD8D14E001AF2A847CFC798972E9AD987162C51EA208592E56EAA8D6D0EBB992D9F05D2787E328D1DCDA29E2193FC95849BBFE2ED9A675857DABB3D721810150F2603CC2E822A7C806CF7CFE438CC09EB9C3E13174DDDD32F116ACD96CE58221CAAC486F1C812260F79D888A231DAD3C58027EEA946D304D7CDB337778EAB3C82362C70C092DECADE417E8EC48C9A840170B0A113F380C4E624AEF13303E117DE2C4CD3B6FCF21E9A3C630A05113BCDF709381C0664246DF081E141766BED716DA7B5D3D9CC66E5FFE560FA470405B8B2F94BDF00D52ED36CE8A2E8C96B9409629EA3D5838A941E28B7DBCE8D3E69A9D5732E090358D67F02F4908BDB8D801D3229EFFEF37125358823EE3D5456ED10C51B1CC3A82C165921C1899303822E3E3B6318D0BC146823C79E275689C476712DF5E58CB10DE9788915BDA46093ED19B6770744DC2B7735E4AC02DFF7DDA73B3FE06FBD2534C12796DB6FEEE9540210FA0D295F4D34DF2C46CF997E25C8FCB0B11B91A98DCA3D433FB3F0DFAABAA2C54D5F5B6631D1B40B44EB972166C244A0F848348B8EAA44AA6848C9DECC8D99734DED16EA9D412FE39D4E87926AB3C8E0DD9757E5E6C2D0CF912CD8E04A488F122DC2E3C5614C0635CA2410B6A1055D9CADF3134119A789D6E127977CB9A1BA4883CA230C9DC724239C3C3566B09C31E109B6B5D7CAC6399652C2656868608952DD494ED0C36F23327447AB82918209208750AE531EBE5529ADBD364F9CA4C34416407A584C653949CD8E903246C3795255534BBD2E9147C07EE50146FB550DFEC25765CC0E762DED5C5DF617321935010E617BC7E61FE72C61DDE685810EA7CAC85061703E45D40A36727D9C50CD2E07BDCCB351ECDE0959207CEFB3C997346EB4B43E03514730E26E80034DA5019EC49E22CBFD957866892EE0BD4A6F0F79CFDBCB8EF422D9CFE2CD071C00C92688271D23BE75BA47AF7FD8ECC12B964E98E13F6303D5B59EA9E4761E644BCB3969EFEE32252E825B2262627043E804C7C3E0219D82E4C27D715DBB94DBC3D70D0767881F5E63E0477DF7B05CBFAF0EDA4C918DDB895B703DC5E20C3C3072513BDB9F43433EF05401576B988D74DAB0E9C832C32D77A1F7AC9782CD8D60EBC078C8BAE131BD21474A164CFD09C8BF5EB970754EC356C4A70B27E7BAACB6B64D46492237643C062E4490D12F6863293B6A478382DCF93113D6905AE980DAA68C4A021B04D00B78D169C320E74E3CB1E4DDCF4804E6E7EF4252720B52EE932F51F1515828DDBE20FCA32665621323C38DF228B4A9BCE6A8BB46DC7C905ED755FAACE738FAB508E47D36863E5E1E44B6B25F417DDD49B1B82411EF4516DD587F482C7F9A4F0ABDB35A8B0235A1725D97034F6070EE5E339CAF5DABB1D39BA31FCEA159B0294C45BEA6693E413BFDCA870F17963920CC23FCEF87C1A1787F475393A323E5BC588101CBD0948141EC720B3BDCF7457C4E9535ED4504C69CF1A5B0ACA2F6FFADDC51CC321A90CEB98A2AD06B269A25E01937C4C115205314670D196A673F25B28EA40483944924714AE47881D18A7CF6B417991EB8980AF95B7CB476E9D63EC6071DC365D7A5CB40DECF3138B8414B2AAF67C3F867783C8E9A067DFE0F5719047C0EC004F110879FA5FA03E7C6E34BB7C303801A68A77F1E0D473981899DD643FBE9002E158741AE4D5CFCC78BA9BC4549A9B155730D22F114C351C5620CFC290E1C67CF7E8A8ED89E21CB1EA7EA1C4A200817EC5148100836F1FEE8EB63BCA9385F2DE5D5BB1943150C79A50446A4A08DEFF6D04A67A3FE517A382BB45693445B00E96DC4C1564DB5C44B48E633924AA5C714992504149FD0259D2503AE010B4D2BFD43C37BDCD5CD6F34859FDB4ED1790A18008DEC0B230BC742C52D4C64CC2AE1B835F8CB53DD508BA40915360F013742B67314A419F27BD1EA1E8818CDB0D30DBDE3847C4C79C929DA6662D8519B86C2B794007FF2162B205357168F9F528364582435454FAEFA905B1FD4ACE8B11A85A40277E50B544C90D6BA04D770421190F5D6B21965DDEEC607A12344AB827CAE710D98717EF52CEA27ECA64FAAECDDE8716BB28EB4E2CD04164846048D41B4C1E0DAF2D23C112BE34CAE8974E325104B6E668B46725BD69A23F7E841E7BB23983611A7AA59B40D9B1252B1BE1588417D19F7B229D9BEAE4CEE5880EDADB7EEF3269CB973E71F66761A77539B3C5A7D978F0A50C25501403605DEEF357FB1D48CE2594697B5303E59D92C7CC7692C11FE94C8A06B25E435CD0281832044893739C13654B031B26A5094017F53758B46D10CD1357C9D57BFD904B57447BCD9CC2D3577490576B09F5C4103D8BA1EA637A859F6D1EB4B89CFE419570D84C90A9D4FD1809B56A0EA622AA70E3146FAEFABD4A2FF0D7F247EB93EE980A0978C27EA016DE4AF5361C47A0CFBB3315DE9863A64A97FAE6F5AD0AA30FD71A3287DE9024036398AEE7310FAE036BCD323726FDD89821E2E9426C1365DFC7535F420CD5F91A026603DC90652A1F429D7931A79DACBCF0981AF95AB9B1B2ACCEB912DDF68A945FE05284D4BFAB51D5D7D8DB32D1C729127DD8BC0FD0AD95DAA48814B53596C51BF80C807E619E047A4F08681875F58BC2A2DBD9C952B4ADEC6B64A14AC0DD302775A0CD745F0059E601D4AC373D301ABFD3D2C8DC908A99DB209778A8264CAED8ACFBF8943E20552892306EA86E94B7747B02DD59225FEA30AFA8BECB3E6BAF5015E0BC4E228FD0912A8099F461C6A37BC85E80B5E34E87682295F0720D3FE2B767187C44BCAF33D6FB7C4E6A17B5AE81DE09FEC257DEB7800E6C553289FC8DA2F2BC5971C51E9BF00C42569FF1DECD888108572CE8F6013DF338ECC1DA3F191A758F8D92E4893ABA52A5B7351FC0F27393A286941E3682946A2FEEC6AC6516C3AD586DCA7D02EA59663F6E16B8087B854D876C1FEF9B914D815E791D09F2A5DB29DA621AD908F2072CE58E0C92BE3F34589A589F6DC4F616463C643115E09BA82AAE49E2A385A684E0103847F3D29045B85766F4A1B6D5985696595D56D3FD408B09AB3B289E989234BB101879638C8E4AD7532C75179898D6F9C326592D099D68DAC2A0874A68C09926EC6819FF116445FAEEE8C09663980E15EE50FF0955E5203CA1B8BB16EEB2480E879F553E27AFA716F0BD01EE6BDA0010D29A29A0A9BE77E0280925C8E46AE2D6857672DC33CACF669955DA25BF3D081B61069E123A6D0DBE37A7A9DBBAA90DFFECC30C7C453711D4648E941BF8ED866FA0653ABC34456D8115EA8E9A94E92FB94546A1A7C58608DD769577BEEF9A61FC83EAA2A9DDAD4F59CA5B42AF3D4DFF96BD7BC8DDA9CD4EDEB6E2AC17CEBF8EB6EB12650864215776B20A94027BB78D72E0C6069E0A2B84A7448FE96490EC32A3AAFD7B17A3CC5E142E9C85C00865C15D59E55321F4135BB6AF78CAF05A6A8360115DCED7DB810522AB51F5801E79F06B85C2DD3621FD77C93FAB65378F3932B3AC2BBD7AA35238156B6D41506C37CE83080E4AAA780807B5D512993C83FA32352CC72CD82D56ABFD7D440476FFB4C59962AF19F54E77F5245CD2C37B803692E769EC536292B3604072019332FA3CF0108EBE0B182307AE72E59D80888D35D918D11C0DB20D44BF3163C9A526D896A4874C14FD8710010AD004A77EFD186EE3ABFBCC1B95D26A47D7088239881820CEC48D056305DE3132ABD67767CAF48980E9A284C1F10C16D7B99009A6060C2B88EE7D011B24B38C4805D22794C02F016ED34FD306FE96C0A1B0C1BE850AA3E476F62EC829318090CB1E42884B5F9D4A47FB180EEBA1F917B739F8A5FEA91B76E7EEE9220DD64BDDEECFD9DE24D09BB01F756DC4C64959BDF923543BAF783E6B808C77312714E8CD71519FF487556EF7A19A3B4A0D2D7D0894B77021FAB4CBCAE5AE629F95E1A2668591804AAB6DA7953A3DBF0D3A38152B9013BB6ECF8CBF970257DCD59148C79F48A38A6F7353E823164B6464A0408D591DB3BBF72E4C9DDB65A9A265BB5354D28DAA24BC38AF84780750D2CBD6BCFADDCA2ACD80BE22191D6705BD6AE96803D05CDBD8C272D06CB61060A9C41B16D8C8F7E41169572EA7298C51C76732F3A6A5EBF0E7F23A368DEEFFE09F1BD06632AEF2F6FC9E451F2599A7CDE097AF0A96D4E33FBE12D1F00EC8320060A3561318CAF2BB108879DA6004CA666EABB8E47631C6E2414FA7084DC7A60BB4738D91E70E8E68E7E821BA328F4E1FA6AC780A32876D9D4520F8EE05561870C2EAB3D506F9312032C4853B47DF3CD5A9FA17313FD527A3735D2EAA8EBCC54BEE566D601C963D1EA09554FE736710085DE1503D66A456641A833A12230161491C48E8A5AA54A638FD1D40E0844DCF7C2B7C34647B1CBF1AFDD04736C3F33EA08924A47D1415884388DDB4D5CA6411C1674C3689FEB0438412F5FEFA36F360C947AF41E02B12D7F534D89AA56BBD520C57D6091EDCD29CAEF37AE063983158EC777DF4579823A0337B1C1A371E34E58E7815001C0C9B4C07CEB40A847DE0A61C6C01FCAEB830BAC3C931E8CB0B65382C8E1A4501D0D4381A3D9F83DEC0A224F20AB319721A263123A74510A37D6F0A9903D737AA67F5C09A7DD919C408FFD8139629538AB0FDAE7D6C0575C9B71068E72B2FD7A5AAD915052CB3BA47B21EE69658F0ECAE83C6F6D94135C9ADA90172EAE1ED1D0B89C2A759A8EF690CA89316E79E1DA33D6B0101512C4D9958C3081C60BB0AC1EE5E2284E7E66139BB03C35F2AEA4C174BCD1F6E6B1BAA9AE3112C106FBBB36BC335D732047CC24AF76BA86CA44F6485C7178D35FE804026E94C8CA770EBF045DB2207139E5ADFF92DD11B08572491755313ECB2D04B939C1C073C4D6D2F9AA72DB26FA88DA757558E726C8A3BA26916B5EAF38007F09FADAB7D9CE4D6E4BC140D9E7CD90DDFAAED864256233932AF3564699F564BE556B8CB3C6B800C87D5BE07315E354F3ACFB6125204F219B6BA2753DD170E771E1B148AA5E62EAD9AE1485B848EB4A5073E08FC4FD5496020B4334D074DB8192C49F410AF8119FE0D1A28B3E0D5A21FC09DBEE26EE573789CEA98421209D9068F5DCA28FB6BA59FC76C01A12AD8069FB8F7516C51D85AA198FB21614C3CDA599F6B900E44F3FF9ACA162A33FFB93A23E888EB9353F37A72296932B48FA435440BBF1732A7AD98305F13468715FF3394DFAA4532BEEB74CD2C88D7D7B36A20343CCF305845DC9C114E47BEF021146A738FC715925C2119CAD8B81BA8DA83F1BFF2B654155D29B0EC6203464313ADD0933D79D3348876E8CD00F530428EA613102B0EF54EA4EAD5E1D25C5BF95995BED47A083CA6B3E775B8AFB05A0F00C6D132CC80A7EB185F86D8CF0C6CAB915D2336E556E87D3F3289C2EDFADF3CB537033E4C52626665BDEDF1D99F8804B41D8A5EF79C6950B0B0ED7E1F2CD1DB895C2532E09DE159F80F9CA95627ED191092DCE31691C852908003C6CBCD7A0846F2154C362E3C8AF4716B930741F0BE06759952085B5355F0F014A8FBF1E818E65DACBCFF2516C40F32E36E43BE533DA7037EDC9A005712AE874D18D51C7B1D5CB6B0D493E61FB472023E54409FB311DF891335C54905CFC5523D65EDA75D2421584D06FB4D22E8606F7D4CD638FF86B6C01B7A5B1D79A79FE77C563174C93706CD735DDCBD2F28872CF1E8C0436F86B831BD0D76AA53B8C2577EC05737A7BB56F7B4B23AA9812C7E76E8017C3F8B85C7A1D518B55C269A78FA5AD66ECC474C648C4711C29A35ADB21CB063E0DE9A27DBCE050E6E0B79BC87B50738217DF499A29FA94EDF08C0BED7D49D7DCDFC66389FA5EB1AF76C8E5BAD3B0D4E6AC909540FAFF07643512DE5735544712420872B35709DA45459F9B40DD389E85E3A8BCBB68371D22FC3F6655137C0968698D483C9919C228663639520BEE43C1688B8B5D46C9E5912504A86EFCEEE9FFC0DF2AE1223DE60A3B6C2159C4516243BFA62EBD150B53481A2066400279E69AE7BC35144DA701F13D701D78ACE7BD56912E9C27EBBBA530105B3E142F271DC56119D17F6AC43880B511FC49346255484B9481FA403DED825B34FE8849A465D76D20D08335DDC617C25EFB474EE5C2B9BE2CBE257B1B873554D72796DFB79D52BFB43EBC51E4797F55EA3D032BE9D496AD35E1D3C5610F7CA48FCBA88C17C6DDF8165563E17F8FFD0434C5F121EAE504A5AECF1EF9AFCF20C408550ECB0038D8A48C488B25F3DA70A280A410F67326C20AB2298058DE7E66D84C248DC50B775562CA395C5A2256A7C3D556D4974EB8348817C195A5CA1392113069C680B66ECAC73ABE16A7330566E35C5A4A3652ECAC03584C55B145211FC8F6AFF681707D46FA49EA9E82750E3151613A86002FF25FBA8C6A1E8B291901C5E0D24D63EE718FC4326655BD9FFF975E954CBB2DF38D68658B4F43EC89BE91F5082D5C158A3546F8AA39A4800C3B81FE7669EBDB9C405C2375F5AF2F03B27907018E162AFC08BF93B196C3692227857BF2AB43B08FE46A165AC09EB43122C66966A10AD0E56190BB4EB540B05E75BDD95E23DF2DA45F94A5704AD0E8AECBF76858C01D017DA7B0B11AAB517E875EA456F3C406EB2AFB2CBB29534D2A097A3ADE81AF2D5DF4599B34FBE9C50F891146028E38A4FCA56A75567C98A686BEFDD8DDB239ADF6AF0E493383AE03638A6AB90CC67FAC31C626410B5458573E1F05EF9B6500AE5EEDA6629178ABF747592546F15F10FA2C458093BB7DD57FBA0D586B7796698C5A31E7B876EA2B30A133CA3C3523DF9A96286D71873FCEE576ABDAA8DD0AF2E583D5B91FF7ADD0A74EC314A186A1718A7618111D54838121F1900DA45411DE7F97485CA9BC808A9D848BABC93A7097ED99014EA3A00562CE9580458FEBC80F6342AA3BB30E7C6A919A958D0EF98302DF5A6B494BFA2DFF0930230305171ED68936404264CEBD019802B20573132A53B775DCD2BC5E5D0D881E1DB99178BDAE49A9249E8DCE4E609D0AB6CF1973A3F334E7A8F556AB09BCC763C0B86A390D4BE4AC941C273B80E4830B6EFADF27075F305AE5FE4AF8BD0B296BD853A0ACF2ECA7557E0F95FD281A6428797F33B5EAF1223144AFA4ED0ACD042568626286455DE39F589B9314F1BA1234562E4594794877B98BE6ABF5159C267D874CAFD8B550B250EAE21B8BA6EF331194F577C68E1B58DEC5F2D719936FF2BAE60978A9FEDCE8B891320348FF4181646925D6C10215516AFBAAE99D7C90E545BE411D5CCA4F979F0DD6A06C197D08D2F3088CE115A9EF4A20A3286DEA43B08909FCCF2ABCEB12FBA256CC79F039D71C51778BA2378EB56F23B715C051B4BD19AE6F95E0C3C3E5D532E5CF3498C8E26E3B45862CB04F4111130D13AC53E05694DB354E682812590D5F9898DDEF1261EA42518174CDCDD625B61BAEB0A080F3BF85D9EAC5FA6FBE1B4339302C00F62A47BBF322AF43F07278B82D759FB67F036D00A3956DB0CE7EBB13B90A6200A128E5E36D0F7EF514D70999C0A832E5409DC55EC4A55BBE229184319D10C9D643C51EABA20203CA9058FF04F626C61C3ED29B5291DEBA4ED60FDBB23BB412D61EAB6A1BF866262C1F6294C3E5EA182077D1D69F1857A108F8076F26C5F8CA7FBAF0CECE80791F5CBE21F3DE670DFB63E6E628EFD4CFAF76D91A61CF8AD23ED8273BF48D99C30FC8D3DF3E64470472A965C7164E6BD711F8974A059FA6B7252FA38B224208F012C1437CD295F6BC60DC56E646C7BF8A976E589112D441D1BF997184372EA7EDF9CD6E68D5EEBD351430504B1523CC0AAF63B5DFFA0BD30CE5B808288C89C2C2D21F70D0448DAF7E188CC1DFE08C97107D25AC3595ACB1100AE373D374DBBA4514F16181E468A2F617AC640E21384347B8B696DDF5B7C4E370B8BC80A02ED0E91869CB0BBE3E2F85FC1E4D7DD7D2D43A35B9F0BFC5FB73A2857747927B073A487C94CBC68CD49642FCCC22A236396FBFD2B16451266EAA683FA7B37658D61BE5DDA62AD755971D76D4D198A2027F7BDF4DA67CC07881D61B8BB7D183C42AA46DECC3EB3BA3D7D83732290BA56CEBBC7764DE6135ED671DC3FFB56BEBECF26B51586BBF423141B727C24546C0DBF03ED054E9EC9AD8DBBEA1C848C6170B0ADB843D3E25948F1B828C3E78970EA3AAF79298F7582591247F7B70253854F21D984BE4C84474E8EB5A0B921AE9C97785682E1B7304ABF6288362C04E2AC016D93746618F9C7327E70F6E806BCE604ACFA271EC2699DF0E522C96703316A9B42D1E33EFDBDE8AE32105C8F5738E5A782E03E651FF05A50629E20F6656FF4B98C53F81FF79CCCB9FC03F43F6EA7F709D86C6C88C8694A17C31299650D070014E4C5B15CE12EEB978AC59AF5E8C621603733A3E4C2DD7EC3FA2A60C55B63A7A19CFE87FA087E046342C4DC8B1813257461DAA95ACBE5345C29F0918988F2BC4F4E35BCD4A7703D279826FC6E847D840D0A65B63C3A43C49661BC89C857E310E8FB1C2DC04E03E8DFA590CD81C7B9FFC27AD49A32048FB2392F94FD8CD93671FE1123D80845F13F94A420CD76BB6DDDB82FA6869C4C8B6A2E9B237C6444CFFD934CD3517DD0326859F1143F8FA76C41FEACA586625F3887FBBD419D04DC892817F2C8916839CA9E53C275C112B7868AD9A7AC0029E1F7122DA798B50BDA4F53104CE7CF5D6C76DBC4A005613B85656D6057D0F105129CA44CCF49BF5E27CC1028DB884BBEE0393F59BAFAC7A8BA7E865EAF7B8FA928C6D7358C1B01D5EA01C656AC4A9ABDD8FD0D3234E69A6E29349D2EE371979B3ED0DD1E1A8E7132258932403B52F0B086D81AA8047832616A3E0061AC429876B9A3B15F788AA9F7723FFC879E548A61963AE85329B1D181091D7DA01F8A6851EAD94AD534AD07BA1D0ED63EA62620681E0FA7A9D1E8C980E3C9E651816DE10E4D3E8655CC6232415CE769018BE6B9C2A601228141A7F1B15FD4FBC98CF60795AD6C6E1D1AA611D3F084AF7B6874D10F90083E21E771279D5EFC02C2E19BEFE03BB2CE223F11D282D7FBBC0AEC791451227223476F8362A0C595E39B52A909C81D395242462D3784C9F2100A68D427EE5F24067661B39257BE6F04D71B85E4E4BB027321CE0973AD5DE4196EA4E872405C93BE9A95C16F4943B46E6F139BFBACDFC799306331D6457144DD91C39D02725A728BCD3F3817AA9044CA358BBADF451563BD911079E435099F8915F5A3BCF9404A0BD89560538E59D1741EF7AC9F937A3F358B5158B75AB1899D5F8DDDFA7D3F12B6792E42912D9CE188784BD2AAF223AE693F7AE2472562D4CDA133D3AA18FC099D424BE9B4E286D4CB869C604C900A632985A02CCE52059E58D2EEFBB0DFCE3897FD1F6F1B5132EBB9454AE924C0B9F26C2E56F7C380992EA6F261AD30A82DE58CC661B272F79C0DC383623D7150B79AEDE2DCA99A0C990EF368FD2D5AA6C063A98E8D6B06F623F84B9C0BEF531CA81531CAC4E2CCF3DB04B89F478657016C96952E3657454DB3B52ED34C64BA958C0E274AAD1FA19AD674C5424EB85ED04BEB73FD2D16766B3A2BA637ED8388DBFE2DEE5C03B43B94501071AE1956684FBFF3EBE473FB5B3AEFF623D3506A76853F48E5120615423877B2C644FDBAF10275657B7A955CCF809D4AE8B9B29CD2FB2F63642543F3398ECE5EBA21AC6F3E3C870EB6223CCAB3BFE7788770CBBD5E9823532697C385378B3ED7DE91E790108E15C65D6BD936F84FC8A4F99ACE910BC7065B77BBD444A82D19FEAF5843A5B41096DE5EDC0ED697B48D4F4687A2D6A7CEA2DB459AC4A5F42D36C358B1CE450773F75242461812840279CF20DC717A4B3FC319A12B17CECB3422D3889796EE69BB2F3C6BF9512E77024B5C1D13BBFAAFAD5E694B8E82CCF6188CC5FB5D3AD0804D68879E4679AB1990AD8CA0FDEFF81B6BB4012FD347DEBF6306A8EE88A2740E2516D5B32F3CB978A359FD3B5BABA9BEEF90557A492675937C147459EFD3F4405CC401099B17D755AC4CC7C269EE0A61F3CFBFF47E7B4CCE09F4506ACAA6C7107982946F6FF691610B925DE7B22EBFF5FAE4D1F1C2E5EDC55DFA6E6D0579DE721A1925204D389FE62ACA8A98B028ACD56A3158224E41A07BB05C7B476073E5D02447284DE66807F5A48A8A43EA39550082FB328E493FD7345C9AA8A6DBA5102976BDCB1AD09AF86B157CAD4CA6121F16FAA44E3D3384CFA237FFB535FBFBD5F4BF1EDBF859B5133E5433200A14D849A2C50F27A31B461FD70082717074707B7712D3E05F09928140080460984408A0EBFE9668366D614C2F42D91DC79F9520FF88CCDA9353F3389D94195E18DB15431CE5E64CF4D2412879A125BCBB7AE6DBCA11D900EBB32D460030F9A8F53171BF734C0E70C952618BBDB3E9800B8AF6A360AA2BE11E2BB075449AE74718734A976D22BC614C9F42175B34FA42EE650587968888C8C318851B2B6FC84C591DE67DCD8D5E68691C1FE5120AA80200CCF17D04354BE2E96F8755775EC70F057231E64E36DB779320BD8DBE4DD3E40E48BDB566D6EE703C1C7AE01850FE0981FC86E802944A01AB29D33492654F00110D0383AF0C05AD7418B9EDBA5195C0294819A14BF3FE039CFB82024124FE5CEE8AA8D342063B5E7BA9E9F3C93B8D10C8F04A33659451BB0E3975BBF38F8B9C6117D6A8C2BF8B2EF9260C6B57A8988632FAACB5AD5F72C4211DF9E89EB812FCBAD4B6CE52796D62DDF8E34DBED62C92093E07C71FAE5CEEB05FF62EA94AB48984EF369221289FE9AD8BB24109FFABDFE3A9D1CEAC0E45A7D785111B9D3852BEBC271582FCBAA41292D5DF3D8FB7615F0AE88B0C79BAE4C7FE023EFB261B6B5E9449B695B372A2BCE7A2F0A32E3C31F6B8DC18FB9235BF9CEB3E5758874E349DB4E00177C10663A757CBF5EEF6B06F17ACDD9BC75E543675751E40A73A3967F8EA3C83A23E9708235813A16DECA43B762083B20FD85B6ABF3CEBE57CDEFD0D0944931A567C3B03BD011718C48AB13E950B3046755D32BB1503DF92A414E87E0A162399C9F079E40687F4FC2A39E1FBC0E5D516FC63AEAF1BC12A185FCEE9841921E5146623AB4A856775EBA6312E2729AF5EC672F27C7DF2C5241739302AC875241069FCD271DB8B756DB5024EC3E26C3CFA1F9102BFF7A76E2D21947883560ECB2D3B605EDCBCE2EB2EA19973274687CEC037E3E842E76FDA36685DB1931AD636ADA9AD6E212B234FBC8D82F3DFCDD92D788140BA03F601D4AEA4E93CE9C47B385A252F32916C6B85FEA8926AEFBD09CABF75456E98BBF7695EFCF12FE7EE06F18D00491777914B036608D414583776DBD30C212901204B17668EE398C5335CA9100C7126FA6B9DE4D86F68CF78E7AB789B60A7E6C18895C2227C245B64649F288451CF827E27BFD340B5221627D582464BD1C519376F00A123FE0BE5ACB1C678165B2DBCAE0DABF49E1993BC0A4DEDBC894CBA62422E5092F502A8F18DC1F5ABCFAA35D449678F05DC9663F28957C5D6CBABDD2BDD33B154E8CDD0A58025CEEE04988EF3933D2BBF8717FF162AB67D1D4BDB567280DA6F34B82925C0BFC243AAF55B77DB539769AA9B259DE1F8CCE389EA0C841B2457043C2E4AD2DB64976F294BBC140824E801F9B0E9A348700D9B58F7A61434ABE6C04EB7B7C5F21B485915EEC5BD5D4E86C75E05C7620EEB8232B47AC4B70A3C43269C13074088F1CF8EC5CD69177C01BE1D8E4883FB9F7E397A07A4E5ABBB93E4456F9981BC8D9CEB928A80BC5723F618C29FA28406B945D043F364A995AE74EE926FBA142B96C41B6FD020F4F29A70A35A01327A2C154D04248A8BE4AE30695179A593213AE5344A137C71085AFA578492777A141B2FAA3FC381FD80F384616F2973583038D2B1DD1D239C6F9C793864AF5EA6BC02145E54E9F4375C94C16E997E032A991005318CA5FD16A338D72B1D372AA5B5C108D3AF40A31618B0A0FFD92C87FD1679A1ACFF54CEB3B13FA4CF75E53431871870692A2CB3FBC31F3BF691E62C875C11A971A7CC78D425B7B0006089987623973B8727AF2C1CDA7AA7DF1D19F1E5B58CBC8412BE5E6E651D76D530D9AD2E44DBC1A16FCF31403CE029B6390E56F614077A59BC52712A6951DF49D7692E1D6DFB84F158C6FF51EF00BE10BCAB1E99DE3454070EF05EAE81D75D67FA9312F02F3D44CBF247875A43749CC727D26ED811264BAD53043043F7AE6BA07BAF2D800C411912FCB6B79EB55D704F372C280D362B53B4CC54E4AF253E2AC4B43726E8E94213D92EC99B3D9FBCD95B0CE828418F47A87113593FC25E1A451FD78CBE42EFD1C896A87A206C4E5D289EABE8D8D4CB7E2F32695E8C9B1F40C8EACA48744EA997CC7AA7111ECC67C968818B3D4A1B6E9BC3E56660E16E0726FC3DF5E7E50C63436DF138D30386796CE5E6672A9290ACF0457D4E4E610D4066D19EA5430CF93D606803BD4C963DB3D1D2E302EFECC5F05ECA15DD51008EACE0D785469E7D1FCBB523E30B4641A926D8E6F981544A90D40E8E98D3C0DCD521CBEC50DD796F9D1C4612EBE50E08BD1014A38A3212AFE3E1BB0BF8E3DCFAEA0C58155DF220C53318B0314FBC5FA2320B70ED0DDFA2F945F12BD7AEBAE5B8418359773C928A2DC916E21BFB1A47AB9FABED7E8F2B4D5BFF24C96B161E41E3E4422D0B27F688AF9D008224B9E1D4D8580A99EF835DC7991473AF0B620441755F5845292BFA1BE78B6AF4FA10865C7CD2501984DCD71892629B8B00D4E104D4A4A661BF99E6AF515006A4AD06144EEB7EBEABAD1A08633688FA8E2B1F1BAAA075E42FE34F43D6E9260CC5559F50ADBFB33F71695637EBE9AA37FAB31D742A19EF056C632A8494E0085216019EB2EA7ACCEE76236F81CF910F65AE674025F4ECBF92FBD465650E19E474985BD4BEA37719274AA2D26DB210CCE18E2FED8FC331F8B294B3B76F0C402BFA557183DA92134EB1A1377699CD3514AAFC97E2FC43438A1E6F9B3CC1F4616805B3EE6DC86DE90B2B9A0E2ACE1C267A6D6E9A134D1BB4C208A2F9860A077637140F5C31CFE94071962355BE1C1D7A36371126D53781B0E0E6302F4AC5CC2A8A7A03DA5EE9D9083B52D86DB39FDDD141054A4DDFAE86050B9FDE3DDD2EEB2C825CC93EF2AEA6F43E4C0C9BF1061E78C0AFC68E04353EDB17CBB7C9DC9B703C9C4B29DFBB113CA1EBAFA9992EC13753716AA3E00276D3542DEC432549FBF5AFC8968607D54EB567545000255B0C2BD41EDFF7959D8B2C264806E9B59622AE7A3F9CFAAB0F730CD82980F6BB831A15D223F5DC36519405620355DADB625BA4721708EFE3BA994CB24B8812C8B68E77072589C0E91C57733DACF9A9B9E9F816DBDCFCA6815729FA6867C76AE76617989B454F52F9DAB044FF0E190C23BCDA73F1C1A4055047C356D3CDB130D9C6171AE13B925A1652E30E6659BB9CFAEC26FC622B490C642AD8DBBD4F1180F5981213C34423BE351F49D2A6608B27F3362507EC7178AB16C472A9A72E7A82ABB0E6B8BC6241233CEB4C075E61C4605C20F28FF9F6C2FCB714BA8D09503F009815222EAD2FAD8D86A48B71CF0EBED82422E971BA5B03EA1B461D48B41FDC740B8AE6D1230962E0BB48A343C1CDEA92E4CC444B217C19AF183861768E7D9CACFF18D3CBA481035F7CBFC5C8C6A2376DA286915818D47E7431116E832DC2EF01E7A966D5F1F5FD1EEDFCDA9FF226FC3437286FF93970FEC3314A598C846673427D972DD1D73BF25EA0AD491651926E269AC316EC1A59C4EE39E504D4D6A9AA91149FF9506726E4AFC6EC1A4A456D53D494A3B050C367326D956436B125E0316964239E031802B79EB1C8C034E607FA48D2E05570DDFAA786BAC51473D7288961DA666B7D1D434245918C47C1F1B09A6104BB7B7454018ECF913B93EB2B84AA644C2B8967919A0E54BB1F90622314B8BE0A876BE9C5655CCC6147064217B1661F26C2A09D2E756BEF08AB1F97BBFC0987D3B93074F4821DBFD5D5A139B0C5FFE32B0194E68D566AFF7E2B5463E081CBEE29E56A69DC50644A0EA24F577EE1698B3B56A5C4F29D3797F7F350E4D587FDE58F15821A14AB2F720F39F53996A36EA6754439AF76CC2760AC5C3D0C229EA92430AE8DBD4178E3F0B3B6F124AB4F80AC09E90A53E83D493F981DDAB5ECF802CBF3B668E1520F6B13418B8CD18010F27AD80F3584CD0B27B72A07CEB27B531B224B82AA12F90F06DB6D9DBE6DE16C0091BC969D2D9EDB11B9E6F25AE279E73C84A7F5F2A08584E6937E5357373CE76FCF6D77744244EB21BA0AC0C9E0BEF8FE0F579DC16B2B1400DD05D3B44A9745CF231F15594DC1515B50964771334966E6D9419F93DC5D205431A07443451B8FABF9534BA94001A57EB24873A548A861CAF0357C69A7900D4EC189A3BF9E9E605119CD1696B4BAF1D8DBC36C7AF7D7C166B1DCE8C903E1D441EF96810B28D85AF75C6F783AB2BD487B450D40C9FD02CA57B6CEC273C553331420E53D261AC7165DFBF219C6C071430C4019517D125FB611830485E1E9A922C5DD6B15E1C9492AB8FF0EA89813D5917E7DBB958B11E47C765973E09BE46971E0B58B10CB006EFCBB6EB0022DE5A9B04A9D256AAB0AD1E2C4512CD54120A207F0E11DAC1F2C576C4260692FD0081D76B85E4D9D2F3805A0D14EC24CAAA4CFEFBF4A86FCC4B633F3CD8D1E1851C8A037940EB111D21435A9E722DE5C85C19AECACDA5BDEA701D06831224BBEB9517D19D84D9C937593174179515732123E962489F1476E98960E524167BD1398A36DA17C7836FAB57B2C5CA0F5D0D02350B96CDEA0BB1B8D9730FCC0FB22A3EDE4B31BCFF97465B5134A436DA0CF54FCB942AC333DC9D102AB280062096A7328478EE605DBC0539844F8A50C96132AF43C96DE6149AB9F073DF391140BEDFA611B1B8643C3100198C21AA2CEFC08BBC3360E762C1CF8943B772D0C8BDC57469F9FC077FF30BD9FDFAE38EEDBF0A3180CAE53CF9EA23B6FCD03120193EEC860115603F05C4B9AC7BB578C9B3E09785905B18D241F4A9580DCC7CEB7AAB007847DD01D1E016CC01ABB14F32616EAE3DD52996BA69E996FE2721B348F84B6FF10527D5F47212798B189FB35F5D819B5B60152638EFD598EFC8A0F2F7E314296417C344A8E1EE7171EB7546D314EF59FCC48E1527B5613AAEED268BABD082F30ABE2F4EAA414709A93C895939F1B44DE483DF023CD6DED70C3F2A35E99869902ADCFFCB1310F618D317BDA728FE022B81E83FDE90283379822E606A7A75618BA90DBE050E4280EBBE685FF1DFB0506B8B323E6CE5C8CFBACB323371F23015D27FBB06C0625119759664C93ED315EEC39BEBCF6A16425464AF3FE78623E5E20E7BD96A5F302F1277C4752B162B92FDA86FAA5DE1AF80706DBE884EA55EBCCFB8D06595346F9C8AD64A64E3B7C1797E3D5AA7144048E3D767D715282367422BF019109EABD76C0A25ADEB9FB1499A8EB754869846512D34ACE9E03C2142A871509DA224256DDD42EB91F99A3F7570FB026958A0904E3F31EC0F897B78C6C50D254D89A835967145571E03FBD6C399921545C527934BE68B2D109B14D64370A902C5026751F826A8A238064FC502194DF622B979C70518EC43B92C70C0AA9E6253E92D2F414D754FFB349A7585699C436709B99F4F2B4A699DF7DFC7DA910A04316E9A6A1E2DA5DB3769DD3EF12D4BE7BEE433CD102562667D25CF9629C094F68B6BAE05CEEB41D33E57CE41CF78C5C25CD1EF5A96AF3E494587648A97A4A740C29DF64F04A95A2E85010743FF8A69A9000F249F78C202808013ED028E1DD710018A930017C924FBB4286F0AF8E10939C98B2C1E02404C789DCC35771E0A96EB9CF5689EF48C03B5F596667487A4794E3A3F69B5DBB534A229F23767255FEA1EB4B28874367E23AEFA66555DABBF347487C2230DB9ABACE40AA1D109F2F633B9B9091D64FDBF3D7E336042C5C686152F9F1A6C43A8E9B1FF5483C2B1B7C4079A003D6D8FAF1E4E8A32E8724BE8CCC932B8A474C3B89786D3495D6F0873FAA78E037000D3628EC9EF49232EDD84D1761BD9262DD799A170A998390AC9B8904C65D7413C0B20294D94D3C67F0B9E3B92FEEDA1EA7C2F6ED4169CB633C587D0AA606D9339103780E31CF465214BB710615CF29726929489B7AE8AFB26256DA6AED12AC39E901E984F5B0998423330CDD19892975671D54DF6D2D4387AA1791BF955AC309381EECA526DC85EEEEA6955FB38995EF1940035B2C4577D0DD9E665EC422CB076ED0484E6B44E761D3BA1873691FC8095A79414B46E14EF9572A316B27B442E32B82B0AE939FA347E2C1FDFDF11DC39B3EC2CDE6CE46E8263A912868562458B03775F9614107F670EEFA3DD03D8A7E9AD465F1616E778937FCD21408F84C23CE8FA00BE276CADA97EEF967D55F7A81C3AC9DF569941A8C03EBFC342699151F18186BDE39013F0F8FD1059FA5504F9F6D521DFB7B8E2861F499A88A624AA089C2B28B8E3318D69069DD9C2763166D11DDB91936E800B9482FD29818D6C6DF6791C1E0BA171CEECD53520CFB58FCF0793FFEE3581B691CF1AE67A995EBED7173AF97C61D891EBD53B7266D54369A9F2BAC8D2D9FED0DB2327D7CFE2D028D63F0C8C183F75BD325146F8E7E62AFB1C9F9F8642B9F6661505D54A1D1F63E025CA640976170A935588B13A8C26844BE6B2E2BC40B915E12C0140855220CEDCA417D1B17B8146A65F5FDBEF87A07B70D57AD01093FE7DDFE3A6D584C0E06C2454616F2BBAE6BB87A275F26498D4A78EBADF06FD1D562060B156250406AD0937CD86572C4952A786FDBDBA00A9CEF8D8B8C3FDA3A51CDB1AA81B3229B9C7A38A15430EF2F4E515939335904979AE1DA51B13E9277DE2E28B64EE587FD720FFF01163512A6D7D0B857ABF426D74C61183B952955E92A8E500A24E998423C86A117E085D13E376AA30282A2281C3EA2ACCCF5C69E9B92C8251096C04DA61C49DA309DF48098A697125FEB184113EE7D632298A50C60FF5C5842640C8DEFEEF47AA807D8ADA9E921A8F6395C5B0E0F0EE382C77E4E4F00D8A6BFEB57603D84E579398242266140C1677D0317A4C7E73CE399627526B15FD448E6BF27BB61E9F3514CE15FD5286A2DBBB4588919CF898C9A0E14058A3EFF0F2A3BAD192B5066B8311D5AB6EF1D1AE3A2B0C1AC993028FB7ADAEF8891E08C142648087567097349610D23CBAF06D53AD68169289959D9CA5042B9618757B5AA8A898B0CAA5550E8683E4D7752828D4455B3F8B6623F21CDC475341DB842F8DDB1DE93BC2A2DCA4A31D30F0F1A4172069DA65EDE0B577693BCCEC554E6F8B7AFEC6052DC0600E4448F39C26D9F0308C9DEEE7E27E2FCA558F2031433249324593809C74847973A5D6275831BB76240511719DCC8A3A487BBE4659E3D29541521E9B5B3FB8067879432E65329AD1469528049B8F187A5E81D1E2D7B38AA831781DB3B70EAAEB804D04B2C13BEE393BC4E9790697EE6F6EC1416C62A4F5F838AA1FB5C0C16028DF2EF24828EB13957BE1A90643E289ACF51F91439DA36B9B6F43D0F7399743303EB070FF70F048D7DAAFE1A972A11FC2180AD2D1DBEF019D142934E12B7A61A1E7892C53B6C5E85BBF0B653122BF5D2B02F0DFFBE8D7122ED973A935258A4A615B17D8E17428632EC2410D5CB74743E9D826F48B9D5E27B6513AA35F4B438B51E2B6249E343BB533F3EEB0492A8B2052F6130F02CBE1BDF63F23FA5DD95D49F36F084D4F098CA3C36649BEF60A9E1BC11042E96BE0395DFF386FAB8F04482907ACAA5195BE1A64D7AEAD43CAEA5BF444A3313B8BF4E3B7B03606EF5D428CCACA7FF2420B0E9AC106956EB4530B62383055C22134284FF6FF6A049AE7421AD5AC7CB9E0E61172F45066FE8AEF63A7DCDC87D56FB48C93FCA60C2E2E63FEF3D08B8E612D932C7730F8DF816C42373B37855B9AF73614710BCF63BDC09A04A7AB10822D58237D0AA4C533486EA36C333F0EEB186DD2777157D986A54F5FEA3166C7767C5450A1A32D04F20047ADF7B6DECC7F9CCB2CAD74874DA5070126FDE8E29C5E1C2A2E2CC5AAD7D7DED19933DB972BFEB5FC4F2FDE0DC750857BF9FB4F624D724AF53279CFBB088FA4D147BE7EFC93CCBF53FE2766F845923FBE3293D34C53EABA2D9E6142183CD2294FDF2428C66BADA3AA65DE667719398FF224B4D6800F255EF978B3C47B88D413AE32A4C81C5277843A86B298E35B42EA82DC228B9BB37B71CEB9D20A13B1026A2B89E9AE69E9EDA40D386B16C17B6AE28587358F8A332647454DAEE831DBB27911785E2C8EBA31B8EE912EA8B1DE9BDC8D5A5CA895BA4C2061315C62280BABF36070EC65BCC80688DA10149F7C262BF09430E79CFFF1EC50FED87DF356CE7425E074BEDE9A6A2F3589EC4584C005646C54224C4AB563B90C82388A8ACF751FC6394E45A37661A88EAF6678BD38A8A90D11F241E79C88C68EA435E0F381525A394BE0ED84338CC0831C230D0200FBDE95AF7184586FE6BD8C56C9F96FEFADB660E651DBC51B716851F42013B779E6E294A3CDE0C13842176575543A00EAEE70F2F2353614618536F1438E42945E08D19AE6F536B89B6EBF70F2749FF3319C20DD85A1FB895973B24D016FEB9C9B67B9458437AD1742BC1C4EE9CA5027CF727D64E2339590636B2245F71B057FB3910B0E918D612C744F6F26186CFD8D75578D473F072FFF1481B0B27247778BFF9D93C995AAE28E1B59D20982485319C38A6F4F2D23843DE2EB9FEE381EB69D9BFC078BB3E96C6794159D5028A2F76CB2C0FA0890C0BD0727C0517A6837BBCFEE19DBC02B7BAE19DB25C9B98EBE739DB8A39AAC8640A2836D29126592C4AD52EB4353030000C90D2A50BE186671C45736B946D4564B945B0D3F5E12A4F58C08E95FCC93B3AEDD4B3F0AA846E95A481C6997295B8882AEF7C1759B834D1B7C18CC52BC95B7998E180D9F60FAC2B5CEFF7E9E932B14DF5FCB22626268E513FD5EC210BCB72E3CAD7A1718F6E5FF64927DFB303A555279C3BF7F04EBA92A1DB093E10F5E2C2E27A3F86CD8D7268C24BBE07C949B0AACCFF3F130CB39F287BD60679B4C294C9C45F93B2AAAA19A4FB0BFE7908D4C3A4A842EDF73A41F3B38D4155F876040E961884F799F3B467AAD2A054F83960CEF85D2855C6AC61F36ADFA9DBBA5E5E8D83E8C11A3FA1BDFC5DD67268EB04F3279AE80FB9C8A87C9B4FAF40991C2245F053570E3EF17486C108F10D18BF319077D69A987DB444F602CF7AD747274268ABE4CDC8E0DC6809A94686E47323F0FF62C8E04C85D3809B267AB6DF333DA22896E722F3D8DAF552FA493AE531B4E3E12A15699712FF0E46449A6AF0B27167768AF393B27789AAB48B994DAFC96E780587409298175F01C97B49CEDB5B01784AA8D56A4123A85D13646144C6D47EF322C79C76CFB69AC44C08D30624AED2DEE50E1FA2B22FD7C36A6D881F65E714F40851B4AB05A93AEFA8BB9B16F253F1A63245CD4D0E8BAD934B01B901AA86CB97D1CF138C1D0299F05BECAB74DC828179679A812E65F1B663C6EA87BAABA790487B65994E01202B85A45B689D1900CC37B376530B88DBA9AF877E9ADDE4025C641F7B0D3BFB37FF272FC28452EACE70A6E4E2ABD0838939F05D1BF04C45AB041DED593E777566DD959297DC5B9F8A6661086A9D9E8B76384D0A77DE3DADBBD501F62F55D18F1C15770054887DBEE272EAECFCC0FCF6276E7B7453D79F944E7C2A1D4225398C51F922215C30D28385FCAA1B03C0E58446617985537A5E76EFEDBAE6782776A008A9FFCEBCA19ABFBA83C49F562F98A6CC0F02585097E029830743E80487980FA73813E72D522173676319DE32B5FD7DD3947D6B87E104DAC33B6200B4793CBA7AAF5BADBBD65CFD315B884166CBF3A52E51652D8F6B31F5F10A0582DA9C52F85235BB7EF3422BBFF9D0F85D717C0AF51EF841D53B662E4BD652EB355326EBE712F548C9E6D0542A18DB57BE9BC1613404FE55333A5102A48854CB82BC615BB150D59D6702065923FBAC6F8F0DBE940DC6361B58699C77CEF35359E4D1963DE0439920F5953854E3E8BD22660CEB33C6D8A4A12A4567A83092D9B299DB3D2EB3CAF3D1F176B0B995333FCA04A01D381B312696C9FDEF2FAC751EFF23461315BEB5DA9099723CC49BE957EB5AE24E0AC626F8DDAB578E1F267ADAFF84C122A3D722A0B177875362D2A0FCEBC23D8F79992D21D7B99BC184BAD362111ED027A3332F77A87A801B805491AE64012E268745AC45A949AA4818915B13164027FBF0A8BA8058627D47D3C856760E1A92D623FEC7FFE23B933E681324C2A6A3D7835A333139014B5D18D7BD03AE77ACB7A557A8CE0E38C1DC3E5CEFB6941209916298FF88B8A5DE43F4EE4FCD344306E8AD2DB527739FDE420D3EB4706357D2674BC1875F10DD16BBA6529C440801314EE22F57497B46A08FCCF3BC2A4E5C9A6651A822C2F2441826606EBD6805D24D5F7A9C352B5AD88C801689F90F3A65C8ABDA4EE99CE1C547E3F7BBF2F2AD9AA7E1A58A5AF50D808BBAE38AD45D74D131E1C7A3710B3DBA7CA0A26EE1E112362AE99D168F7A7E97E74DCDAFD89C7AD524FAD3A2ACECF0271B8498A1428A274163EBD7DBEA3D8D7174861990876BE53ADB77560630C7155220A02FC73C5B788FAB35D2504ECAED5E877932BBA86902CBF7532925834192D5863348DE8E4E9B69665653931C842CA8D77BC63DFA764DEE901FBE9C873AC83CA60F7AAA84CEFBB65420F6B5D354F8F2DD087B4591C892B315222E4BEC5F735BA8F30D91529CF7646BB72543A4343405489EBCB7EB0A234AFE9127FB36985029E8C39D416CBD88414E8BBF69AC83209AB211F7AD81F8B37B28C8D8389FCD0D3694534A74AD19B4F38193624697CC68AB72B93AFF47CCCDE9713A5D68C13EA800CB194396D38C7AFF0290C3A0A4675B4312608777AD5A81BA1460E8BF752AFC1E15D4EDDE5D17D556A4D7286FED64F776B07DFE4CF1AF7E94CD2036D2B7948FDC84085C09D0BDBDA41156F0FBE94B2F4988C91DA660888B695EEDA254B2158A830DC4BF7E547E6DF1864AB1668E5B548547127EF6FD0514422828C445CA90AFB517C093655454E42FE0B84227D6192B9E86FD20BFEC9D749B513C7C878798489CF6063CCD5D6808F7DB88C335D02BA2E4D95E50A3CC5461D10F90574284615F693074C02CDF128734EF86ACDDF704D60147312EFDB0EE27058B95CBE9A3D13599A269CB2EC1EF2D9865F6AE7A9C468E42B4A3E827971A1232BFD799E8FC64B373B1AADCDA01F115C12BAB67B8EA1B94BA3772B2DF1D21A5267BF193F7F91778716E491C4E5F3332B03D2303F048BCB6C7AA2D46C5AA03DB2936A19BFA2E9A830373BB15D5EFE2CBF8E8492C3F57FCC2A20478D5AB78266B35BEC34180D673570705C521C44419DA498FF936ABDC3EE8755C7B80271A01C7FE5AC4D624D42225CFAFE8851DA8925588B864184E9FC151EE3F8010E722DCBC9AAE8A8BD375F885F1241A59222F8B9A91CA68071E58A35235A5BDFBCD5DC6E9F1BAF840DD36783831D1F3DCA853D4EC2694F9708AE7FBE2F3DD1F27F5B3B20DA0C1F8A295DC1C2FC50DF26C5A5AC7D377EAF9B7F77DB43096C3170C9ABE043CD2F9096553E881B028285AADC57681F0532B8C3D6494B807C4D455AA12E68913F18B58FB13279BE03B6FC8D9123FD6A6F7FDF6D4C1F64D748EC4F03047F1123FC270B7BDB1BE03E9FA14E5EA95A2CBB5DC8BFDE9076E68D89FC7884722E5D7959251A436CB96B09359C8A892781D907EF551D703A49D94679608B20BE0D8BA2EBE61263F65013640A413A88C4D5FA6D618870C91D9FE3FD6682C8ABB47336D05FB8B12BEA97E0AD3DAF3CCC529A1FE686E6DAD4ED4C6AC4ECAAA807082E5272C4EE3EB6E7CEB92A0583ACB2DB8E9C7325B6147B1D9683C6B422B74574A36EC2497C28B2D1F1B3C99332C6F8CB3CF20D776CBAC6D6352D97A6A37E658FE745B03BB74798CBA5244BD2D388712E680183C655CDAB36B222D600980D6B5978D1D4E32376C0B72C12E59DF545682BD8F308EE28A2ED6121AD387A15FD1DB442F113636C1418FCF9DC315D02A5DC3C3E2208E644CFE6A4BF423E12429D1C2FADE64791F9712FE7B9E6E0628181BA9C0EB2703310CD3B4CD40F0F4FB66600EAD92CBC1FCE7F92D069472DEB2D20ECA52DAA8B8763F266F9471819725E93E13A72B9C0FE625E8D03D2D4940FD25414926DCB207D663CAA77A174C67C319897517820DA30D0051B05722B2920DA3F5AC4D69487A209DF81D511CA61E01A79B362A5F82C37EABD3CCD6394569CB231A6A5C9EF472303D81AE8767DC062D0725F682910201BA540F973208DDED437DA799E3A481D96C51D0B482284F63317DEF8AEC8BF1D108224907CB6A8868F2C007EAFCB63D1A95ACDF43134E87BDE659FBB28BE4157E6854A4FD9FBD125A4EB0B0830FFEA4CFB75E5059D7181BF3F7969D2B3A1745945178157C26A59DC0919B07F95894A9ACE335B5C731EAC4925A11768FEE2359E5E7E20AC72C2C0D5E93F6E1FFC6C808630A340FEACE65A71B5CF96E7A499D749C173B0CC8F2EBED6DB9E127E24C9F07DDE242C50A5242C8BBF31BB4095B2B4CCA14CE1B286AA854E442BE8CD5EE9648CF99E7C121D1CABC4063AF7A8A151F3AA68379A785DF7A3F3BDEB85F19F5848587E3C62134FB7519E420CFBB3017271B06263262DFA10D7D0237D937AA1B1EE6AA24ABB7EE86C0CF25438C01A42419F68BB7E65D63C0D38C4340EC0BD8AECAD772132C0AA792977BD61C3E0386494CE9043B1DD42511C380E15B878C23224537812A55B1D76E2B48E25E35DB925AAD2E4AFDF05DE80A391218B0732BCFF0AB6C99A547D72DBFA25E58C4D9941B07B575072183D6DD2FAEFB57F34E47B737E509144B6C6F7C653DC70FC0F3B9F49EC4729A033DB230F09658AAECC77BA331255678C41BCFFC1D9BFEBAF7258C87D7CDBA7A3A01E501C2EEAB08CA584976AC9243A283DFDBE2195EEB991A247B892D9DF8B575376C87EA11766C3F99D3E35A3F85EA69E477A8B2AEBBE5B1E77A8585C9AED0BAB71741FC5825A50E43E1F5745063FC9D728BCA294FCAA16459EB66F9886255FCC83B9DA4D652DE29983774FBA073DFE49FE0D0A2FCD8F9D6ECEE6305DA32F143F6DA1A91832F7E7B97235348981E0BF0C9687B9CE31496CC7054C9BAD0DC1B2E798C76FDBA4EA6739535E310076B87EC6830E25F0E02786F1BA3D795258646C330190AC4EC687A248CF6A768BDD6FAB089400D0C87C20821AA2D0AECA198ABD58B43B4D3B5BFFA95EA55D6A92B56324340F0027BAEDBA936E5CDE1A52A531F45E3C2EC6C0135B25E52B17992DBAD707D418ED48168012D2B2AD7FEC1E92D6B73AEC594E6ABBCABA1E7770A802854E681460EC353F90B72A567D800CDCDAADB0619143EF7BE1597E522A3FCBE6D62592CF10C1308A6EE64D020E17B96510AE8A8FD63B392B532795AE67C19CA489059EC7EE2CC8D3C7BCEDC61D15F6CCCE708171F55A4E9D378364211172E624A791A631E92CBA1F624B009B36663963BD43FA7E587CA62A59B859A8A84BAC15A10E23DF9E40A7C352328830BF5E7AD68124ECDBA7EA763A1BF184A76DA4C4F17F4845268E177DF198AE15E38B5E7FCDA2C860C08AE8EDEF50BCC365E75A8398914EEF2A1752E703E0A59DE4A66E5200C5BC1749F849E488E50E3D14B3784C62E933418C62887FFF7AD82096079F352888B3E2C71C5B6B87890FE97A6F28379721268F1F61912CD03AF7DA17BEB6A7A976B1640FBB35BAE41DFF3915DC5B26FFD7E9B371636B2EDCD791E95E063144DFDE59CA9C9CA663E0520ED86B43D5F8D1057B48543168974F00ED174E21A47921B4A7262023FB2B26B788A89FE72193DDC710E4813500D483932F6165D34577A644D3B917B5A8E3BF4D1F0D7E8DBD206F132C758532ED6A41A7E9738436EEEE617834B52120623FC4EEC013F7422507AF9AFCCD2B37E6981C83D789BC707B98FF3C01D5A2C1B4F80D09FECF0D0896423F073525860BAE6CCDF0F2164C73309BD12B87D8FBE1E58CFA53FAA62C2D50CC13A8945F2C45B61878C342B022EE336786DDDE8203C4602B89EE9A76D76DF693B4F4A6484F104B9435FE992FA9550636DDC0D8E30559652872AD28339C20FBE5FB54EC93109CB7806A9D7EAA2BFE96E21FDB025CC94817C244F4754DB4BC45E5141186F4D28AEDAD5174EDCC7A2BE293B374270B59D65D007B8D09B755D5E9B4BAE5DC48222EC147D92B0F1F15DDDB387A9C42D99CB217EF0109654676D7D96C6ADECCB9D62178006AA2A83C2B2CE8BC084653CA38DFFD798000A55A4A6862280580F3D0E6B2B91A45611A40CD0F3816726604007B2656F049F58443B48E952FF9C16284820A64FFEACA0448021E96223CE0E58A2F2B53341A8951D3EBA3A9AE74C2E9696EEABE688AD55FCA1D3A0392D5360934D43C7FF3DD4E8835D792F1DA1B8E85E07C586E5856690CA84DFCEE2CDCCD9C74E130C82DFEA9C0D2350213B00684E4C6F38132C2E1B725FA72032A1D50392AC880F81BCEE0274D2C85799FA144705E5A1F35E8FD630CCC194072E27BB2D931096699CF669A80021B0125769DEE54BFB5D82BE0F1E8335E5BDEFFA3B1C5B8CC119ABA541312992594549358C34A2E73778362AEEA818CB1EF78BB67B09FDBBA155875DA6696FC7427D3BE6078B314D56C462CA4D63616DF792A6FD4F34E7B616A3C49A647667F50E23855C0ACDD266DCD015B44677F9A6EF1C57C0895DB9107B090C68BC76231DD6A2B834011E7A8C0B1E889406FE1A125D71B6B43419DB926F06EAB8DD57259865F542553AF79F9EF896B0D0A9FF6336C0C438969C4A009FDA6F5D3D1588F3C95CB5F489BC7B1563DDC9524755711FB5867E0DB366DF9213E298231F80402EF1AF3A068DBC6FBD31FC12F61B194536EDBF92BC73231152B4A01ECD17B9504DCEFBBBCA9534F00D9D34B3103E5AA90583C9359E4C0413A4BA5C326A5695FD46875BFC385195FBC58BA445E6F6EEA7FF1E171BA84DAF46C8A1BD4A61D113C2A2779E6352E131AA21FE3E4238CA34688DE89B04C54BB6273FB03E86E7CEDECDD13835CD9A5E5388807064E4B079DB5902DC47F34819FC7E8B91478C37DF8C33C6552E6E17A5E97C3450D8CE65D6ED8C90D774D015B1635E5687B70BF728D77A800509A2D7C459AFBF2BBB4170F8632B3DBF57AC951C9477D01B22CE6E0A1E959AF8122353C0CAB8DCEA96C3A112FEB8C5085022101A773B572196565D2B11B7D04395E212E3FA7749D1BFBE680E3BD164B2E3E7710C288EEFD2E4A1EC30887268452017E0EF6A17E0B73E326F4B574D76327A552C242D5B961029339D39FE602F5621538A5918EAFE1C070B102073BCE3BB2F9F6E5AE77921582EA058F77AAF3436DB842D09739D812E981DA396F03DAA54CE95C114AF0A366A00A1608CBC182AE4F44CAE2063CE77974EC7C7EBDF53428A02ADA19057E57343ED952D2E31593398532871DDA6CDCC48965BC494B2799AD3BF34F9521BA5485296E4220B766624A4855DA96BD58C1033549AE4C4ACDC75D522FFAF557074E6BB17E29BCA9A00E3265DA8D647EEE28559F9AE4DABF56F85E99C11D6F9B51EE9224D17E3DE6260D1456B942CDEE8533C80FBA3E78D4615645B68CFFF448CB41FAF518820EA64EAD40D0CE1FA52E334F1EA9EE8305901BBBB388FBEC5B608F284DFC8D1C828254C285E4AF567F8B54F813B3773D161550750256047BAB7E3EC564BECAA052DD62787412C24151B6CC6B389216018CB08CF8DE557C678A287E3C96E865D5126A3F7AFA09139943D82DC323C9B744CD0C559FE796B3F93252B63DC8D14CCA7E59BC2242E67391436B57358F73545B2C054C414E3A16563946E58957B2C13C96A00828B62B8A7DE8C46372AB89D5F8EB0E84452F5900C9CB5A8B24809068F04B45AB60BAB7400C4AE5F1099B4886255C92EA330AD7242838CEE6CBD24CE8CE1E54CBB6997C7DCD6810F185655277284D09F1A35E31B569F0D11677209FC64E922C28B8818DFACFE0221F73CEE08FFE7E54A0AD490086B078B6F7367350CDA18F353C4C497DE0A829CB210392A704EF618F92D6063622776F9852A8A3BCC5F04D9BB4CE565E8F32DC02FA643D3CF56CFF610F5F41BCCA4468F2BEAC42EAE5E4550A9C5B8E728F305DBAE2BA1398A5C794B57EC5B9A8FA4A075FDCA13342ED68429760D933A96A9452E4870E15D3E214E684AA3DE2166459E24F506AE05BC7DC306EDFDEF5FCFFE845FF684D574C596CB18F200D7A0206C45B658B03D398F1904864AA7B9734A9CD9B86FD024FDCEAADF8B9896128F36D8804F02EE11AA3A3FCCF4593A2963D1FE254C43E20C064EE479635C9661EE7A5858B251722C48D18A861F48850CCA91886687DBEB546030FF4856EBAC1B583A464777ED08CA47B5BFF5ACAC84B5552C63E5BA747EA603620BCDE732C26642E051901CEF4B356821EDBA1C88786FE1EAA1BF61D4F11A1BF96CFB4C4CB0F9CE04D83FFB14C98F5619CBF92B3F702B59644E8E83228B15D936B175E7D4FE7D08E1D671F602B9BD04AE8249B7E75E07DF2A477D53A3252631B1E30BCA6D83250E7CF7769F6F300F9B5ADA939541644668C01DDD9026F9B4BA1632B9D93442396B9DA2B2466C261EE9298BA438ADE5659900D61F983C6158093584487AF92DD0ACDD8B14D2FD37C68AD91FA54C21CD7B344E254F47597A06E76D4D22C3B48B686E53DEE3DE9B74A91B4D132C4A470F246AA109C2C0D24FB004DED82EFE0872B3DA606AE56CDBD65700DECA35DD18393BA6D1F8B8266F09AECA60631EE0058F68B9AD352D522330710C6C8F99AB2A30702635A5F1BFBC6E84688182D35ECFFFB3970421E83971BA4A391AF27708E88BB556DFA22006E7EA31ABBB7525E9CACD1A471707612E56428E386CBD5FCA31DABC0EA700F9D4767294197B2DAD76D97644E90493055D731EA57DD2C6BD2E3C6DD5CA154E3DD9474251182CF5CD7E7E0B49FA6C0BAD29A8AE0C874DEE5E2CE6F55D86BD8B82F8150F5D13EEAA8516AC5DDC848FF2872AB8FB2BAD0DB56C814E656AEC4B8CEBA2222C20EC795750DE92A36FEEAF7BCA99377ECCE98B4BB13878068A26115ADE53D0E41BB672BD6B2D3B28C5266B7528EE609B8F39E9B2C3B27422E26710737BE40CFFAFFA2C7E374A9BE8BFF7B3363A9E7973D9BCAC7B3DA9450578DB4D11CB9598B80AD4F1C2E421FEF5D8765EEF9179DC6B921C7317561794ADB6F93592E56345B6F563D11F5167D58319F8AE7B0575218383652AB0EB82D354F203674A9CE3EC3BBA8EEC68FC7863DAE1ED167190054432EAF24B75AAB7ACE574E0FE05CF8B71734159B07A2143107776945F4187A20EE40CCCE3A9E9C92E5A87A096FA5DA96945DF0D643763A7DCCF6E31D1BFDD76E6BBC0DB232A5DCEF5A6D4262AD0FA86483A3026A9D30E4D75D7EE2910716AF943D5D70945DC586E5AD52037FFABECE21A08B0998324C95D55C9D8D082A34E4F48E4C6E6DB5B9F02E08D9B6D1BBCCF0D290F0ABA7ECC844E2A28E52254DF4A8B577659B829C85E4E7B76D8D2E7930AADC1C99959B6CE42034729163A2FA36B4EDA96EC9895EB7AC0E4EA3FED1ABC6DBEF82BF787DC119BE7421D9BFBEBCF87650CC615292C849D8089B0D69E638A416688DD74C93565DFA7771E58E576CCF67D1AE2E66BA15AF0747275C57E008823FE1FCEFF8BD822C103DCEA5142C651C6FB70CEA9DFC2EF2C2253A3F8E41309B997F4029741DD26D988227E9D6BE21E458EF08EF073E66D41F1DACE3E13D9CF0AC64DCAECDB907CBD1F91511C492C32907EF320C1C0DC9366E253A7E71034C26712DA4C4BDBD184E5EAC3799828404B6658F1480ABD80777866B9BC8CB119E01A60EC37916B13F5F079F34E8F9AD6FF8B8789F50601BAB17E564A4E09B8A8A4F440E8D0778904370BBAF907B88940E4517410D55BAC957D6EA5E129645D777B762D6C06D0C828E712B95CCAD173C376EEEE44B265145C9A380A7245EFB78BB610323300141442F0EDE2D8C604CB6A0AD399A9BF42F26F73561229D1C8EC8451A43B02E1DA46B89BEEAEDD63647627DC67C679CA7219180958A732FE64049E24E61471E0EB4D91DB4303884647962B3A52E9A371F9D3A00E630E45DEFF713AE40BF36AE5B4EC0CD7B45CD0D417076FDBC1A81A26AFEF2532CB12EC61D4EFF08318E6C2635AADB6E6881B6B82B56D2D532278EDB7925AD1C6DDC3FB2A91F97714CB8EC15770622FA66124094501003742F542BA4FE8EEE5D598973D154F9A2D2553A73078553EB7B28C3CF88AD523BC8C3A617310315C379E4697CEE84597AAC4DA69AF172783CCA553C26F4EA6A1C18204385FB96030E91AF65699820A340C1F8B779CD0C8F3DABFCA96415BECEC2BD66EC4C21E89DE13CEE47D603BA03410740BBD5F7A432812B208B84380807CFDA617788E24EA3BE2338FB5BA4305C51537DCE4057C8DB86F9E3909269B79276AD7B306D963B9E6369DB425775FCDD4CC1582BCAD4FCD53507EEF82167CBAFF617A613216E080D5E1C98DAED7363A43A76DB05BAF0377CB33E1CFA5CCEBB972CFD23B7EF53D29233180246E6A6C3D28CCFBEA44E7B2590CD7D242D6EDB1ECB947901CB1610CCD9D6EE2653D0AC6D3E4B3EA5198DAEE36EFE438C01AF5985132FCC54DC0FEAE38DC97A0FD7D75DE6FD1C3D6FA0D6566AE9C62F5F7034E63CE5FE7A62E9F7C8F6EF1B877E996419594B24354F028E4B5E15F0A148AB41747C7CCA670BAB8298F61F4E1BA2E9594762F9AEA9EA7E40B297B7A40498C16359F38CA853A1155AA21F85EC47EFA57477DB0010488A2F21550A353C40A4E44735F8D612089B05C8A552ADBFB78E96CC3908B19DCC3EF19AFD67233D96BCBEEB4552118006436FA56C3A114ABCE42E4ABE20FE5FCBE9A708A5E47C0770B033E14DF355826C602B28A8EACA3AF09DED004707868A9546EFEF365F2D7F45753415C35A8E7D0FC328ECFA1AEDF9C5E36266DA599FA87B3F645DC334D80CC466B6EE3BD9F16815131F9B588A026001E3A7C013859FD46175CB879B7D8D00EA9C621CD66877AB21C4E2882C98D5CC97BB1C8C8E5A40CD4E8D8C57220B685116AD5D385C72AB325007A7408C6A88286C65BD00DEE9EBE5EFF33B0224443CBE4A03AEFC74A2B2E80640FECE8F1EF3608F4723F101F0CC0508AFFD0AF5ECF421BE9E159A505FB8E2F3CA9E3CC35019F46C449DF7BA1E3FF04843C439D95681197E5E2F0219C84D293F386AAE0BC48F3074856220D579F67C96C82CD90AC4CB92BA534A0E72C1D8D45E278219261573C128AF07632769803B7A7BC57DA990FBAEDF2341CCBC700D2CFAF5105934934F85B620B60C34708301F0F772714ED0AD2A9BA8D7479ED40C8BA0144458FCF9A196C37CF2DF5FB0581565C6703D59E8C3263AD6F3CA576BF874D4C3D1F633662B5FE0D126254734B0A04E5CF4E8ABAFA9338A1AAFE9C614985045DD85C8C4F138EC3A8DE5CD92D43C1CECF2B69812016ECC0CA81E689D1F77D945F95CC8051F2C3B62CB8D1E30064CF734BC773A592862A9EC04D4C97D0373F771FF621EF6F4271DD12F1AE46598FDFB45576ABDE7BD2D2756732AC442051349C837351DCBF4F110C2CC7BF2EA9FB9CC58D601F59AFF080020C8BD49185FDCC22C9B43E83E4CA6908CE04E781B19AFDDBDA0BC0E2E910858D1F054BDB6FE0CC04D58462B7EEB8AA123B1B174360CD9B0FE7C4DC821BF518FF91F783C4BFBAFC2448A0CC99DBBDF5A7C9B140FB95EF4F49EE684DDDD592C0F92F55D2F32D44589BD5FA5FF59241E5FC8E5DAF15B4AECA39DF269E26E143E14771A019E77B0C34C824D3346C48358E662B0649453BCEBE5D2156303E9D8DA671B256D86F47126D97EBFFE08749B517BD405C5D61197712739913D9087D9CDCA1C79757C3D3D1593CC6BEBB7770494A18EEE851AB6AB8F2797A07E570825958C791BD56BAF31C1649044900A37A90586AADC1A9E69A85C2FE78B91EBB0CC4F5819D1B751C7ABDE5D2E72872B40E4487663CD13C17B0592DDD34537589152871B7EC30B7D6B45A4E35D830D68B054B6C49E5C6EE74927A1B27C30269801B893310B4E1D8CC04D8FD28FBA2B7FB3D4F203EC48116F521FB9617C997320CC9AAA12825D815309590727719E059A42A77071A36FDE918A66D34935AF08FAC1CF2D9936E856F6C65F8107393D8FE915ABF9BCCA88AADEE3533119713489F32EB7CDA191271C0F5D3F2271F620D1397EEE98426C1BF2A0D1DF5F4C4B47DC124A1CB5E83153BAB34C2BF8B7705740DDF4E06BAC09A85CC10898F902DC8B0E0F360316534DF5D8B2CAFF2A91CC57DE31568329AD03A751706E310E6C5BA5460BF7B49801981C904801CF1385D431D10ACC0A4DD72D28A789D19249C9B58B777F2895922A7B4733C1CCEBC5A71BA3D0CB615120D3C328BE670AF628B62146B3581FA3B5FB3770435459587EC16E3EB8D20E162FD331DC921DF98509B2E6C576C8C9B21FCE840752220F06B7083AC1137E2C324BA1586B42F6FB0C34BC0085C3F0A235CC3F3D2800D700087A475091EF1B823ADA7E6C8AC49396CBC7D56AD88841EE9B2C4B01F5BC93D9FDFA62C85F974B62FA09D7A2594BD2A102A959AC913FFFFF1C1A1829A47A93EB5C8EE31B239D322CD369773465A637A9D163FD4451495FE5C9F6A1875234E1B9BEFEEF1FF5C8E6DBAC203F2B751DC8EB5EFFA89C203C860B3391AB9F019DFD182128B8B77F46616DB832BBA902F801DAA90800CF809BF23A8E4312B29A875BD318FEC3353A84C366C75BAB427EEE597A6A8EC27F0E183B3742A005116602160EE844E8C5F759C3D33F5D969AE540483130D87BE1615BF606AA0DB78D763B6EDD58C84C410D3C5AA493F932F93E0BFA1D3C269A73981904AA858DABCA0FDF531533DEC42EB143BBD4FA0B7B945D21B20C45B18CAD1C12C8F86C518D1B14694DD06C8DFAF6514737645C1D509E62756D1850D62A5E69A4EFE6A9EE292912F522394D6FE3A9D466EBE2906C8CCBAD40B7739E9492D2EC5B302A93FE54907651DE583FC03C0FBAD3E76835CC0F7A7683CDAC2577C6D2EFD0587F71FCA320206916DE1CF4569C181DF50DAF0EDC8DC376B7C294AB405F11E15EADE3A4CD89F5009A6C1E7D5F01553C43BCFFD5D9B2BD2DEE0CBCE6A35E6B565A4EA9D5C08D21D2AD1C77688B7B212493ACC1149D47BCFF4810BCDE93C61D721B9CE2C5FEA9116BFFA78D0233B9419346522E95579C7F7ED27425AFF2329CAF1F1EE77087B7CB926EA1676A4A496306FCEE53348DB38E290919EDDEBE1DFA253BEC08500151E59CAA97C480A3424F1396ECD19389C1C854CB4FBB383DB91CD55FC9917F02C000620DAE8BC0EE18EEA53B2F8B5F338FDD7E8BF87C39FD76D5BFB44B54E8C7B9A009C72C7B6E33243820C04364DB360E825AB718271F63927F82025E8005D1EC2E5860D6CA5FC54A8D4B5249C6F9394A91CE3B40404428B927007D949490A06AFDB3BC97194C88A2A7140AC3F46F93661427BF638EC0AEA50AE391453D376E42FD2BEBAF2A2C3C59C4353CB4EC4B088CA007489824300CFCF0B88306C3BAD7DBF9A09FCF1B7E9570369D22A0D968E9A091876BFC19461DCDBBC00963EBE6D11DAF9E71E93B3B89C54D78FE55F18988F4A6CF653B6354BCEAD37CFB79F8A6E69B662AF4FDF2F6B73043DCE49A3E625D3ED72582169173BDA30841FDFE9BDF101B97100C5A6CB6D70CFABD6BBE0F8D660F0DB10D15464C19ABC1BCF6708800AE485C46093723B290DEC68B054A2CA4D00A65CD0D9158221B128090705F5EA5B5B84E9E34B297DCB2DD600E66250A90156CB18C3D85679575B4FDFBBF642BF143F1D399DEAB89BF0F0FEEBE483554ACC1C486942CB9C358DA96EEC0DF52486F42CD6EEBDE90C0A63AD1FDA5038AD2E2631F3FD02E26E7146BAEF46C7FD1657979EAC547AED1095D0AA762C193DE70E0280D4426B5C41D1376461A9080522FE3BEBBA984A912C5203DDB67ACB1592CFA975B2170AA051E3951D7DE0D850226584FD9289EA6AF8EEAA1FF9FF3B299B8F64722134614DDB55BDF9D29A9F090631DA6E37F7227B6B779AF2E08715232B6CB821F2D09E48666B046934BEB69B2E151B8A5C1DCF4DE84FBE267E3BAA7608478EAE8EE5BE753A9AE4FEFC01C4124074BBF5386ED50E2FB4B8FD8D583F1B1139751756E812C75E451DEA29FA7C7C150F0E08A0ACEA2EBCF0EAA0CD7D403DCB4FED600D985F9240F80A4208512DC9B9C9322777EFE92E583F3369136B4040A174AB1C07A3B431E38700E1F55AD37295F6E90C10730B755A5A5E0087CE13212B2421DC902B852FAFD2086E8073714C000A9DAFAAD63230958B1B74F066FEBF93819EBCED616E1CABD3D6A611E8F0FFCA11A4D7537D7A993DAB319098A503C6704CB48C55C19DC465D0E4994943B071CA6542BD4C2D8694CEB4B9F56245B00301E6341173B4E3D5EB4080484670462384BD0E001C90B2724A2A18F85B987E2C917A60D92C7C46E8F902FDFAE84E1C080F9C7A3762F40E60206AF74EB81FA9CA30993B7236FBF556C00FA42E6198780D82B50FB73B1B1AB339C8240032F74AA009B7672C40C04F8B56DC5C8DF77801C652D526495FCFB9645728E994B472A9AFFCEBE51CA0322BE8D5F59A97C9680E234A46F495084D8208F31CAD3402D29176AE1242925241135F5A284F11E72CF16F618E7DFB0293E0F70A90EC83348EE1932D2B64E89D12C8E3B80854256724344D11DA788332295A66FF6167C7AF4A96B44120BCB55FAEA591070E3F8A958A1A60854A30FA4B8A30E36EEA05AE3858300AE717BA3EA3A95377CE4D91595BE28A91F3F82B0BB8AB7825B0ACD17B2C127892D110D2F3C13B9EE0CC99EC03AC4A464D75DFBD7DCE8978EE9342C6BB3FD7C75C30CA71FA029E0F69E6778A5C2EB7D2C2E9C6F2D2B7D9B882406B9135363BD94DA02F3ABFD7DEDFA730401BBAB81791367B6534BDEA1CDE03725DDF7AD558F6BBDE16DEF3D78539CA8B1A8BF9EC9F285E7D15D9EA2AF135DF58656DDA9FA4821D7D94E16A8C39B701035454BDA4E429242257B03A66FB083B0CDFDBB9DC811E824A21FBDC734D61C5EA98BC595645772D0A9A4EB2E50CAF54F48C183D839123E73D1407D4BA44487C92ED79C0EE15B959CB0CE407AE48EF8DE5052CFDF240BD6726D9A60B114D5F65EE2DB9AD1C0473ADAD4250CE6CA3E22D3E836479502B52548DB53FDE571EAB2016369CCE843EBA0A79E2C6D2FDABDB0C1829886569B1FE0B52D85B607163050788E41C0B7E3F39AD1FA8102901680FED9BC256AABB425EC37C1A02AB5F18944763EEBFBEF527D933B846A3631D636981C35A642DAC1474D6290A55E56421BD4E9D42295B8EA8CBCB11CE2966D2F93C0DBBEA8C4DE5378A19F836B500DCC58F4A5EE2876E46B3E7C22816BA74D6D0B817F4AFA77C52BD6C1C0A193A0384B701A90C5CDD8643EC5DAADF5E4B9AE8680922EE39AB294E010A31693E4E0C9BB0CFD5540ED0EA3493594E2C1581CAB732316CB6A20B99E1F24120F1D903E3529693E6F311325528BD9DE0755FFA564BF035DBEEFFC11EC5BD38210CA5EFBE3178A903086E1019C342508223254AE67042AF0C3F5DEC6922BCD81CB900B493D35DFBDA072C3A7EC45FD7EF531B1060B0142F0EF6F97D5331ED7EC8C78C3F7DB71A831B27E34BE51806EB6252959F3FC3C976A990664BF629343D5B464E631F504E04D7520329AC475FDDA6F696A74742F66B397BC5138EB05737E549D3E52096793F8E46E4CF6E32D3D9F23F4B80CCDE20C00EA69BBE2EEE07F11CB780E37987248E48F6BE1AF3C2954A15C3C5841F88FCBBCDEA14D19261DFE2F26322BECFBECE96875384262D0EBBCBCA21F70C7A89AD472D5B3102362A2FCE2548056B31D2587451EDB7885E65ED81F9B33A36DB63772D220367BEC6D37EFEF93C1CDF256646B139EFE7B084CC10312A65F0CE531157A59881FDC95887BDFD3FCA893FBF608D5035442213FCD373342EB791A5161E772F0ACC989AF81F5393ED370BA6B167AA211ED33C037E6E9E7B083FDAA4A54D5F19014EBCBA1C2C49E9275B4245F681EC11E4DADBC0F7223652BDDE31B7120EEED48A0F6D54CD7C58C3E98CCBEFD1F077CCA1A20B8E7673333D854AA9C7643A6EC4DC144BE3597291234835E370E74AB771101D3F01837EB792D07BF10994AF75022774996CCFA20BE5BBD53A878425002E831E6DE3844D292C431703266AF1202D1F304D46345FC3A643E33D97CF1F577789367E74A14EF8CD560E7A026AC4191E39DDDE81E22DBA108262BB704F34661F44D2B1EAD4FFCB5DFCECE609F8C116D2717DE398AA3914C3003F91BCA61D7D9C96E923FE91394192A0263B2AAABAF1410D962DC9789735BC02F0A32A1B24E3185EAE14931517BAAF3C491152C84B18D6ABD05E17D71D6D0A028EE1ED965C6D613399DF369A07D79B4AD71E445E95073E8C9122BA45ADB60493A3F8B22E617E14D6ECF18B0BAA7BB1F600FE03B7C62675F6ED5CF0946E4D29888FF6534D903725DE1F7018B759178DE486014AB6288D9F517E720AEFEBF43CF8B455114B3E2C1ACC48DCB636F22D351A975D517604DFF79BAD9C56399271CA644F6C946957AA2BE33321040E9700D60D6C8D28455D30BA826E247EFDF732D8CBE87968B38D2635F45E9149C9F9C61583800ED2A77DA7C0F3EF3FBF7C4C22C69BED4F835DEB19401870E90EC66AADE7C2C4B44B03341571568A55A606F4716EE8142EDB722A507A71F3DC30DD562D6960720DD2F3AB314D038F132D66843191F62FEFC4F34720AFE486F6A1951CBA9C63ABAA149B334E409DF48BD31156A705F2F4F584054D93920A2F5D5C7E7525388369028AB3091B1C1723378C8EFDD9609A74DD9462E68C1031614CCBD8A7C1472115A4E3161230E3F35565CA6AC6C177FF24A34F5A6B35DD9C94997ECB15CA26153D47DF4417EB6BCB9827D75CDAAA4F951815ACCF8D13BA603387DCA0889C748791A731DFEC59DB95BB1D93269550FEE96AFFD2DA1BD349461DF3F2076136198CBF0F3486622DE35030BDB337286AD6461886CA93B64FC3E700ACDC6D5C3AE367796E8457623753762E2F63D7B21A689CE03474473C561C514CD7D8D9C98CF4627E55F94DC8F48EA0227BCA32F0D7B353482F87A427DAB76944396550C173306E36E41F5E4CE01AF61AAF79B8BBF61E875D8AF74E045670DEEA6E58F4A322465D8E798FEDF940A0935954D5FBB976D8667EA791B475F5EFF69630798B3DDDE530B3A551904FD72BBF0CC05AA99BD364DDFD9E701CE3D9CE12D749956D51C70D8A0636E2E13C964A31D7AF92C6C40DEAEB0976B5B94A89ABA13737BA7AE216F993E997F8B190A38EE5FD40C4578AC071093359991FFBA793B33260AA8E33BEF0645933A5D3CC2607020F9B79A45FBC7CFD7EE04278E700AAA7B73F77C7E2CB9DA75512F06B10BA82B7A8C3C7160753A7E771DC4C0A578FB5EDE005D33F40ED2107E324CCDC34BEB8DD0305BBB75AC085BB24B2A109C21D53A61027C19B2E17DDB0BC76DA235D0BDAFC620A2C8CC4EFCD5FBF8490A3903279E44863B5992F0CABD5AC9C4F836E72655E2C1CA5D1155C463F1737D725B01493FEC9DA5DD7C71A7CFEAF29A7F7BDF8C556BDAE95953BBC99012E8AFC9E70CD54F6DDEBCD8A3068345B07BB10AD8D821EDFA8464D3DDC6EA744A99CA33F38FEFA65312814890552472785E901FFCC3ACD6DD862A417674ACFE2DD3E1F2B574D80EFCC8DC6BBB71BAC3D3562FCD6159A60104C8F95C0CC96F176CC27F55E4A767B5EE3F4CE699DCDE5B813075236F59637E9A8168E3458ABC83758A9EB6120A2DD8843DBF595EB53B00C1939D89459D82F0284139142970CF2ED4E2A4B53647D27336C46109F892A0ED5395CE94881B38EA5DAD04E17028BBE5B3B097665D8A026D291578C1E8310D02BCC7D9F0C614308093763A7D03F7013FA98DF597C8C845AEE76B1541B5305D154C8FDCC430AF84FB65C3D48B873273E8199FECB0FC00F2B3D31FBA54C612F52C416563B99F828C67504DC78FA749D62009B5CAFD03A4C91DCA4E80FAB0C9F369587D4A6675232432EB8F43A0008EAD839AF435F380B03BD2BC1A06709BE670C07C8B2ECEB4F63D06311737087DF5164846DAC059519025213D611CCB6FA3C7873CD143BB8CD03D987D8FD8D011E5EDE868E25B5D19CE7036C55BA7BD7E178A6C6FB0DC7342C6E983FC6DFCC2B593D1F86E3293A4C07C765B9A7A43E8C34A12585A512F7584D5A5B60EDAFB4C0D1AA5DA6D5C74255305A1BDD7DB7024622FD6CF44EAE759A94E8614AE1534F02B76715A1A4C9DF7A151A7C7BD76D25791C13479ACD7876C88B0FC7A0BE12BD7784DF38381BA485689F494DE462DF9FE637C0E2AEB84C09EBDB7002D18DDEB65C643A42C696CB9CE5D630F4090EBAA33E3A9E57D958DC413E127E54414BC4AFF0D63D5E54ACB3418F7DD8CDBA2CFE74F5862877F2B89EE92DC07DF25CB75412A30579AA435FD3361E0566CD6ABFFED1441615ADE4C30359ED408C52AA80ACBE1C1FFEAA645E298B2C19F1FE674A309F338D9321182073C9E4E04CEA9140D081E8BB35276CA623CB6FC36031D4F5008F690D0E0369D94C4792B3903D819817BFC0CBB98CF3FCC71531BC7117356B5A965172ECD0C18A961D55712DAE1DCAC7A1A51C87E7A1B5BA012D6C59AD77BCEE84AB493AAA0F688C53861726DF53F7643C258170E5DFF71B204345589535423CC656338F4D0CA7F6C3011D81EC3DFC75AA2B42510293EE7E5DCE0310A34F189D4DBE34E683638CF0E76FDF1A7A447141B4E05C065AE56DF8C735DD045A53D12D46F98C0B33AB2AF4252C54F74C87DD7ACC43143AD6B4EF46228BB6B6A5D7D01B072527EB350252358BBAF39AF91D0EC0072B48F49D6933FC64F7494A0502EB0D87465E19D300B4B2179F56395C8CFF29D62033766F881D5BC9C72051980DB887DD5AB3F9ACF0080A2A6D35065456EE759380CCA2A9ABA4474B620AE486CA377440E1B474F24F8EABB788E54BBC9F0F84D68E07338C0B78B6F760C5FF396CCC7C454DDB119C78B3BB6A38533A1B07EBEBB0C76072C71AC6A06C3DBCEAAC8BF59432C0E5B7E1EAF8DB1C670CAB4DA94CA8B33DBEE0E4F263B68E0AF0B240E66A06112A5E9FA0DE3B492690D95445604575B51F2927BC7969F30E5C22E92D54A6C35BD48F57102761465516ED5C6DB7A6E76D0511A7E3D5312ADD31B37090E532EBD124DF67846CE15A3F3F802D5372E1DDEEB593D5064716E99668E4F6463027E5C862D083BCF2B5A8EB0AE8D7D8D7DB62CAB063348714EC8BD5F2DCA4764165B4CBBEE4792AE7301F8AD207666EE62398231B1277C37AA768189061081C85A4C42712AC322D37B8BBB1656FCAD19B8430CB412F9D59A5A61F1EF6ACF972A4B10119F25D0562735C1E01C3FEB33D552E34D9596C87C730583569AA7D97C823AE7BD6B9481E768CF523F4B3812282B95E182D9F8DCF3750F3830BE80C4C3463044DD87614E81F3BEA06EF6D45F77DD298E34B39D457CF7BF8B3C7E2E588D76D56EAA4E7DFB59437F6ABD07AB7DBF19B93FB59009354C22987489651B068D7AF4B5F7DA7FF2655E0AAFF0A3E69FB6F4B599E7C47B30CAF5791E2704F3EDCDFF1196BF3033B3A6D25CF50B26B2D528F1A63B5AA08702497EE71EFBD0F2B2CA937C04B35CB5EDF189E8D60C557D905A6F625E7D70D5A53776CAA63F29862DBF27E1D4969A1FBE300C296FCB07984A5BF17EBC9817D5910F8F5FAE28F69ABF329C8441E6799A5CD40132343253FFF7D40E77D65C5892C701352FCDCADC29F04671790D5CB8424C15142D4E39D39674D419ACD88714FA9BC8EF03C41488E41428122C4DFF64B71E2B6E8B0EE5D342E5C29ABFE5CBF99BDC4E92EB61537219884E756FFAB5BDEC9F46231B1D5DBD31BC3650BB0694156353F68035C09CBD6D0DAD02F6601CC36886930EF99E89B004009C5752427F0D84E4BB0C1E64E3A1D92C4AF02CF3270F9DD14D714F0121A583391EED3F3765C30953954F3820F5255AE319E54B5E0AC3D99A43C7C07DEFC60ED8D08F3336E9DA54936C97C16212E0EECA9FE791FAC73798049CCEDCB98A3335318184E435F3BADE590EF98DC5A2194FB96AA57A3E715F8E3589DF96B5EE304BF740BC56869DAF00A8467EAF3158BEF1C8DD8EB5D48B7AE65253B5621628343871E28DA40571491E2FA6E14B2999B5B4FAB5262B2FE5F558A8D11E7336C0516A6B3283F609E3342277C65A76EADE9715CC6E609A8020FD85128D3339CD27170034482478EAE95765918534A9082C1BC928D4D3FD02D4784083D9AF957C6996C6C2C133406DE93B60147F6A47A0DDCB738E39E3AD118976C04867BE5334715DCCF76B644AC6DB9C8C2B691BAF6CC656F6AC71881F6134840DDA63DE7619F333BB6CE88B28B701D9D3821288A978C5D5BC7C408EB189AB9CB13EF9A268F045FD906AAAC4CAA9C4AFA43E61147F7073F3E975ECB3FF32E0F3CF5B570FC5B89BF357518515B22EDECF98F4B7BDDF2A74B4849F9C2E622A2885E4EBF7839FAB44854D7E5EE37C6F5BD6E7D76D821F271A47634638C9E1A1E9DB386028DD85B7986CB26A731004389063655BAF595615FB7A7D27DB9E4E6CB7DEEA8AD1D00C98E13C0CF3BC078F2CCA33E2C5F13693DD230359A75DB2905526514D15452CE95443E50A49952951011932522B3FAE22AD8656CC74FD94F74BE4B873850DC3D1A06A82ECEC34E9057C18D901283D475672B0ED96A04B50C7671A710A22E9525402755D0B3F9F76F513BDBCD82EDFB2CD13369854BC55722705010ED9923B88D1E43AE6E2408E1C7403CA33C2D734E0E321313B558527C4D8A439A5FF5E28C41904870A609F51E8918C674A424CD7703C9B4226A3B6EBBA4CA8485F0DF9E447E5F2D55B38A6FB97A1993B05F912F168137EB589C95082157871A99D8DC88AEDF666F842C40F959C352CF93AEE2E8059171BF4522C5A9BA8AF7273FF58A2871F2061E11D81D7803A585D5901B6B0F7894186D8D927A364D65C8588C780591066BD6B9FFB96CEAABF2B8BDF62B499D0E9DA60392B0601CBE5288466ADDC0706EBAC68B6BC3EA2922E9FE31D0DD29932249722512E74BDA13C7C2BBE3C6780C22A6ED2E1F1FB8E7F9582F702F31E955ABA87A8BE7C70E50173754D1BC75201CFCD9ACF010701ADFC66DB566EA39DDC1B144D676C0149A9BE20931F19F135ADA235C81400C2C45E9456F9A08B93B822DFFA42C090DA9FD282407B1C7EF1B72914EF10AB76E36AFE57D373AC9C38F09AEA703EB0E3A60A4A84F36F6875B924A530FF7C1683D743A8A03B582A82C11CFEBD93BD7B89BE58FABDF3F2D046C489B6141944A359EB51A0E823301987542BBBB07F0D4D197931F008E8F7B772A30C23B1E68A8C348B8C775668DA4D0ACA6EFB84143A456874F5C62C65A5A8C770DAE6FEB6370F6F2091A6AE610AEE169032A22FC548BD1B86DBB214F1BA3C9624FB8E79DCBE49749A51D4065EC18D011628208F1FB858B4414EC2DF4BF6D475CEA2FED26C172E5BBDAC33BE12E23F12A109053FD1D42642C58FCA516CAF6284461BA55DDA99082055FD00A3767F371F986BC587CFF35BC6D49E9EEEB1A0C9B834C88E1DC8C244416EBC16A85C89F009F21CCC0E9168BEF11CC9E588EEF5FBF274568FBF997A70CDF421B034891BEC6644677CE49A44E6653643212852497B7EF8AC1D3F799E562FA0F8D8A3EB1B50FC23321C5E94C97540A8E2281AA93FD3610F5F57ADF1CDA3203B5BB773ED388D34365A8E5D02B60BBA803F63A52237CB5043F06D81F69F05B55424C2B77FD87524529B04EA2ED49F0951EDE7240C465A153CFF4E615C85BE1EFB7064876CA0D1E8A6393C44C43D3F47AEA067D69FB3A478256188608B5E4BB5D001ACB886EB0D6E255288D2D2BF56040A3309176D4EEF038519E7AB873CD68FCC370C8E336B29687E2AE49B25190D244EC1FFCC09A632ECC81B9C4B4FBEBAE3C25CEF30BB4FF34640B56363C6A9DB04DEA98793A461B0B84A96107E8A16CFC42AB77DC3F10EF098BEB6EF1B7F198CC5D41C986964C4D82616569CDE73978E309956DED3E30B9F522E4DD72ADD7F6312999FE9A924E28E7BF849804E98DCDE5E629E2AD5DA8F3A0BA1AAFE86BD5611E3BA989272993E2A85BBB4A15A8BC8A369186D446045414993F55551C40722CD2057906EB7ACD76F92DA250CE37C33F75C1BBFD8B27C7BF96D05E811998C7CB3BAC6DF838B289A933ECEB51E3CA6DB518758C7A6B34B6CA15958A8FE305EB70E06E127256FA82914614E46271225B7443D5873AA0AD3BD987D0150F1ADE728539648238739748EBB511496A91CFD02EE1F2CE6E20F4BFAFD9CE8AA9091D32CBC01E163BFEB6DDCC254EE503F77310667BCA7975961A81011AD00B593D578FBA93F6C61A5F8D099A491D35CE926A107EFF00C5C7B8DF4086FDFC673EFA48A1EE476DDFF677DF032DAF440CBED247B167DB728CFB335B978BC896ED0CC096E97D469555AAEE50A99080BF4EBE3446B87C70ECB950C1CBD1F7D160B9A3C7E7C2546BBA5187E2EC96C417AE6ED94084974F12E998A34BF8B19B8BB7F3F5F2718CDCE7E3D62EFCDF20CBF0655EE4BE0EC91D63E19516EE1DC70FD98CB68D577DD449432140C6842D296C17A18D335C615EFB4C96FEFC05D342A46DADF19CDBBF3A42D01BD50E8F81FC633082E52EBD1D312DAF2A073355010D92DFCFA94CB1DCB7E9D2EE12948CE6B5BF50B04E24D860CB9A681942B6DDAA69737BE5A79CE1A30C13B6B5A698B9613BC59327C4BE9338D823E4EFDC018FE0E8150B10E85F90A5A08F23802E117C59AB441B028E35234D53E3CF60889D7C3715ACC0D4E49207E8D656D1F932A128074D0C7A04B12A6D9BBFBD23B924F5C75D795C9804C2E377C5D8950A56623382DAD6336FCB65EEF559CF23839BCCC833C29F665E60BA72FBF39C12B7CBE9A5B66A25C5FA13BDF33C87606ED8A12CCE0DDF4A3879F85313209FA48844CF2C9FC52B0B03218853B18C889BD1C721E584EE188B13E384A8D6678828FDDA6A3CCA3E08248EC8DC95019439E7582BC34771885C6BC8C5AB2DE07DA1F74B94CCFA2F87A957997E081A4CF1E9527CA7DE36AE0106A8897DC392869E1284AF7A6921C7AB5D29B74B1E648FDAFF714F2822B07D4238A96B13D4A750013C54385D1E09CD23D23598CADEE6B47C347439F79F811C44C1D7101E3AD0B2EFF347C3E90984CAF20140EFED4158E71EBB090DD457DFD52A90FFF110DF17AE000FC03F598F209525ADDD17B326B986867480B76F1E437BEDEA8CE830D7FCE8C7008842520A1391A1F603E20ED461FB9983E80E47C64DEA1A1935A584EE2F8A06B1E101510B636AC0DE0AC68A50AE10F860DC51634A6F82FEDBC5717D5F9B6CB1C081C8CBAE126F265BEF57B534D46A47E95A6E4346DA1D4A01D546C0E9F6BB1A97FF155D833F7A02EB64D39A92AA1E8F1919BEA04ACF2FC9A72D297AB12360972A34002CCA9D3D766C194D58421C14A28BC087D342405AA66989AE2D9ACB3B63F0BBA01835C82571418BE81AB0DF8D440FF23A2E01B7E281BB3DCA1335BAD8809D8857EDD3B64BE0255E22C69B0F35A4983F4144DF743484FC7D6CB989934DF63BA1BE31A901EC71A7333BBB605665D2CC2395207703C029E805C03FF5657826A9227DB7AE49C6C024F1D88F75C402264FFE07A16C04DBB6951EA21B3860BB9F53D1F559715A0D33EA69048B9AF58A9DA8D6713BCFF1B52128E0D71F3C76AE595500FAD82E9918C13D496D8B58CFE927957CD4C85CDAA0CBD2A0F7D947A0874830008389E2EB1FDF2763947829074E618EB3C22FD60E5793D3A187A69C13FBBB502121C1D28747C0F1A8ED3235BF2CFBBED30C233EE839172D35AC75779AFE1AB342CB01C5A7221EE67029B872B64ECD949E77413C5BE59C9D688C8E22D44E8BBA7063E4EA0E171BFC2E13D3FDF8AAFC88DD10E633D18697C1920014EB5DDC094F4391EDCA740BCDAB8297E4F77E5611DE5519576622A00D8FC9D721D25A4CFF94526AB9A96E5CCBD196E815F413A677972EA44595825AA35077362C664F7D23B599CB959C923A4DB80506FE2A6648CFAB25323C117EE335F7663751801B588A4D4ADF2451CE20A52D2CEBE85623F07C2D1370CE1D919EA872A5B9491442A03BCB16C26EC05F61C880EC9F1F41FA501EC50FA568943A3A47B744931E6C437DED2914AAE9D3E76CBA22725635A04D956D17666EBEF15E07A8844DCE5F8A45B2113A0B29C32F0F6352D2D03597676C9BC12AD65ED6560D6CFB0EBCC91BA046B63DD7ADCED3A09F17F3A28EBEBD50AB56AB98106D1B6C28E25E54B5F56EF56E999C6BAB123CFFE102D826841FF9D1EC28FA9A9A0F6E64F3C16BE6D6DB9825E7421B3A5A4AC9FAD722474D88FDCCCE13C39EAA30A564E08382807404FD839E1DCE36E2B51ED29063C9DB5BD16A0DD230A5C1ED1471A535BFCD833D481397568FD10A9F733550278365590C2F77647AD8A775535E5752A229541004769666483C33039C3F180DC5C146957EA5704F186D020CDE1ED0E295CFC6E14107102A2CB7ED1BC4D3A47D7B1103E35ACA49B9D8BE04BDC7F850E37624CF9800E264FA53FE1ED02B7BD4A3D6373D98DF723E94CA9EC9AD2637E8546E8F427CB5B28F7AD74530F14A8F1CE71C3FA808B5B8F09659F6255F8F8A5990E21A5D7E93EEAD64AD46AC1542073CF640C87E4FFECF6DD1B9E832D334DD79F9EEBCC5CE00E0FCD1D01797E741F2B1FD1CEFA92CD3638B5CC59D242E879021179C0833D0EF545431328B9AA2208EDBDD023864213B388E3D227659A044EA272A5A959814EB1D1B9E4B9C043153381812ECC6DB33937139C1C80C634026B6594D8337F35F72C08AED75CF7DFF921F237EE51C713A5A9B2E972C9A021E2A6044470C2247AF0C37F72C3B181386384DFA44D53457C85BC53ACEB328EAF1EEC877FD34277A1DEC7B674BD56F1659AA5407BB52A8BDB247CF5DB97387A4A0472C910DA91F2676D9C388066F4E289BF2DAC2C899E4FEFA162FCECCAA016715CC5CA0C71B03170A0850014593B486963779622652D0198E6FCA9955A676809B321938798B9369154E54E2F95EAFDA0B365992914DEF56BB8A47CF8C19AAC523A93430CB1A716F518ABE3B6EA56B248AE1CA71052AF105FF924D13C53F25F630054BAFE62D0317C0F307BD1965924ACEF035A72729DF971D5BC4E7A7C0965F65E23F9E7A67B4D74FC7B1F60B3A85C815B3F83CA2F54F6F3A2EC74564F781E5DD86019B938AD19624E6D9E168BC2DD7F7C36D9E18271FB00BFFCF33199E2533E587BC45EDF7F40E0BFAD9D62A1F4EDBB2AE8B71F406CD6924D51B07AD70DB85B44FFD3BD70256D04FD2126CF8470F8E8CE52579D8A2BB44FC61CC55F5D03D33B50E12CD38FF53D4F328EF77F5BE782C83F14C20CAA4DCE55F15BE6EB059194186B8952DEDE1C5F4F9B627CE8AAA0BE9DB6D39DE35F5CA6F68376B0C561CB9C02CE9BE4A9623559E71CDE7D19B1E24156AC2E914EEF9A578B861FAD899923AE018C35650B524618F9CFEFBF752355CD6E09B2493233C04018DEB02AACD49F3A9A20E248F9DE3F928DBD152FF9001EC426BB89B4FB225F36DC6B89D1DFD4FDA73096870DC0C14E62CD2E65FCEB8FA9DED723BF377B79E62583CDD7C3283B2EAE5B98C80E9EAA4E37A41AD1DAEF6612834BC4E1DBF9AA9F1757C9AF57320722579E11EE525713A8FBF7D13F4D6ACD0505858BAEA695D4470860E813B95FD9526D02726A251EEDE7470FB18B228C444A6C9F1B6AE0972B7FA38C5B1C30681901A6FD5F706FC316C14B1ADF89C65B246E65AD7C05EB3330CD620629FCC800AF7A06B961CA934BBC9E43B04752C21A324A98386408910E33B03C2361E2A71F5B575A13D3259A27E8E834584B7805EE70DC6A83E8A5D79E018315C97DD4831B55F3CF8BD99A291351387FE519D7CEEF1D817C397C152AF124DA34923CB3137CF0A73A22C07FA36CB94AA972B2D9A155B109F563F17CD67F368F8717AA5113EF4E51B548DAC7B815CCB1C8577608FEA3AA4E2AD700EAEA245A67ABE345E3A9C4AEE9E2C9DDF83F9FE1824D1C91D90B62394A64E8E06AF1107702D9332D159EFD0412FDFCCF8A67CAC1668BD2300030E94549D3AE5B31D9E0794950524D04A9C92FAC154194AEB48CD218B99F16A5D18A254A3F79BDC91F61148D93C15CE34826EC67EF078B146055D707C18312D80A1559FFE2936D239418860D9A75D7CD60A0F78D994E0D36C6ED9AD059966E4C5D25938AB9CF41A47A6D08A17AEBB4DD54A49E792E0B2F8E4A4AB0411AFB3ECDEAA25147D9E627EE415196F9D362F82781E982C29A265A088B5FB4997AEA6645CC64F8BE6B249F59ED673DD43B01E1AA0268526CD03D70803067B75C4365F14418C96CB63CD837626FB509CE688BA208444C76A629F113D0656A1F42C7ED98EE11AF08133C11C33D65A246695AC86F48F06E12BC0509D35778D91E109A082C9F6190664F4B02A668367513E16F56BE69AE225010B402415E1B739E45167203FCCF1EB795A553AFFE18CDEBEE7B2F9F98B528ABE6FF0C3920B53FA238CB351B2071643EC34C3F073E4DAE1F46800DC1A3E4C5717EF9195780D41C55AB72BCCF053FE71F46F05C8272129E5D3F7984C4E48765984F238ECBB19D42C3A83B6A685EA7A16D5BF0F70BB75DED7455D0DEF060A2696A5AA1BA5671A5F20C5EA5B60F1B832B02B83F626AA2030B1F4FA8861D4123923E1852C11D1AF156E51511F99C18F441DA95356CA371A44F82949A9D60143B40C0AC85F217D053AADD556C9458DBA7A6C810BA6AF212AF96331DF8E4F0194461F95201C839CF1FA48A883EEE752A9029519A4D235B8AF8973863EDB0949B39CE001BE4EBBE2A2A0971985AE988D0B9516E2EE4A55E5A50D545ACCC202DCFD517312AC39FBC2CCB16207A37EE187DAC7C576CF5256F92834B1D3A1B4A52E10F4F903D7F50132266081D472618F42F11B86ACC2B79207F4240DD65F68128FACBC05CC156610426C1C7E6F4D466088682BB3BB4F500ECD9993C2CC5D347574909D78C3F78CC699646A8E889799C6239E47E566C78B6150045228CDEEAF95079B67172D100AF058DF0664B7C4252BE501F380F82B8B890914D46AA5AB724F445616EDA618574716CBF4374B6ECBF04D19F3580F4293B1015A6F8B38FDABD8FD697B50EDFFA03BE6664B19060F9F6D653A41EFF54004CD8FB92E285B6FBE236103AAF88B2FDB960FA18F2AB8D07D05F053306EB7AF2F443B113A2AE5707298EC868C9116FEA43D4C146D0C6453E1AA7ED497CD67820E9B47B0C911EA2693BA3DA12C3BED9281BE45FCAB3815212BDB3CAF8E32C8CE24B78446D41AF4A9E91F369644EED0D9FD085866E967F8DAEA5FBBA92753B1A5865B6AE11460695AD5C39C3085ADC3D5AD7874907D61D3B2996F871B8AC2216B74196B41770723EF198566430C4FB7093A971711762F2D3BD066FDE09DDDCA25E42CE90BFD8C8D27BC441EE4AB983E529813308C8DF58455ADD1E3961EEE61A94CD1CBB1B5C124F32D49CFF3167607830CAC6B439CF1FD1FF92E907DD4BE27A46CCB9299486E411E924C1B62EFF1F455C7EE6C3320780615D9364D3F254A8ECD4812D48058A2F0957E66A3AED3B4151CBD991A722F6D1A525F8DF4AC76F5312354ACBA713A2BA503B957A6E8FD6828BAE64032F621B2D260E82A5BDB3DF62BEC7A559A3E1C166ECEAE375DC484751D154C922D5CB1D1270DD5CB58FA4F36D19A3B5BEE4CC5DB5705EB3B27C73B3AE28F14A0C5C3DF128BA6559BB61A05FA4B5D4D3332E6917C684D5DFD4CE4AE3094C38FA45C8A7519B9AA31E2966063E1B656A3FE007B266295F3EA27C42BF5CFCAF00CA5317E2CCC6F99E7FDBEDD1ED6C585057B230C11B5D99C15BAA68F8F1A1DA29BDA216F2F6A2C227157443BD1E0E52CA2FC7EAD6E8CA2C78B56826B7822A836256C3A760F83735548E012D410AD61998B9EEF6766B368D4F028A01897557D684D39E8C0A8D4B505F638DA16927EDAF2C206CDBF70D12BD66D9A3B2AFB5AFBEA3FE23316139BEBDF854A161D0419DBCCD6CC706A818218118E10D9D697DA134E4DE9BE60CCD5A914C76927B87143F8E6FA65B216D3300DDA0724D0ACD37E112B0BFFB9511549B5D78C3491F2FF853EAE75565327F2F3863211A9C129C256DA06D498F9B1843C472F35968BD3C9DB10DA698733050A5BC2DA251FD408F268317490273EEC08C011B8BF13E99E1F564B948A9DB2D91CAA3CA7F1DF03EF88B01CAC3FE8A1CCB679FC30AC47F0D6B998A2136EBAD1E43866C275AEF669F49ACAEBDB86198F102DEB199BA02B3128DB0203414748AE98F646C9B9702CD171252781A8A1DFEA050889FFCA2DF36878489EC97C1B99BEA5CA8F3C0583E0972CD7A186CA2415D10DC63715C18B4C9A27F4847182336BA0769526ACF45F6712E2853EF860C4178F17EEE79792966B871130AC203F57633670246F0CF36714DCFC9BC9E8D71998A06C76F805A2446CC03D6A05658048DF2463D7C0B2181009C62C494685306F18FE7B91165CFDECA79F6A713D1361CD0D16D8B182640FF76AD061E651185C8001201237E64F1677724E5292ED985C141C8F52763F359C36CB72953D69C8EBF8C10026F612A95C51D3126FC7AE6011A4AA216B4FC4CFC7E1AE6BDE5AB2E73BEA4A3685B2BF1155FDE2A1BEF1CED8E11DEFFCBF9D0EAC209318051E061694087316F996AFEDC51CBF91DFB70C1DE85B5F54AF9862946AC5E5ADA6CAF9969EB99B3969837DAB89444D459D3A20047827833773DA48B69161B7143BD305C8D7EA3D837366FAE6FC11C1DCC8F5564F5E41561A8EF80C838382B0E33E30BD2627848D5D88FEBB2BEC2A8DCF0834F44C1998A5CB0365486E50EC98C48F41A7850EA0B1D5E2DEDEA7F897320EB39F5C62C4747E3476F8E1F5848D1E2993830910CE18464E11A63C29EEC24B6281CF572DDC0E6A508C0A066E831B59842993B8EC9EE53CC9BDDC383C2CD9B5DED407C9E81287A287F4B761C280F4236F3D198C3E305AD1ED9DA8BBBA1F8E88923B655D33BBA3F44415C18A69BC80E216FCB86429B9677CADDCA3A9DDCD860C3F6E5B23641EB5F75183000CB210EA8B4D452CA4C2C8DBC9F4B3BD7B5DE669776F8E42C8E0D08AB3390F424600A00301EC86D07566B32EB7FFA2E9BB42036E96C32EB5E626501EA76779BF67424D66B5C625D4EE9516C4BE6F1C6E4CE24D2C2ACD593ADF3280AA484448636276CF8F445EC240A6D8D890319E8362A6319DB47793E39CD46B8A40E436FC718D5030F6A16C1135AE019C752B187A97778C8C343AF9F61DEDE6ABB7135B824C21E98472B4F6ED6239C586A40142AE71DD392A6BCFE22C30A5D1F2EEEDCAFE62B4F58BAD25D3BBB2D03FE4463EC4E155225293F3BB553675E5BAE743E73B1B3E81524567C4FD837E05EE0559B2BDCD686B0F900C48FFD1644F57484468E88DC153C30947DE8E6C084B5850D3406B8560D236FB2165A23E634336181B588DB926A4305B4CAE5295E028E50B4F74E356BD24865EEDE09D3E0B8652F958D6B0E9384958FF7B8F0FC4BB67EE60F5FC75D3F5C467D0689B3256784FC7CE20BF510E98955BA6A3D1CFFE171973BD8F4FD2DAD3FCA986A0609025410B3EEEEECD2C489B6D4C23535B86048E5F1AFCF35B89BE7B48A1AA4043A39A91C6184F0DA58572EC6917383011C3769856986D710548F35A9C793A2EFDCC82D4185764D43685448DD077A5002D7ADA2B17BCCE25CAA9B5BB993E3402FE2DDABEF2BC359EFD9BD9CE61ED63CF9B25CD900253E94DCAB4D8AD2564055C3C54D081CD98A6A332DB86F2D91E4F732F4211959438ADD4B5D2422E37E40D29E647D1BC5D1CF740BA930E71C7355B4F32D88A5F93279C72EF4C98CA5FFE9BD0554E0048BA94475BC6F5214D08BB36A1ECE60F7C000FFD341C8A8C193EC0723D47347B94B7C5FF2D759F1725433217C0A22C7E1FFA41FF5F0271EA2375CEBAAB6C9821CEE7823B8D8676935C9A492B3780781F755A4638F94F813CB765FCDE5946A311962BD0A6E2D68C4DB1A8CE94ABFA348F52CA93A156A915B82DF4D7050C20532231A2EFB0BE6A5BE66395EB3824086C1368D758023A5650CEFEC1341A5048A9FA62EE7DF52FAD864B04C5A654AF26B27B5FB8DE548218376EF3011A352E56916F3D157B9AE2A278E6F3A03F568D1D82F83E01472BEF0524347CACF032BC45946C1EF16CDCDE3CD9A490F79861FB4B62CD97743139F32E25A3163A529CD1172C1CB1A4E4E8753DE9CE4D526962714DFBD3CE95958CCE0CA792C5E69F769ABC0CD98E195D2DB1124C5CA35B212176282ABB87DFC3C5CE4E7731025130BF3DD2AF21AE3AAA714CD38D5DE815DBCCE11F5DA15703074667D5C37ADF2123E43CA6A7151FA726A3E4577E5DBC3E82F387D96970F2D40B8CDB35B880244C79A122E08E3D35FFDECE10F1C16B74F0DBCDE98E07F8E396D8DC3D6DABE1DCC205D1245EAA75E94FF04607ECF65C95C26176BF04881E4FE9013F8EB49F7CEA7C011863F5EAA5D2ECA38DC8A9900751147BDA3D11E5B5B97EBF01F9D8F9507C4792E4B506F34D734329D8BE025EB76EE918DDAC3207DC7CC6EAD3114DF7D44A94EC3CBDA4E9747279489544CF51A2B99AB264EDA2658F9F7C51B199EE5AF9CA9426FF0CED2CF01AC1EB2AA3AAA390DDC1F5CF7360C6392133C176494A8B01100A4003FCCA6ED442CB032697AA296105A3D2DD23913F053D1618D0AA43CF66F3687E583FFC58C4D9EDEFC4DCF5C213EE326B3F39EB808F86D3D8B23BDCE0E876828E24EC9D1267B5C9B448E60CFA441AAFEB2985315C387EB9B8C1577B9A88618E80EADF470DE30ABD6AD51DD203BFFB885855DE89C8955D863E210AFD52366575AA1C303A4025A5509E7A281C3BED0BCE91E0A6CE60917AD939C6E9883940DB466DFE73D9BBE018B7EE80421F345780009E031C45CE83ADAC03FCA8BDD18CCDD99ADD30922A0674DFBA28F83E9F068F1F20A884369B697D37E9A888BCE804D09C36CD573F63F09C893B1E776AC5EE0C7EBD49279B4F9514BBA1930EBBD656478DF1979140E92B1BB05791C6C6B7A47989F07A691F8C38CDE437AD479491B4EA4D350A43F34C4BDBD7F098B53D648036F12AE03F2FA6C1732C3C1028502961C60250332060CE34075C11DA6F451603345D35AC6D2B720109829D779E88798AAE47E1137308B92372F5430E2689C227A47DC6085D4E779835FB11809BD2E9B6257C86DF7B0FA7F5AB41C53A09C7551124BF796DD14840C05409C35471626D197C7DB0EF8DE6B3A0075BF1FB685CEA896D989C87DFC4144B543459095F08CD67F7D8884A575B7A1649812E75ECD3CB07CAE7A99DBC74325D98BC37FEB39F32EA2151452C2D84FFCCDBD693EAF567571758531A75129125AFA780C7F36C7DC0BC4DCE353E0E7370803DBDF04D93A397924BBBFFA51F092E2DF491466FD6AFD2E067AF55131BEDBEFFB80E380E398F362316CABB9FD3B9E2E25AEABDF2DC9DD9FAE05CB3CBF095CEBB604AB1BD7A532C4167FDC8504E1CEDB2FE7265463C289905D4A90AFB09E1CAD79B40978A579EB692741D5C5DD6EF88EB8F11E9FA35764EB2CCF920E87E9091CECCA5050BD00D5185D256E90C2C58338EAA4E84A558EDC4FD4837DDF26A9585DC9F42EF4A37B7BE0922F6071AC812DF349FB8BA07D32B1F8E9261E5D085A2DF5068F1EC4942FCC72CB0007B708AB3F3BD52D45BD95D5C6DEC0B450AE09E24E76E93C09980AC32C0187400237DF95A58B8BF943B653C3437915C8F2615A36BA1B7ABFAFF28F0BC801C5AB5A41CFB2776E28399DAD8B6CF8B84035BBB159DC0B07A44E32E9F56C942CE6F3F1621002AF8416890FD2E83F86F52513AAE104D9602E06306CD957B2B8F80B3347A9D1BC6CD40C8EB887300CE5779C9215C5F60AD1B06E06CA35873432930E44DD4A941CD7AE70B8FB489F2C6616DA8DF521B17120A75308100F033892465AA31693BB1FCE0F0CFD044FBF264B95B000BAAEF54C507634B15941C279F5BCD3DE82BC4E9D33DC12500A05229354160A76E52C39E74A98B0CB90C48E64564E29652F88A4B115F1AE005C3F3B8ACB85CE9E0AC1BAF9695B18A965AE8731995A4C64C593BB506F12574CE0F4BC2ABC4A1749A40B878999BB2DAE05C953C4E1B888BA3429833ECAA59ADB6E2D95A3FE2E8E45A14269D38302172C40C3934BC1FA5A4013C7100B646F543F9B7C354E01E529BCF139502D632B37BA5A3481EF61E31E14FCECDFACD45F5461C1FE8FA198C34D7A22E1944CE682E20C23A6920D677A7B11C099D22A122E1A5E036C5F32878A470284A7607166E6A6AC6DA673E82AAB163B95DF0539FE89C209E59D132D12A6A4EAA8C106C06E72C91E8428052803C34D5BCCE560F8D59CED033C4612B5F263922850AA26DE68CA0DB894C011EC60A84A6D90CA653619032181D62D53063F6FB501433CB0DFD5852E13B9B69BD50DC5CA1E0AC8EEDC9A8DAB2F27E3D773E344BBC6ECFE328299646CCB2B7FC103FB70E244BBE566EB71057194F22A516A8CAB2329FD82D068E6E4CDCBDB2E2421A0271529BC1F1365096BFB4BF6FF2B16D8D93F83A2827F871D18A4D394576F801609EAEFED253E0A37D9F9CF1D8ED04469CB9628CE841E98EBD4AD7D8CE88B3569C922F3B5910E995BFFD863D00923E6926305933E61360836CD04A9A095AC988C58E98EA2C39E4309C1C2F48C2DC2AD125BDF4CCCA96254C85E3A89040B32C712094D7C1250B27FD2CA5ED3181B5F7BCC8CCE052C10B10FA7A965792CABB6468AB69B893D35901CC0C81DF1533E5F8C35EFB7BE75CBEBDA50D9F571B744F088E44CEC3CB44D7D0BD926D90F50A9CF450E4A9B1DB8612EF49C077DDE4611427702EB439CB76364AC6573DD485FFBD148A730B111AF136B2ED621CC3C9C81700520DC9E23994EC5F58081043E960910989B2A9B6173A6F810EAA532EACCDE4881F6AAC02F019D1B46DD3908606B3C848C0DF8D0C6663304D03421C00EA9D5EA23DD603F87B80D1DD3A737A1B03001355683CF75DC715F79F7118AE92B714EAD80261EBFE748D8879328C4CACE5D0CE5C4EC11A004BFF8E1F8CF75B3BF1B764C39BBA76E8E45F9212F03ED94BCC9633B7D16B99BA45FC58B2FCEC19248031198016D72D9E82C3DBB0A87630BD4E1FD15961F15F15D25434C6B2FD026C39B0413985DA60774E6AA9AB58689283360D909127116BF71ACC205F9D43CB3ACCEE3010524F374E6BCFBEEB03D702622039EA1786EFB0DC5A4BB6F2B55919E2BB55E2CD7EDC47CEDB7CB3D5BF4BE31B114AF45F6470F5CE741986370A1FADA457D6ADC95B3DE31BEA0B0F5B9A4E17F1038A3C04D458B55B2C3EBDB7A2E500A4AAF2B01A9F8D98BEA08589DD61E6F5F480904FC9FB2C0F80B1E339A9CAF3479CDB151C8C3C3F669156F6DBB3E3DB05AC041E0F17FE22131074FACFB539AFC6ECE529682C563FCD2598B8AA3B320B19CA639CD910BDB4CD652F1846303ACA201C94FC9952243FF84C6086AC410BFB53C2E7E1BE56CDB7428BAB9B33951F77C38087087CEE9237192FD1E54A4986758106771C0D41D6EDEB72BB4E9DAD20F9B09637CC0BE4606559D2CC76AB22E90620D79F098CBB9035CDCEC81E57E60EC0FD0BC02EE12ADCF26B6A2E2A99E91A9F147A4E021B9B3BB4AFFF43ED6353BD802727448DC1C68D8A69EA278548C5AF7AD6D823DBCE648ABE4C4CEAD5963B4E29D07DBFE37DBC4F56AF99ECA3FB95780C0118783CD3FAB4A79385E25B3A56E53AAD1ACF7002932A1936F48BFE8BBDB33BA76FEB33C19D8E45E5855BE3FE3479CDA095EB8F8B5512D22DB5CF214AF5D7ABAE4D6F7C4581266DE0830405D405914C87CCFF3F543B65E32D2CAD95410F9E918C309B8B026DD333D01457FA3054507554B71D5DF66918F4BDE9D3B2CC45E4671F95B1C694B3F95F91B50EAF1E435A923CFB1585078AD7D3087DB41ADC215EB43A7559EA7A0F96E4D91295AFC35C46066AA8DB3A617858C42CAD2E8A1A0BAE0E40ACC63FB0ABEE02056253F9B1DEAAC47AE73D9682643434E67D49A40D8C098844FD9E8E0D242202657AA3DC78CCB245D7D6C9907AB4B61934200414111F8AC77BFD3F1484F3D2F863A6568AEDCB0F25D1CF34C71F215BE906386D57413B2AFCCB9E3DA2A2F6EFF612E7CE8D2E7376DD5CC38DF4A038892BB9320BCE9F6EA577DFB1EB819007F6A83C976D0CC7C2A142BF08288C068D899AD752F93260391087749910368D9F42E3394A3D2B02CD5EAE434FF283D00880CFF6FB8B1BFD10E6632B8E83523F19296B31AC0C350FAAE1639935E9F8B6E1D494B73655F0801EF81C7A65038CC678D16BAA154488C63A9200459F0142AF6C8B8C959FD0D4A043C9A11C38E143FA1785038CAF07F1A8B1FC9291D4B2692B2A8A6D39FC3E4D151F387DD686FEEBBB1A0B1A32BFC81BE2FD81F4EBE8878AD60779BE16C70A861ED5FBAA69A2B42D71046382DF3A898613B254F1AA5053689F4EEFA46AC187940FAFA3DBC0465CD94095E92333E24B512DEF7CA836018D5606286F62A25B35B58EF071767C3F54DB59C6D5A39C4E14CE640E6BC888A3B1A555D85DA1599126EA506E93AC366457F8B26CD69BC9E306F01B0008FB32C900B470D3193105392535343CA5D59F567584E6893C9E4C5CABF60AF9D5B065D0ABCA99D6C917AA5AF6BD286B3D25FA8AF9219283051D368C10C6050DB2741E1F71A01C3DA53DA79017A3AAFCB21699D389795C95F73CB92C47BA7378149FD7D677D41C04C5C07AADD4CFBB1DB81886C8FDF512BCA628A3F5570746FBA06332F93A3D5CED9134F24837DFAC935B8A8A40B8D3AD9B738272F4DF19E4564B27FD58AF57E4BDA925BE9D9A4968B1C956DEC1ED60C10178C37653331C4C4429B744E09F3A5B8F6936AE7B992F291398E0DCF7CA13049E96CB3C4A6102D589B8187DE63320008D674049ECFD470B55D62184E25CF1B39E9ED79538BF8A0F8B46A1AA0C67B49AF0A0F11B7154748F5881D9BAC091B2ADC32EFA3E9920DB75EB64482CE461DCB88AD362601DA24F76F232D1DD5CF1F35E137CDB20D87576A6121111DE27ED6A99D57D1E26D9D74846D0C79A821EFC2FCB9B9D4602622BFE66DDB4C1BABB09FBF899D6E1FCE73321BF443020C67E0A40DD774140D95E394CD67859BC0C1023CCF55D2034C1042E034D198C125BC8A76FEB33D856E704C3BF83C9A9ECA25912ABFA215118E72F64F225F4DDD3C0CA92FDE5FB39A313B396257D417A3464C3B54DABC84FD6F5ABC08BEBD10B68FB9897D3356CA102CCEBB437E48E78B3819D0707D2FC91F682ACB8D02D69EFF89D0C8440C01C19ADA3AA1DD5610B35ECDA908CBC6FBFD2E5C0D19C6760D78255E6B8D9589F5AE78A6B03FA6BA80F393AB49A79A446037E8CF440CB8EFE99016B7E674AEB9A84EB44D13E1B923476D1DAE708CCAA02E06439D45C55ABEC1A4BAB663181B5E894FEFA33826413602E069763E499313C6E597B5759D74CDE134BB40AD88F98C9A0165C838927336B147D20853F3BD4AF44C8E1D24D9F6A8AE88E2B9CA9648BBD610CA50F09849690264A7DA3B1C9ADB566B33F9F38CC8B1E1F28D404C534961CA1EDF973D03174C7CF0E82D058E95528B377C270F9FE5A28688687F52BA71429421B6B81E71FF1A82DE2ADCACC7EA08CCD0ED49F206F0E9DAF633E24A7D4472641456AFCDFC0EAE2F903F303B58AD84DB9EB1E9F3299705A1D3C2B377124D1D38A164E597E5C64FFD3D4D7C5F36FD973F76C5425C06C1860A570C3DDF15AD0927C6625665827E707B54C493CB41652DEA1FA0A3C730F5C9AB45D0304D73CB061447E20DD7CC3706DECE7922F56CF993F101EFA7E4EB45BE085E9B3E2D118FD5088ABB9BF820B1FA1F2D9F653E1E4D19051E0C3CD6F831F62E05912895BE6B296881EDF018BAA5209C48FADE735EB496973CAF22235AED2E39B91861FB7EDDE54E2C0699E4460B9A261E99A7AED83F66F613C5AAFCCC7DD40E6FA7DF1E9CA7B70ECC575FCEF49B62DB962A450CD8A88DDCA9CE799A924AC7025213BEDC30B0BC634046520A0C289D5C6F094B7B7AEE833E83C212047446B43E4CCF56CE26D6DB2D9DDC96EEDB42A36CE88F819C94C0E02CFBC25DA913D0EC9F0CF8457D4905CA0ADE6D28EA1E3351084BEB2D1E3C8894A97B40B9573CD7523DD7483E8227BDEBBA46B118F0D24CF33878C671F3937A3F33CD6981D837A565037E74BCB10E0E18EB0BD23E5C54DE4507D2042EBBDEF887E6F23BC42195EB4253A591112BFAE2A1B293D220F1B727D95660ABEEC81B8F8F6D12776AF03D361A0A4C6E85015414D07521783A34DE4DCBDFD283D331B7E5CA2A22C114FF131E197BE4E748B3E9BEC2CCA296AF3BACF0D1F6CCB9A778EF31E7ABAC4AC48CCE1638BCA69CAECF9807E0DDE26DC83ABDF8B6B29597E53DA905FC49EEFC9E5E67A40B574DABB318ED793165D221FD3152DEE441329D4E462753E0D2C261F58A6D95CC384B07289193D9545D6A5D9AC2A16E3304B1504D9EB036C559330A1FB33BA38C5C84833A5E9C38356154668AF0156C824C101636181B0AE996F57119431678E0DA17640CD29FD89A24C5E2354896E6C88021E23C5DEEE2D95402754217AAF8A0BCFB2E435EBAA173503E1FEFF00360FD95B57AE716830D205F7FBF91E37591996DCCF0C821538FAC109EE6DBC4C4C9525370E9BC75D9ADE0DF1431D76F44FBDDA703F3320F95D1101CB6BBB54E21D7B37F9238DFA774282464155FCF932F0BDEA30D59BCE95F114975D786B6A5C7162AE767985FBFB16C6EDB05B1991CBE2F49CB6C53A0C54D54987B7C74BEA431A943ADEAF3460ABDC3F5F1E7DB8B4391E00B8D6AF1353758C10A8342F440ED32C6C8F4E707A8D16281C521B5A4A788F3A36CF2440BA03141B55E64E67F6CA10BC3400718BABF8A4E86656CC111C5B12811D261DA18ECEAC60F41D11BDD3B14D5878ACBD508AA123E9E003E303C0CC53B5A337B3BB31479220A779EC013CF8ABDD0FB386BCBCBA78EEF1822B990BAAF474C693C342ADD57A5DB7E0A1621E7041B68F52C41950D7B69054818933757C5FCB6CF4A990B8FCA8F5C8D44C2F5DAD66F0EF8D4441A164F92FC2F3095959F589B6B7C1E5852D355A9F95DA3B05547BFFB4233432CA588C14DD0405077940984064689FDB5AEF38F0C39F76662EA5C8CD8C4B22D4E0AEAF9D748F44541E938AB0D0C794883F178510848C8CC430C446B90C7A8438BAEAA2BD4ED4B05E093CF7B32B96EA3C8D9C1BA7CD126F25F628ED2A5C81F5BEF6708612A8CECA630D1348B17D5A0F207E30820C3E279CCDB78B437713881CE01A2F643D4104115C184EEEAA8E404A30CF9909A30F177CF9159BFAEBBEB9C089AD23E3DE58F80285C1AE63B8E72B6800535864C6B48249398F78D55A2846FC94B6F51DDB608372FE50C96DCF90278EB7F7C9766D6CD56E56A3CB02F38D6E8C13D36CF365A99C0C3502D8C7987073631B20F875842EC1C3F7FA0FA494C765F89136EF142EB787D345B6D5C8B8343F73DC96EDC792F05A52FF852CE7E09F01354064306C38EE1602C5928E29CD925294D19B14621CEBE468F2A395A74212F2C22D0EA718E4613AFEB207F06C5015DB65032D026C4FDB90B6B8C0C25317879333D583D12BEA089DECF8C396E1EF235E544F1FCD375463F836DFF077EFF5FF3656D75871453415E4F2153AD5F461BAC24CFBA312701561D8D6BE5B684808CF4BD0C315817CA98E20C175084F92A9897052D8487277A1812E069FE197F5EC77113E22D4A9A94EB51CA9F87375BAC1BF7193BB1C09C809474990E422839A11A7862EAB74C181E13D08BE02AFF3BD72B630E3FAE23192342A3F90E6303BC4FB10B62671537E51D55DF4D51AC975A232747A4A480946DF19BCD0640708A6967361A3DE58E7271953982CB1CEAB034DC28E6517BA7A184F94A1447EF25A1D9E488E4B4012FF4338D25857CAEE1A9C699D8F4847ADBA43480BC5B221B50B17460F9A8D106931C44720CB117C61032967AE97B8D4037D52C2822B8B63001C5134A1A290A278DE9D13925AD7412B454AEEB351E2EE23AB96D5FF835020EFE200D2CE65CECD52D89F65E8877B680AEE88EDD9BD8E39A2481B27CA88174372FB3B5679D57C07C44B22410C03554614139A6B704B525C11D7EC7505D6CB44DA4F137E1A34C00D80BD54CA80B030A9F1B9ECB8A740009AA70189C6EABCAE8447C2FAD93FA4BA07D382DF74F6AF3D537625E6301BAEFB8B5702D57BCA0311F48DF2EF27C4582DBF0B771FE0949A9CBA125B967B34915A895D7ABF0327268233A330F7DD5F5C033711D1F400BE2B69B35EC7E6BAF3B5EBC6155E85836D7D464F3721D47528C6BFBEDF23D306E311452A977BBD24A1A574B8F53AB7B2C37E197CE408094A147A27775D485A59376DF9F6BE479C5A9F7E64FB7732B4FF19A20AC875D152630C0449E4BF0D1512035B6E99D91D682B3083A4C3652698E356530DF4773FF32FD218B905F11BCD16634B5CACD241C89FA96A982E064DCACBAC152491301EACCBC496ED82C6AF13199E1301093CFCB376BA25EAB98DB64DBD9BC3101E8C4EDDDE52D74063E258F813A380B8FDDA0664CE3F38D64DD0DE95C48C0BF833FDE9BA527204189BD2EB168E363150B7B1A9EB3D81E5E5B9CFFB990C430BD31379E65F1A03113ABEE941F90447C93258F14ED942055DF31813EBB49A24F9B83C7B9088CD49431459BDC6A935E7BD01E82EA8FB31805E45CA37729716597B1CF91B7A8702E176912D9666277CFEF600C72D217E7C814502E890713D79FD654D1C18ACF00A7CB9B1D53D320CBCC7FD9F82B621A1BAE5AB0AF4578E2F6B2FCDC44587C5D11650319E8458E4AD5AEA719F58F51FF5C6CF425733B782DA957055C8BFA2D5DFD92DC9708B74B2AEF89EC2B61A927CC12591CB4977B2DC6C49FB2F628AD91052D7B88636471E8CA585C1F795F80BC1EF306083ACAAA0094C6D96661CABCAD79AA23790569EBDB314E9C5053E2AB6525E2442C441C0E95F736F3849E7BB3408EF64815A7E2AB74C32D602522A5EDD94F12AA397AA93E4658D415D838E797917C0A05F3A83E574623598EB8251554CC36943F178DB5DBDE47323CD2764EA912F02F337B521A0D1A2BB51DB5E25CCC4B78C0EC4EBDA0401583126EEA7AD99474C39EB97C38D3B5BADE3A13FCD83C9580C04B9831A3293DC85797C2490176E2F23B550AE676695D07054FEBBE201178FD047382268471933810BB17E788E0482CCFE984733B040E8C12050B9B3B3D2D4DB758FAD2AB001317AEF415D5929A844958A36F1EEA559CDEA6495A33649464FC263395C62A0BECB3BED6B5039F1C2F20BC9617B57629D3AC4766468D3B8E331E66E8E5AA6AE447C8C04F58DA8A724B9B8773A9A342A0D296C6128118B9D941C8C868F08F764C36A4993BDF5E0D987A8B87C13E5A758F540F54FE3EECF8DFA11FF023D112C00D0C6A29608808211F4F9F74F3DC284E2F2D5597A2D048A62CD14FDA76338C60B1563F40815AC37783D1109E7800CE90F3821F354663621284C04C29E53F147AE998D9E4A6E86CA1E1CBB6CBC83F3C65373FD6C4F63CBC114EBCFC5047D6DA88F08AE3E29669F1F598E01932A8827382923D2618AFF8D31D793C24FB9B8F2183F47F60B19510D466A9EA2A646C6CC103E006DAC56FFF40A39A15EC5295EA9FC1FA635168F5BCDDA54B09B6D52801FC5641F462544C2CD01CA564E0FD56655B80C44D3C75F20D85EAC9DCECDCBF07BA65724F0796B89DCCF1655C7E662FF24EE4D13B0E04843B374FA25A0157BC395CFD7F5F136084E6EDCD90704E8F6C0666B4C88918B615225941323F5A55495F4395994A4B73E5D5D9DDDEF722E4AFF5EF16BCABF6369CB09AA210BCEF65EC32912A7A2FABE18EE2F0A8F31AB3541D160054BD6E0E7B8601851A98FE8EC9AB5C3349AE55D44152200C0A5E19E91FD1BEE0B60813AB106DDE9B7070CC73C2A28EA1EF74F0DE3C4BAF7D19BC4D7A169F6CDC926DBB408EF34B8B55E664A8BA1AC7D835413CA873E979FC5203CFC2224DAF7C593DD0F54D0B98D469C6C599B1F1A031F8C195FC8B8FFA86AC1867E60F129353AA2AE66BF66B40212C23ACCAFA2A5AA13E244097EE256D1E7715BE3B652611AC11CB40EB0780E5740555F00B4F419185935AF3A4A01DE814D9C125CF91208C7E53CBFDE2E6EDC61ECC635F0335BFC121C2379032CAB32C8C9D7A6DC4FEF83F3E7FD3B48F6829CF8C377B3824ABF98F5C79CB0D71AF309C06E8A7EFA27E098CF86E5870A39B5DA324A14B0931A7D2E3960AB97B994689C56A65EEBE85E5AF479E5C488D9AD8C4179C1100A85DA7A3590233CFE974A8FE452EE74D22ED111F425FAE89B6140B638253EE12403E20A5BA0A2ED880A1E2AF2261B4DCDC1E67A037B000B13449871EC69AA1CF540655DEAF0D3A21F164287BA8A3EAAF1B6B2C43FDC01AF569851D00E53FD70F1906BF115337C6D3A173F0B17F54903B553C4A29B8E880B3B5B8179C8ED216F2FF63B8492F8658046483C50356D1E3DE67289B89E24F10CF1C6CBFC48CF233A60E575C1FB06D4E8F56EB08069906ECD16D6C5BB7A786F4B73693062ACDC0241A57B4903D5FA04EDEC296D6373DA59389F513C96392E54B7623F6C8B0829D92D943365DC9F377E8813CE6B8825C4993C1D8EC7264FD084BD52D77DF690A08ED13C2AFA004F270FDABF9A80A5B08A0F8E8D8324358119826142A333E3245EAEF8BA37DE138D648C828979F7A374F24FA02A7BB66D14F56AEAF5FE14C03493C15F0D5E35C1372B1A28203C258EBE52D9ACC400393621BEBDEF20127ADF5AEBE5D1A1A32DAC3E5658148A700A770A60479198DA878BC1BEE056B6F2F4B2720C466C712BBFBBC7B16521FAD5943A949A47A097C1F2B1BF6975F30C213E478C52D4DBE5863F25114277F001389373FB8C87891703B91C7E57AD2D921B9E28A3F07165422178B427D7DC426C066F5F650B886FA0158E6DE297DD3E8C2F1916334109E54C409CF79A1575D1BA3ACFDE44AFA3AF1F5ED37CAFB0ECDDFFB0F56BAAAFA42231E6D535178EC64322721675F916287506E5678EA157DCFC779FCF43FA84E51203061B110B8C2F19879C259221121EB06EB38DF84A51F4511160A825D3783D160AC8D400D9788C38C87EA92A18DA12297E5750B2C64CE7F077D94E4F869CC654F0326FB73CB04729C22A17AA205BDB21565BEC2C14C76BB23756825F3D5CE45B2F046D5B2CA99A2364062E34B4A924FD3023B2BCDAE87B26C89A41C8A0B9842131ADCFBEA1C14BC9CE98AA9B2DC8FCDD42F4B74D5B1A4B271E0024F576D6BE5193C9DB5B2029ADC90333C3A1AF181262D735668B9BFCB49DD4C280975085F8AD1AFCE2A914B96103D2C56DC71EB4026246C1668D48B9E39F9279798934D1B48F29D68E1F5581E4A74F4B88E48E1532BE2CA403DD3F13E9CAFFE6FC515997D2C773EFA5C0C9534448CCC0DA742340AF6884506CECD07A5A16EE0017BD75F4F8F388F3F20E886CB2B5745DCDED14E8B03DB56E791FAA829F7749AD90D436B6DBCA46CAA587AD57943DB75593C2BC3F33881F6B950FFEAC67CE8C191FB26ACC0B4BFB4069B2B6976A3F837E696CA44995506BA2CECC42974660799B1AA800630567B84F3FEA6967EFC6B58F0808A5BA4E73405007DB2572F85DC035771DBB4E3CA3650FF3A1A88E856D1278BA752E610F4CD98A377B1740EAAB55CEDFBC415966CFFEF270B8CFC346E069AAC52EF2C4D7126D627D4CE70C79D8AA09C96D7BCAC41880515350CA6165627BE6A4F9CBA8217867692B43DA3128B18E56BC0910463BC155BAB918C0A634B2F582F1D06A4BCECBC2867883C4B008756099AED4652048D8B2E4D7FD9A2FC00272CEFE9428811C23B468B3B068FED79A1D46A9B3AB1FAF9CB903C664779371300B71A970F3F47E982F23E29A729F4732B09B94C42DCC45D805804CB4CD3BCC94F8B718B4B0A202AF92EF1441CD9D1FFC51B57D4F97A3C86FD5780754A43651971358864B9ACF664803B987C6ECD28AE503C0862B4BC46DF29BFF36B1A4B2D1E9EC952EDCA157CE4EF3EA423724EC84503BF315FAB2E4F98B5734787C98E375030B231636AAC3E8B796A329F96C33AA22BC3470CB52519DB9AA317923DA4F45669F285E632711132BDD95660A09C10839BA9484D82DE33662B7FF09432EABDF808EE6367420AE860684A6B89FC49C85CF9AB5D37C89D9A295ACD48620F49073D4EECF5D96643BF431021E124A1172547DA3C81497555E193EEC4D975B7DB05AFCD7E44062A9815A74AE73D698312FD040816D001E2C0DFB0EF7BADC5E7AE05F062FE2D4D07C39CF6DB9E6AB4A2F39973EA16E09DDBE32BB956353A7EE4C8186E8C672C2E69BA82DBEB952685B47FA34EA5B641C8269D16EAD510FDE81E2035546F20BD0F1219C42BEFD06559DEE8DE13EB776DE91F08B148B94E2F7F4CF04ED4C12D06D9A4379A1AD99E9C4296F9F2883F3C98C55702AEC4470D0F73EACC4746C73ACB36F5FE961C4BD08CE483C3065451F207339C0638FDDF9E310B9911166AC6088F81BC4BDFEFCC538FA06699C247280FC9722F11C1DA94D89173818D3FAD90E3C54C1059953D0F752A9382942164A1C78B287CEB9B92EDC8F95E083392FCCD168F2207132AEF53815E6A5300FF6982BDC3052666C6C654F82ABBCCA80F86F8D657B2602E7547A723AE7F1FAD95EBDD01618E93308ACBF61019BE508538B2CE5D484E9F3E01451B6596839FB20697EF886C59366E6ADB9DA5651EF104D8158EB55B87DB44E65DBA0B64C61289343BA62C3F62368E94DAD3129E00F4B2DDB24A777B3441EBCA44FF26A8712FE95ABF33C00E19CA0456BD80C4B04A7D321F5BD40A2C4368D7D1EE3B97AAC12A4D8085A5F7669284F8F9FA46AA9A0DD7E3BFD7E26CCC2D210059D422399F10814B64BC80FC59CE49F4802FA625059D1A9B438CA59E07C383AC29DAF219608732F9719971CD701B1C1E6BD70BB7B8272BEEB2D71B221C3D23A03980609EA322EFE350CC422AA66BA7667AB95F67C220AC2A3B6A9A3525641698D08658EC801F63E843C85709175DE44A4A883FF8E2BE0EF28BF9A519E9E70BB3A6BBF2D14AEF0D84901F0436DDF29E3BE5113AAFFCC9FCFCEEDC64B57C4362EFBB920A5F2E944AC90AB3BE535C945F31C82DC3BB78F567B2A6208ACFE4DDDDC5827F8DC211C3A4064BBA6239DB98200C6AC99927EC638A045650DDCF5038D15B61E6808C20F44CC0C118882264E889988FBF9B8410A22FD986950177D625BB4761BEE4554C2D8AAC3604B3BE86AE3399AED18B09964A96B77624B2AC8507007B3E963A587374131331A8AAA31BFE667C821E1758369591B59EA114A07A7D42271A4E388F420E70273973303DF87AD16C484AB524A2495711F5F346E72C63A1E09BC5D879EF3F1CEA5B66AC1E3D87E50EC3CFC49B9ACFB136CD19DA2BA1F87A50C01E1A64961B8D31AA9EE0B0675C8653175F21CBDB193BD815A673D253798D1A15D92A5922A84D3A2E8CA1B67D74E9AAA43FF2F6384C79155A452A81630565AB4821A738B72A7729C855F1F52219908AB169AD8EFEF3D4214F4D2FCF006FF271C04315F9AB3299A69811C29A34026B0B5EC3BDE953F28D05337A01FC0A552DFD4F164B043605237F23BE01E69C4EEA127BB8FA2F57B9693AA50066E85E299EE2316DF4F09AD8B1274B5C7D48ADA043619BCE9282FF05B1A4620F4A73E91446BF654309E86149915E6EA04F07E18957A9FC24E0BAA3D8CF9745D1B2DF78720AAD52BEA160E0A963B35F2E0D70B8D6A8667FC91B0FE3371A6CAB4F4B0C48E9DA3F62099E6690F0C56DB4C2E3B33A61A627E20CB640119CE6DFA2FE686F140E2FC7042F3A125295B10016FFECAF005306A059AF45EADEA824DB1B80A6725C2FDF3E980B180572C7C3711D299181A0793162895A438C7448BFE5BB3E61EC91BBBB190776894760644F63D513CB71C776DBE39CC96C0C598B36A4D676B5415B85DD575BC14F685134773994620FC26CFF6080BA6D56FE2642C210D8F982395A57E0AB2968F6616969FA12F435DF44651B5E0E7F4C1A63123E199D8C2906E0C6AF91F5432EDF568D8E6F209E5FFAE7485AA47364EE9CD7A40F0B888E6818DCE80A1AAB30C62F701E385E8181BE65A8C33B46D61A06EB2B45E3539843F6EA114BEEBA2938FA06572EB0402C84EE17E7B0E9569B987F7AA8D7C3A9D6C5AC52B192A76EA57DB2FBD90C93F6210217009771512158337C289879C51CC8AEEE692C177C881F3CEF3353EAC4B15D37604D06525C23368760A9A56BEF80098CADD9A3237433548FA44435D4600D08C79DABCE52CDB8EBF81BE56CF1D9CC825E9515AF8648B163799CC61A094A8ADD802015436D4A445D0862C440FBF4FFEAAE82FFB6E7C973CFFB8E28C2FE315650608E3010C3B0AF0797E76A5CA2FB96F6F4C2D74CAB69C80FC582273AEBD6F39202275C382C80E2A238ABB23BFE9DE3170B4A93A7CBB6887516CAA6187854F1639DDC9679F61306F079A3FB4B2771F565033BFA8F1D772C229CC81E328D6174E53C456445081C1F3FB2568A42E9E7E2E5BF287D053671CEEE8999F08A59CE6727A42645FA87951ED26CD65C24AAE753D98BB451DAFBD9188C07BFB8B3405A19FC2BDDF1F755D9122D9BB95CF11EFA6660845E4DEA52B2D1FD69E8D4514F4CFA278F2194FC0F3229D1445FDE69A119C58E91DF872FAD129A345708DE8766BAD058B1745ABC20089E3E15FFB9B4626942C2D446590849F2CFE8AE368FAB1EE302772E0967909EAD773863E6F02B3B2B7CBC0D65366D0CF504BD6134A419314B7776CEEB3ADC9420A55CA9C4E56085C771DCC2259C42859A5084185CAD4C45D708AD14773C49452AEE222438CDA75C31170F3E0A6411303E0576A1E091E0F857720A2E713265986C6DD0EA8252D7CCFE62496D884F2381C7B5B185A753B9FD6099EA0EA8B8ADE2C00D6351FA4F8457DC101F41683670F0C33E8229D119A722D83628A296E815C2C8CE603FB2AE410EF19942E1952B97CF7D704E5E683330A8C742C03410AD401B767DC6B25F593F435367EDC3CFFBC7DF151A510FC9213C2562A71A7B72F98A6A6A0018D5300F8267A431F4B604399A44FB54581BCFC28A64DD2785FBDA6C2D5395160AA7425803ED909B203A1AC8493A55C8CC0D55F12FB09B60BAF751CAFDE171B1803BEA8B8D3F395F249DB76A2251F24CB193304DDEEB54384F9299261873E15959FF820E63FA7C44C2451C0389286882E5A3E4D35B3149E0249DC51FBBFCF1FB4CB1C7A53A9B66F1E05FA00C4F05FB4578DF8F4E72CAA3C75466340203C4F5D471869A15708D8053127820C5380D52B7B61560B8F58245071356796F31B3BC2CB8181EB4CDA81CCEC5FF05A699FA980A662AC5BD8D60D762D23E799B8646A5FFBB9977D3E3A435782C0C3EFD3BE94AE2B705F2B0C0FF20842A06713959A7135D13856D99384FF7D659931AA3E1DCC76051F3B6A78757AB9A7DB5FDBA26771C376498E06DE32A3A353BB70EF3D98BE3B2223C41DAFC65530D5BC4FBC6FD128F03236C94DDD4397DD295F51B3E04DB095F6A011D016E286B7595D83F27AEAD90C74174471E48BBBD00AA0B65D84CA8FE2F3ED62EC07F3A3AEA95919729D51C9339CD689F416AEC542743AE95A8DFB959BCEF4511430E11201A03FB49418C40B5094DF91B110E1286F963DFBF9B868F5036AEB0ADC50FFC573390855DB0D69A209DC92FE07932B69E41D781A159257A359349E4BE69DB4FE3715C9D7CC1A4EF85189B34E169E05FD3DB92FD66D664658A05BB08E669E7A5467BD5F0D9196CDE7C844001620A3D3D51F87BE6F3C7E6EFD35A75F3990B8211292A6736A5A2A83BDC5F109686223C04BF7DE451AE4A20AFCA1EA9B07D38204D518F3340E431ED89BC963F37A4974A4BDD7D16E45D49784738ABEB49BDA839BCE0F95C74759DCBAAB3CE128AB7C266EF55D1005F2FECD1DCEF02F60B5CFB28089860408308F2539D262DE17607933CA0B8FA8D5CA2785BD0D7D277E948BF2C7DBA28BEACC70EE02F294689F2C31AEAC772A1FA9D4636819E06FDBB2C790A79BC29FA5B7AFA85BD3BE05BCDDFF578FB0F59A1524C61369EF4218FEA33BC1243BB408061D93DBEE143534917E29BC93EA85253B50BC82B1BFEB53E7C1FD45971F46E6B0BDC960B337D6B6DE87398093D110E424714504F9B4AC0B456A61E8733D2EEBDB154EA9E28D6C20EDF699BCC05AF8A4FC510D3CB279F96E2E350C585F468E7EAEADDBBFDA7E42A752F94A81399EDE4BED573F38D1BADDE1B05E5369679C5FA3C8E9CAEBA05F26FCC490F933AD0D3F6A0467B8B7FE232DBB6A7994398D229F6F41ABB297B42A9FEC2C1A713E16D11575B97B79DAAF993C9808D2E03A7CCFD29FF9DC6CF35E5E88D121F90BED4F11A011578DC5A4ECA96A99E750330860D8FE7B492D2862D89DF4BFD1B77DC7173D8913A35AC33574073AE9978C2CD5F8AF0752EDD18D1D133BB3B468979DDB4BAD9CE24B80816A34A5E23E275C8ABFD0569E4FE14D3071035D6F2DE64966A3D41AE3E8FD025D53BF3AD6B251CC1259FA9D0BC139A68EEE0F161EF160C82AC33E2AE426BFE0246AE1B34E091D419C52D161F1C6A70AEACE6BB119775593EB8DC0D0010C1D84D3505C1E8EF1B29A7368EA2303F196E955608A33B13B656E254C2C9C964FAC23BA00F659D9F6C44DF22BE808CAD3E4F71B0B28F877A516DC41B6A97BFAA0409B07EE093D1CA5BD600A24B59E64ACFD48910D2C41364989AB7DBBE298B102A3030DCF8887F51844FC4986D4E762852008A3DB7E62CDB9720AB145AC3E66EB14EBEBB22C4B2DCB0AC22FE3AC3476618C26230B39CD349A90375BDE011B7575AFCA20922EA681D08898FF6FB394E0CC3E09FF613E2AACAC398E64607E521454A2AF92E82AD5C489561434D4FE3B8E20A7F3A1D56C6B5799CD5F5D8E84B1733CBF16C45C3A0C04CFDFC46404638325B1C15B67498FCD63ABFD47E7B7F38862CBE8F8FEE8B4F2510F7C22D58711E4B0D18E14F2C82639E5A41136F8CDE0058D47DB41F572A0B720704A02C7D1748DD0EB10DEAA6AA056DE1C57A861E88E0385863462557869064D8A1082C228440F0B116561E3F23AAB8B0CD9126C541BB2C10767D481831ED10EC59A3916E16F171C8B7C01D0C74AB55F1545FF066A479D5DC8B29C1B14D9780DD237E32B1920851DE436BD5013FD4D1F2584846D2B3C49C5FDAFDCF2B996CCD7157E9685ED38A29A1D3FC1D16BC7A5D7AB2F9764600A32F7CF579997790E24E5E772B2A185E248279E76AE447E6F4EA30F804AA6A231558C0023756265A7970CA8A4C0C1D2BE91C92E6BAB821A57CBD37897B89515B5EA85FF741B521092672BE51CFBA98A34469AD38016778BE754275D64213E076B0A670E05559DF72669D2BEC32232A597F3E8EC44DC3A2672A974B96D9B4FB0C2FAA953FB510ED3D64D9C48D051097AE65BCE784997899D8D07FE092EE9229BFFF5C805636C4C119FB419C831477D25E6035FD7BE5A9D48D9E3B8016E845958456003569AB0151C4DE16517C49D91C6A7C7F9AB05E6CC56DDBEF854102E9214DF99E56B83385542A6A41D534761F2E74C86CC12DCFE6A8C35278B8BE8DB5C3CB02657B24F3DFC61DDE63798E15B89969B7E6D968C4DA55220B4A8ABAD71BA929F6591367403AEE67C6995869251475A47EB455CDAEF2C66E318D9500086449C146526C7FE1B32CD6944048381C2F3590DEBB3CC005E6E2BACEE69BEE2693372E079B05A7813D75857D2263EA86FA46B24FB5929DA0A5F1526E7A3E3EBC283685D56FD84E486EB5B641663F32A3C06F76B4659ABB7ED89C898A1A518B8E957CB0B12112D3AB988123D888A9300AF754541F224C7EA5140D11BA864D0ABAF1332AA2C4881B06940A34C98033382F3B7D938CD36E797EB7E8C96987B0C0E12BD3CF6A64CD164F64809ACCE2103C9CF65E4D69ABE67D3E7762084C9D4189D3E84FCE6C3D1FDE3723B440C12DC07897E761C1E9B61676A54005A29FA86D12C6EAF97564D36217D2013A8B76F3280620965579ED26995F99DD77E5995948A0582479