builtin.module {
  func.func @snax_main() -> (tensor<43x64xi32>, tensor<43x64xi32>) {
    %0 = arith.constant dense<"0x73A1FFFF1C67FFFFD48F0000263A0000397CFFFF0AF5FFFF23100000274F000057A2FFFF42040000556A0000F4600000C166FFFF174D0000AB5900005D610000416D00007F78FFFF8B350000D5D3FFFFBC7C0000FAC7FFFFBFABFFFF7B6EFFFFCE4A00007D6400007DEFFFFF2B6B0000F6410000B3680000FFDEFFFF4290FFFFA4710000F272FFFF46060000438DFFFF1886FFFFB1840000B90B0000C88E000019C1FFFFF46D00007BBFFFFF6B210000C7A6FFFF10F0FFFFF169000027730000C1AFFFFFBD6700004591000029980000C3320000F50200009C89FFFF7E160000997E0000EB7900006164000089F4FFFF1EE3FFFFCE90FFFF8D010000B867FFFFE73C00008FBEFFFFACC2FFFF11850000F487FFFF5993FFFF985C00007BFCFFFF3B85FFFF5CF8FFFFCE2B0000EC5200001823000006030000C86DFFFF40580000AB6B0000476EFFFFFE1F00004A78FFFF10FEFFFF47E5FFFF629AFFFF625500003A95FFFFC4FAFFFFA971FFFFA6CCFFFFB95F0000DB2F000046BCFFFF8884FFFF07DBFFFFCB960000E02F000056EDFFFFFD910000979A0000275B0000958EFFFF9AC3FFFF807700006E83FFFF8D99000042CEFFFFC0320000BE7EFFFF8E64FFFF3BBFFFFF8C2900001F270000BC3700009DAAFFFFA67C0000AC3E00004E6A0000E3E7FFFFCC3D00005F5800007A8A0000DBBAFFFF010E0000EC5D0000FD09000078230000456EFFFFEB71000013C9FFFFDD2200007D0B00000AB9FFFF3FAAFFFFB9C9FFFFB68B00001BA1FFFF98B9FFFFA6100000A0C0FFFF40D9FFFFDA6800007D530000387EFFFFA83A0000C288FFFF8546000087B9FFFF5A79FFFF6472FFFFA998FFFF576600008EEBFFFFFA8200005F520000A870000030380000FD2A0000B019000079FDFFFFF3550000BD310000E662000030C0FFFF246A000030CCFFFF1667FFFF9FFAFFFFA080FFFF403D00003D1A00006B2A000085CAFFFFB65C000003770000763100005095FFFFBEC6FFFFE5F4FFFFD76C0000332F0000856400004AEBFFFF4FBCFFFF20C6FFFF3B0800008F2D00001CA1FFFF53260000BB6EFFFF7A3F0000527D000082EBFFFF5390FFFF1F6FFFFF866A0000A885FFFF3F7A0000278FFFFF40F6FFFFCA6AFFFF9B83FFFF7883000098FDFFFF561C00005EB9FFFFE950000022DAFFFFC6A4FFFFBB1A0000B3A3FFFFFB910000C16BFFFF40DFFFFF84B5FFFF5FD8FFFFBA530000B67F0000C80B0000A880FFFF520A0000EF9EFFFF8F2C0000426800005375FFFF577CFFFF604A00005793FFFF33D6FFFF0A96FFFF87E3FFFF6379FFFF2734000013530000A2200000BD6DFFFF98F9FFFF586CFFFF516F00003F1B00002DB7FFFF81920000F56EFFFF8F5200007C27000003FAFFFFE0BEFFFF5373FFFFB74900003FBBFFFF461800003F760000E00F00008B750000320300009515000036B1FFFFD5A7FFFFAD7EFFFFE59B0000A51C00002C71FFFFF2850000758D0000C77AFFFFDAB0FFFFDADBFFFFA1240000D4200000DD3600002EFFFFFFA079FFFFFC020000EF86000052160000C3410000D08300006B4000005DACFFFF9C0D000034F1FFFFC50D0000221C00003BE3FFFFA85A0000E4E7FFFFD7ACFFFF1C71FFFFED64FFFF741400007B660000A03700007E640000BC8CFFFF967BFFFF60280000D1CBFFFFD8EAFFFFA9E3FFFFF5BDFFFFF96500006D2E0000D7F2FFFFDF8000006E73FFFF158FFFFF56AAFFFF81EFFFFF3E420000A98DFFFF99130000D066000027D0FFFFB59400009C390000697AFFFFB6AEFFFFD9250000F12A000058D7FFFF578DFFFFCC85FFFF6C760000006DFFFFC7920000BF7DFFFF4F7500004D8E0000963D00001B98FFFF21E1FFFF01970000968EFFFF79320000FE2500003C28000055BCFFFFF93C000015410000F0DCFFFF69760000CE320000AA9FFFFF7B6D0000F4AFFFFFAB6FFFFF2B220000C53600002C6700009F470000333F00001DE1FFFFEE730000F6FEFFFF677F0000F38200003BA6FFFF37840000D29A00001BD2FFFF19C9FFFF99E1FFFF3484FFFFFD7AFFFFD62E00003E68FFFFB4870000F9670000C0A5FFFF1F1800003D82FFFF3578FFFF18B2FFFFA7150000AC400000CF70FFFF7C98FFFFA63300007FD6FFFF7E89FFFF04A6FFFFB64C0000828300004F6A000072710000A497FFFF158000008D5300009B88FFFF04380000EE0F0000B09700001D2C00007D970000B34F000084D5FFFF4F0F00006FEDFFFFE0580000BD4000009D4A0000D6CBFFFFC9BDFFFFB59A0000E16E00009E00000049630000B9BEFFFF1F8AFFFFC04E0000B70700000489FFFFACA3FFFFC375FFFFCFCFFFFFD72E00000F450000C1DCFFFF9B2300009A5100001367000057AAFFFF4B4B0000717E00006292FFFF3BEDFFFF6073FFFF7C77000060F9FFFF09730000DCB4FFFF1EFAFFFFED70FFFF4193FFFF96CEFFFFC7C6FFFF899FFFFF198A0000BD8F0000616500003244000046B3FFFF8370FFFF31FAFFFFACC9FFFF0A90FFFF5C65FFFF3781FFFF98E6FFFFD45000004911000024FBFFFF88ADFFFF57EFFFFF7F1C0000E3A9FFFF91F7FFFFB0770000A66300001FECFFFF574A00007D80FFFF9FE2FFFFE4530000CB12000030F1FFFF76B2FFFFCC790000D60C0000226F000028B7FFFFDD3A0000FD9BFFFF130600002F1B00009866FFFF152900007A660000D2FFFFFF701C0000239A00004BA5FFFF7C5D0000A880000052C3FFFF0BF4FFFFC874000086EDFFFFDB4A00009E2E00003F610000F3E1FFFF12370000B95100002E79FFFF4F84FFFF3A8FFFFF565000004F680000F8CDFFFFE667FFFFE9B7FFFF79B8FFFF668FFFFF4488FFFF62C0FFFF96F8FFFF9C860000517EFFFF0B7E0000C81F000009C0FFFF507F0000BC900000A5100000C669FFFF6DB8FFFF4C1A00006728000069FCFFFF4859000039AEFFFF6539000012CDFFFF47D2FFFFAF99FFFF2C09000000CBFFFFBE4500000601000098F4FFFFEC68FFFF05F0FFFF5EB1FFFFD2EAFFFF7C7D000066CCFFFF89C6FFFF193B00003DA0FFFF821100004C76FFFF9B88FFFF3D72FFFF53DAFFFF9B3D000087450000FC96FFFF3EC7FFFF28090000660B0000C02F000042FDFFFF7D540000B865000030D1FFFF58C1FFFFF7E6FFFFF96B0000EBF1FFFF6CBCFFFFFCEAFFFF0FB4FFFF8A540000BB8E0000A4B8FFFF52DAFFFFD399FFFFEE7B0000A8A8FFFFF0300000CDF9FFFF5E310000C0310000C27000004FAEFFFF9605000078C3FFFF8A7FFFFFCB9700009F8EFFFFCF8EFFFF87B7FFFF57C1FFFF5B660000C7D7FFFF3988FFFF1B1900001954000071E0FFFFDBE5FFFF9BCEFFFFA376FFFF7FB2FFFFB51D000088F8FFFF60970000B43B0000934200009BEEFFFF4CCFFFFFEDE9FFFF45150000117AFFFF323F0000BF24000084760000EE2A0000588B0000C9630000DD460000B1C0FFFFBA400000C4F7FFFFB767FFFF3555000000D0FFFF9F84FFFF14570000D9C0FFFFFE73FFFF9858000015B3FFFFFA7EFFFFDA7E00008C19000060B3FFFF21AAFFFF288C0000BE85FFFF4065FFFF5465FFFFAF030000F61E0000C5D5FFFF9B95FFFF90ABFFFF844E0000448AFFFF74290000D6BFFFFFA4BFFFFFF4710000648EFFFF8976FFFF89E1FFFF123400005098FFFF0D4000002DFBFFFFC0EBFFFFF21300006C3600008CA6FFFFC34200007DB9FFFF8075000030F7FFFFA71500001BF1FFFF0780FFFF599CFFFF6146000075550000350C0000C2260000F1E0FFFFCBF4FFFF800B0000AB8400009DC2FFFFBAF6FFFFF80A00002F360000BEAEFFFFEEB0FFFF569FFFFF8E100000A468FFFF14FFFFFF4D93000001F6FFFF72350000264C00007F620000BB960000E57EFFFF213C000011830000DD7EFFFF0EC9FFFF1ABFFFFF7E550000A18B000065340000A04100000E090000DD750000B676000029300000100C000043FFFFFF773C0000BBB1FFFF133B0000C5820000F49BFFFF8179FFFF8C740000AAF2FFFFAF92FFFF8A1300002E7CFFFFB8A6FFFF56C2FFFF1E7C00008A7BFFFF3591FFFF4FBBFFFFC7C1FFFF43470000D80400005AE6FFFF1C740000718B0000FCD3FFFFF28FFFFF52C1FFFFD4420000FCF2FFFFD5BDFFFF5499000005FFFFFFCBA5FFFF19ADFFFFE12D000008C0FFFFD9BEFFFFB88CFFFFEEBBFFFF3878FFFF950C0000AE8CFFFF1D3D0000FEAEFFFFFC3100001075FFFFE35E0000C0980000C74B0000229B0000BC280000EE64FFFFF763FFFFCD85FFFFDBD3FFFF968300000D6C0000971000002CA5FFFFCD75FFFF7A9EFFFFC677FFFFC277FFFF2EAAFFFF2A3D0000AEFAFFFFBB69000032EBFFFFCEEFFFFF7F1800009883000036FAFFFFDB8BFFFFE667FFFFD0280000157CFFFF99410000EB1E0000D875FFFFCC71FFFFD87BFFFF4981FFFF028400002ECCFFFFA37CFFFF95C9FFFFE19B00002E96FFFFC782000067930000ABBEFFFF127E0000244E0000C5590000D9380000FF200000A1EAFFFF778B0000FA8C00002CA7FFFFA472FFFF38D1FFFFE048000055CEFFFF056AFFFFB67900002F7E0000C3CDFFFF1D9100000A3F00001D8D00001E9AFFFFF6CEFFFFB696FFFFB2C4FFFFA474FFFFE38D00005787FFFF9EF8FFFFC5A3FFFF930500009B9A00000AD4FFFF3564FFFF7297FFFF813400000E67FFFF8A8EFFFF4799000072190000057DFFFF59D9FFFF35080000035F000093460000A0240000D315000030F4FFFFC06B00004D960000E5090000E46AFFFF3D6BFFFF4AB4FFFFBEE1FFFFC21C000060B2FFFFB74B0000C9630000498AFFFF6B6CFFFF41FFFFFF6778FFFF13EAFFFF0085FFFFFE68FFFF245A0000D0AEFFFF579B0000B6CBFFFF62F1FFFF1E0800007B93FFFFAB64FFFF710B0000346B00003785FFFF4878000061630000A2830000E778FFFFFFF0FFFF550F0000FF7AFFFF0783FFFF28070000A4480000FBDAFFFF64A0FFFF12AFFFFF3AC1FFFF0D64FFFF43B4FFFF18A6FFFFAC9AFFFFE70C0000074B0000E688000027D6FFFFDFFEFFFF7292FFFF3C820000657D0000207B00004EACFFFFA087FFFF58AEFFFF506C0000A0E8FFFFAE8FFFFFB61500008DABFFFF27F2FFFF7273FFFFE68FFFFF726B000085040000453A000087C3FFFFB34100005C7A0000E078FFFFB34B00009DC5FFFFA688FFFF5A67FFFF5C2C0000E58DFFFF20680000BC0F0000A45F00005AE1FFFFE06CFFFF836C000015AEFFFF014B0000C9E1FFFF200F0000351800004C3B00005EC0FFFFEED6FFFFA37C0000977C0000735F00007702000047B2FFFFC4600000EE9BFFFF6C72FFFF41B4FFFF1EA4FFFFB2FEFFFF638B0000537A0000CA930000099BFFFFE58D00008796FFFFD63B0000EE66FFFFED8C00004B6DFFFF998C00004C8C00002782000098A7FFFFA09FFFFF2E4200006ACEFFFFABFFFFFF23F5FFFF44600000374F0000E43200003E64FFFF29300000B0CFFFFFDE620000483B0000E7100000E87000009572FFFFCA1E00005699FFFFC0EAFFFFED8E000024BAFFFF54F1FFFF2D6AFFFF631D0000F8AEFFFF75330000F6F5FFFF32FDFFFF4E5B0000546E00006E91FFFF883F0000F488000089440000F8FCFFFF6897FFFFE2020000FEC5FFFFB35C0000D8250000E58200004185FFFF4683FFFF9A85FFFF61450000D0F1FFFF3F7EFFFF7A0700002B77000072980000866B00007378000085160000B4B1FFFF60180000DCF4FFFF5576FFFF59AEFFFF5B8CFFFF31A3FFFFF0CFFFFF107700001318000028B1FFFF702600003532000015C5FFFFFEB7FFFF7C8A00002759000006B5FFFFC08A00009F6AFFFF9D070000726DFFFF3AC3FFFF77E7FFFF92460000DF6BFFFF5D6EFFFFDC4C0000F0D0FFFF9C0900004F800000D1ABFFFFC0E6FFFF0D5E000032F9FFFF6E20000081D4FFFFB57DFFFF30F8FFFF31CCFFFF9D90FFFF65FAFFFF72C7FFFF43620000403B0000C7300000F693FFFF2603000042220000DF9600002D8B00003B310000DFCAFFFFB68E0000023B000096DBFFFF7A8D0000BE5A000007850000F53F0000B8DEFFFFA4700000027E0000F2FFFFFF20C2FFFFC798000061610000E28200001FECFFFF0DE0FFFFDF880000375000004F93FFFFB3390000F66600006FA7FFFF911B0000C67BFFFF0975FFFF60A2FFFF566CFFFF14500000523400002FB2FFFF3CF1FFFF52070000E399FFFFDC2800007BDEFFFFC185FFFF400B000084BEFFFFBE9FFFFF36900000C49CFFFFE4E6FFFF65970000BF68FFFF9D5A0000F45700006B7FFFFF2BA9FFFFD7D8FFFF101600005D20000037AEFFFFFA6B00009FF6FFFF902E000031D3FFFF32F0FFFF90D0FFFFCD6DFFFFC8950000E7EDFFFF2651000088C0FFFFB53A0000D5A8FFFFAD2D0000593E00002C900000E4860000053F00001453000023F9FFFFE843000065DFFFFFE1CBFFFFD0FFFFFF64BAFFFF0B960000166AFFFF342200002903000015A5FFFF94530000DA2B00009AD6FFFF6774FFFFAC1A0000F41E0000868500006C4A00005091FFFF59EFFFFF7DD6FFFFEDF1FFFFF5FAFFFF80520000F2AEFFFF74B6FFFFE390FFFFD9960000DC33000054440000CA320000637E00007AC4FFFFE68EFFFF21D4FFFFF63300002EBEFFFF576E0000B576FFFFE0B8FFFFB94A0000AE860000A26A0000B3E0FFFFAAA1FFFF1093FFFFBAC1FFFF2C150000AAFBFFFFA1650000881C000059E4FFFFB469FFFF889EFFFFE7ECFFFFD0F7FFFF403A000098E8FFFFFC63FFFF6A870000E93B0000E697FFFFE2C2FFFF42140000B1D1FFFFA4E8FFFF7289000025B4FFFFCBBDFFFFD22C0000BA730000F07EFFFF7CEFFFFFD0B7FFFF09250000F8F1FFFFEE420000CBB3FFFFFD68FFFF0F1200001265FFFFC77A00009E93FFFF542E00001090FFFF966AFFFFA4390000356D00008546000087780000D8A1FFFF913D0000185800004E920000DFD0FFFFC9F6FFFFCFD7FFFF867600005693FFFF943F000015B0FFFFCD1200000EF5FFFF3486FFFFC6C1FFFF48740000328FFFFF07830000FA060000117EFFFF9EF0FFFF9D370000332D000066C7FFFFA2AFFFFF51F5FFFF7AA9FFFF266600005E880000573000002BEEFFFFEC42000021980000676FFFFF76B4FFFF96BFFFFF2B950000E6030000CE410000B07DFFFFC31100001C390000959FFFFF4C81FFFF91CEFFFF699900002B880000F684000069300000E1650000B6D6FFFFCC8A00004CD0FFFF5F2100001F9AFFFFA2720000E6FFFFFFB3A3FFFFDC1300007DD7FFFFB02B00009C550000B4840000AB5600007896FFFFCFE4FFFFAE480000388DFFFF58270000BEC3FFFF2671FFFF4495FFFF008EFFFF9DE3FFFFC26BFFFF4DE8FFFF37C5FFFF5DE2FFFFB1EBFFFF033D000051E4FFFF580200006F45000008EEFFFF4E75FFFF83870000B90B0000E46A0000A413000085F6FFFFE666FFFFFE400000FDD7FFFF0CEBFFFF5820000086C2FFFFC3560000FA39000053420000F5F8FFFF34070000B26000002DE9FFFF099100002A000000A1540000B0CEFFFFC23C0000379BFFFFC42A0000F5830000EE7F000096660000C819000022900000D357000039ABFFFFB0DAFFFFFCC9FFFF3A0B0000A981FFFF11C7FFFFFDCBFFFFC2C3FFFF5FD4FFFFA282FFFFA5530000CC3600003780FFFF3CE7FFFFAE8B000018500000084D00004DEBFFFFCAA8FFFF02C1FFFF3A0E00004862000082A8FFFF0BC9FFFFC8D5FFFF8E190000D8090000C46000004A4900007A27000097C7FFFF8EE7FFFFE5730000BAB8FFFF4473FFFF6F780000510700006F8AFFFF8C6FFFFFDB06000010160000EC88FFFF1C6DFFFF79AEFFFFF769FFFFE78FFFFF21DBFFFFE77B00005280FFFF67B0FFFF1B6C0000FA6100002AE5FFFFEC2D000074CAFFFF5A720000656DFFFF7B360000C6BBFFFF445C0000AA220000EC250000F9860000B86E0000B2230000DE370000D61D0000699500005F6EFFFF2ABDFFFF749100005DF2FFFFE609000023ADFFFF8D2200000C460000E6E4FFFF818B0000ED4F00005A8A000030680000D0EBFFFF9EE0FFFF217F00007B96FFFF7FF5FFFF17DFFFFF2C5D0000AF67FFFF05790000928D00005D1D000009D6FFFF9F080000A197FFFFFE5200005B69FFFFE4CBFFFF9C77FFFF8398FFFF537F0000A31500000381FFFFD0270000505D0000498300003587FFFF99B5FFFF37900000F16C0000CDC0FFFF7FF6FFFFDCC4FFFF8BB6FFFF6392000073B7FFFF8BCDFFFFDC430000E00F00004582FFFF2EDFFFFF8ACDFFFFF9D5FFFFD9110000A191FFFF6DC9FFFFA196FFFF909BFFFF4C7DFFFFCE700000360700005C8C00000AA8FFFF33BFFFFFDF2A0000415000008D97000013300000D56FFFFF8A910000DAB9FFFF823200003D1100009CE7FFFFD4330000EEFCFFFF7AD3FFFF13340000C5220000785B000084E1FFFFBA79FFFFC080FFFFF995FFFFCEB1FFFF619000007C6BFFFF62200000FFCAFFFFD1CAFFFFCEF8FFFFABBDFFFF8FACFFFFFBB7FFFF6DFDFFFF507AFFFF1CF2FFFFF4700000C785FFFF0E860000B3DBFFFF86FCFFFF1C5500006BFBFFFFD779FFFFFB12000039350000422F0000539FFFFFCE65FFFF587000009D1E0000D090FFFF3DD3FFFFAB980000132B0000A3EAFFFFC885FFFF6F630000B8870000B577FFFF3424000017390000FFD7FFFF904E00009DCBFFFFFFD8FFFF11D5FFFF1E560000DFC9FFFFCA7BFFFFECB8FFFF98060000E05E0000BB2B000025B4FFFF6831000047D9FFFFCA26000095E4FFFF7272000017180000E8890000500D00000BFEFFFFED2F00005FFAFFFF0F8600005322000060EEFFFF89860000678700005FBBFFFFB1540000BB5B0000C1230000A07CFFFFE0CEFFFF8C13000059420000552700002630000026BFFFFF6D2A0000398C0000A16F0000296400003687FFFF6BC5FFFFF0580000272B00008A7B0000FC4400003A260000456BFFFF5FC9FFFFE8E5FFFF3161000071CAFFFFFD70FFFF13C8FFFFFD98FFFF2E540000BAC4FFFFC6CBFFFF13180000436700004591FFFFF9D0FFFF598500003EE7FFFF3E400000E8B6FFFFCDF3FFFF919FFFFFCB7F0000168CFFFFD869FFFFEC98000039CCFFFF52E0FFFFF6B1FFFF233100006C7600009CD2FFFFF46CFFFF7676000011B2FFFF858B000092A2FFFF5566FFFFE4F5FFFF286FFFFF5B4F0000899A0000B286FFFF7C15000075A3FFFF7E3B00000BD9FFFF1D7F0000794B00007C67FFFF53850000E41E0000C39500002BC9FFFFD3FDFFFF57FCFFFF1F76FFFF28620000637D0000B9C8FFFF34E0FFFF21DFFFFFBFB9FFFFA3920000010E00000ECDFFFF61C9FFFF638F0000E61400006993FFFFB2D6FFFF32A9FFFF79140000B5080000AC200000A042000022CFFFFFC7B1FFFF23CCFFFFAFBEFFFF9D950000E990FFFFCD650000C123000036E5FFFFE4CCFFFF045F000065130000E875FFFFFDECFFFFB5290000B7750000A6ECFFFF981B0000A67200000517000018530000016C0000626000008099FFFF67B9FFFF77530000EC94FFFFC92F00008212000035E6FFFF0F8E00001C7A00000B8F000028B1FFFFC0080000447CFFFF6A9A00008BBFFFFF937B00002AF0FFFF643B00006E2E0000A47B00008BA0FFFF378AFFFFEBC9FFFFF79A00008E6A000045ABFFFF2B66FFFF7C27000053EBFFFF31B3FFFF88670000BE1D0000D964FFFFDCCEFFFF36FCFFFFE267FFFFA48D0000B4D2FFFF60D8FFFFB087FFFF725E00008DE8FFFFCBC7FFFFD3040000B1ECFFFF9768FFFF3D64000098140000DC520000E69FFFFF77400000AE7DFFFF6A7DFFFF717000005687FFFFE59800001393FFFF56FCFFFF3FBDFFFFECE2FFFFF3940000716BFFFFA90E00003675FFFFB18BFFFF5CBEFFFF2599FFFFC4F5FFFF80200000F61C000099A0FFFF313C000091D3FFFFD9C1FFFF47F2FFFFEE6400009A270000070B000018F5FFFFED36000083DBFFFF52E0FFFFDE9800008F1B0000F4AFFFFFEF0800000498000028CDFFFF7D83FFFF9BF0FFFF817300007FA6FFFF087AFFFF6050000068820000CC7E000008CEFFFFA86500008AFFFFFF03C9FFFFADD5FFFF436A0000D273FFFF85610000A1F1FFFF1182000012C7FFFF2CA9FFFF4072FFFF1769FFFF942E00004E72FFFF0BD0FFFF5487FFFF52930000FBEEFFFF1CDEFFFF9F86FFFF6BBBFFFF259C0000995B0000878F0000094F000081C7FFFFC892000014BCFFFF077DFFFFEFEEFFFF34DEFFFF9C6000005968FFFF5876FFFFCBE3FFFF44B8FFFFEF340000E490FFFF8ECFFFFFEB90FFFFA31A0000EA83000016CDFFFFB14D00002BCDFFFF3A970000AC470000D4C3FFFF56E5FFFF2A5E00000F750000EE4A00004EFDFFFFD83E00008A86FFFFF2F3FFFF03150000D4960000D2F6FFFFE11A00000D1900003C7BFFFF83270000AF7FFFFF34450000DAF1FFFF5C0A0000AE7E00005B98FFFFE2DCFFFF633900005D5E0000C193FFFF701300000C0E000043BEFFFF2B10000009220000E6D7FFFF4C7F00005E5C00000672FFFFF7ACFFFFB02000007C850000E97CFFFFE3C3FFFF3593FFFFF54A00006BB8FFFF377900006C0A00002999FFFF3A8F00005563000035C0FFFFD4E8FFFF9B88FFFFD92F0000C8F5FFFF398D00003C8A000069DEFFFF577C0000E4E8FFFFD23D000023F2FFFFFB7FFFFF66E0FFFF89F0FFFF5164000089630000A06F00006E5E0000F0C9FFFFA1A8FFFF36A6FFFF90230000550600006F910000E46E00004EA2FFFF9BE7FFFF860100005FC0FFFF49460000888700000DCEFFFF78450000BD80FFFFFFA8FFFFC674FFFF1462000035E1FFFF66E0FFFF8A3D0000A65700007BD6FFFFED2C0000D251000003FAFFFF99A8FFFF25E8FFFFE98D0000DFDCFFFF2CFEFFFFAD370000E393FFFF63820000429BFFFF08A4FFFF47DEFFFF203900003A8BFFFF686D0000F07D0000FB5E0000417200007B770000C48DFFFF6B6D0000DAF1FFFF5F74FFFF549CFFFFA540000087EAFFFF02840000F9130000158500004178FFFFC1AEFFFF904800009689FFFF333400005566FFFFEB120000E35100000C0B00009C210000DE8CFFFFEE700000B8C7FFFFF6D4FFFF8F64FFFFCB6F000050D6FFFF4F19000047B2FFFF93FFFFFFC28DFFFFD6800000323E00002720000035D6FFFFB75800002B05000000ADFFFF1398FFFF913F0000DF76FFFFCF8E00008B8DFFFFE5610000B389FFFFA1AEFFFFE3A2FFFF567AFFFFC1EEFFFF9ADBFFFFB81E00000A3B000073F8FFFF7D0A000059AAFFFF83F0FFFF916100006A6300004E8CFFFF1575FFFFFB78000024600000A9550000E993FFFF11C6FFFFE2EAFFFF5D90000097500000A91300005D5A00008D8100004584000002300000C6DFFFFFCD010000088400004E95000062C2FFFF017EFFFF1A3F000041B4FFFF622F00008D800000913B0000BF220000D879FFFFD8860000BC5C0000F55E0000E0D8FFFF1E840000CD7AFFFF00DFFFFF0FDDFFFFF5F6FFFFAD8400003C9DFFFF428FFFFFA2EDFFFF682B000045BFFFFFD82700004C7A00003420000083A7FFFFD8A5FFFF0EE0FFFF031A00006C000000DF82FFFF1F92FFFF4C920000DE8500000DE7FFFFD3D1FFFF9C2F0000FB3A00007EEDFFFF459500001CABFFFFEA93000041500000927D0000DE7C0000B2FFFFFFC4990000610B00003D3D000071260000BC18000088C5FFFF96F7FFFF124C00004813000022D8FFFF54540000087900005B280000ADD1FFFF3287FFFFC67CFFFFBBBEFFFF20060000C31A0000E7390000D0BEFFFF240C0000266900003BE9FFFFF30600009C7000003B94FFFF71420000FE9FFFFFA409000033E2FFFF7E420000FD790000BC2B00001BCCFFFF95CFFFFF86DDFFFFA48AFFFF158E000044720000BD5500007658000041750000FD590000547DFFFF0E82000049BEFFFF96C1FFFF6679FFFFCC4F000094BCFFFF994B00009440000074A2FFFFA41B00006C3400005F66FFFF6364FFFF90050000B03500007B7600004A8DFFFF7E76FFFF54BBFFFF34D6FFFFBD8DFFFFE1C5FFFF2FF6FFFF11E6FFFFA7B6FFFFA2800000A89AFFFF9CD2FFFF73C9FFFF5CDBFFFF65B1FFFFD43B0000E95D0000283400007FDCFFFFD0E3FFFF3770FFFF48E5FFFF41600000FB250000EF71FFFFDC7BFFFF20080000F9B2FFFFBFD3FFFFA72C00007AD3FFFF872C000070BFFFFF0E240000508300007B7FFFFF17C7FFFF6C400000041E00005FD9FFFF805D000016BCFFFFC70700000C770000B8510000EA5B000040F1FFFF2C82FFFF72D1FFFFD08F000053A4FFFFF91200005E8BFFFFA32000004A8AFFFF73750000DB5D0000F2450000AAD1FFFFC4D8FFFFC78D0000FF78FFFF491C0000E50900002ED2FFFF9F9700002FFDFFFF10C1FFFF9EA8FFFF4752000008EDFFFF812F0000F0910000E32A0000037FFFFF0DCAFFFF280A0000684C00009894000036540000BE7EFFFF31450000C91A000054ECFFFF4BC6FFFF1A7BFFFFC1A6FFFF354D00005FFCFFFF4F730000DF88FFFFDF5000003B5F0000CA450000C9A5FFFFCE1600006747000076CCFFFF8813000058BAFFFFA7750000FAFAFFFF0D3700003B3C0000B923000031920000B39300005D6DFFFF939BFFFF941A00006B9000007261000054530000A293000039DCFFFF36220000B08D0000CBF6FFFFA82800006E0F0000D14100004CD1FFFF3DA2FFFF479B000027C1FFFFAD3C0000AB9CFFFF154600005546000018490000D50D00001BBFFFFFCC220000C196FFFFDC5D0000733D0000DAC4FFFFF12100001E1200005619000017B4FFFFEBD7FFFF8C4500006A72FFFF64CDFFFF7C6A000020690000C285FFFF7E86FFFF35AAFFFF5C2D0000DDD7FFFFE67AFFFFD888FFFF3F4000002ED8FFFF290500000762000040BCFFFF2B3B0000C225000043FBFFFFA25900009FB8FFFF986D0000C96FFFFF54E9FFFF3FF3FFFF9A9A00005AC7FFFF0190000068DFFFFF2F6C0000CCF7FFFF151E000019AEFFFFF58DFFFFCBEFFFFF90CCFFFF8D5B0000389AFFFF61B1FFFF74010000D39FFFFF4FF3FFFFB677FFFF05380000F792FFFF92C0FFFF3C89FFFF49ABFFFFB567000059C0FFFFE46A0000A5820000F5960000A76BFFFF544D00006D5F00007B540000F8E7FFFF6CF7FFFFD39FFFFFD04C000036D0FFFFC36D00009CF0FFFFC271000097A2FFFFA422000079BEFFFFB37DFFFF37F3FFFFBD8EFFFF616400005DA2FFFF529BFFFF5E5C00007B500000FBD3FFFFFE7000002D7BFFFF923C000055950000572600002C0800000B580000DD650000F9B8FFFFA5F7FFFF3498FFFF5E0F0000D28BFFFF6F4500001D79FFFF76D4FFFF307CFFFFA08D000051E8FFFF336AFFFF302800009BC5FFFFBACEFFFFEE880000F8A2FFFFBBE7FFFF35B8FFFFEC8A000060940000504D000085140000C3E8FFFF53260000AFDAFFFFEED9FFFF0A440000489CFFFF4F71FFFF4984FFFFF1EBFFFFC21A00008C370000BD7CFFFF85EEFFFF10330000B4BEFFFF52530000E2C5FFFF597700001C590000FF82FFFF64BBFFFF930B0000F06BFFFF7FC6FFFF19CAFFFFC3B0FFFF3DD6FFFFA69EFFFFE6400000B177FFFFD76EFFFFF8700000230E0000050B00007598FFFF6DA6FFFF2B81FFFF7BF4FFFFF881FFFFDE81FFFF136A0000579AFFFF98570000E315000094BEFFFF5769FFFF2B87000029F6FFFF1589FFFF9B8800006264FFFF76EBFFFF9BB0FFFFCD84000037A6FFFF492700000FE3FFFF298AFFFF9882FFFF8CE4FFFF0526000008070000A378FFFF774A0000136EFFFF11030000B9ACFFFF2A270000D4A1FFFF831C000071A6FFFF9ADBFFFF919BFFFFB782FFFF8A200000536800004E920000546300006929000059920000AB6DFFFF4DBCFFFFF878000064B4FFFFF9ACFFFF04D2FFFF99EAFFFFF0CCFFFF52ABFFFF32450000145700003FD5FFFF4B0B00007C7DFFFF607CFFFF7180FFFF34D6FFFF83C2FFFFB89FFFFF15E6FFFFB6AFFFFFE06CFFFF10560000578A00002181FFFFDB7B000079BFFFFFEAABFFFF681A0000663D00001512000070140000216A0000AD2900008594000000720000091F00001497FFFFD59BFFFF01700000216400004F900000729500003C96FFFF6672000017850000AE4300007BDBFFFFFA7500004922000022A6FFFF7F6A0000B24C0000F08DFFFF7FF7FFFF465D0000D4ACFFFFD395FFFF598800003E5D00000388FFFF2DDBFFFF3397000095DCFFFF4E7AFFFF377D0000A78EFFFF95AAFFFF1B9EFFFFCD66FFFF3C410000A8CFFFFF677EFFFFF9ABFFFFD9FFFFFF7ED5FFFFB7BAFFFFBD98FFFF42B3FFFF870B000020C0FFFFE9290000B3070000A2ACFFFFC5B6FFFF665E000073210000D6CAFFFF3A2D00007198000052E3FFFF847EFFFFB76DFFFFCB7C000009520000C7230000BB2D00009BE5FFFFE8B8FFFF638C0000A44500000780FFFFF67DFFFF48B7FFFFEEB5FFFF4E030000AD6C000027F8FFFF91980000FB7EFFFF93D5FFFFCB9000000FF7FFFF427DFFFF2C8FFFFFC2640000DA64FFFF319A00002A6BFFFFE773FFFFA57DFFFFC761000024E6FFFF6FA6FFFF2AB2FFFFC36C00009DFFFFFF858FFFFF2D3D0000D27AFFFFDF6DFFFFCB5900004A5B000040380000FEC5FFFF2CE0FFFF360B0000D431000061400000C368FFFF5BE7FFFF2568FFFFB9690000FAC9FFFFB684FFFF3FB2FFFFDAA2FFFF0483FFFFD889FFFF423C000083CCFFFF59C2FFFFA2E4FFFF7C9EFFFF9B910000C82400003389FFFF4566FFFF92DCFFFF4AD9FFFF6E2F00002BCBFFFF88ADFFFF940E0000A1180000951700004288FFFF0B66FFFF9B95FFFFDD4A0000AF730000D4F0FFFF94C7FFFF624A000073AAFFFFE8130000F27C00006E97FFFF11D5FFFFF97800000AE8FFFF6F9000003F070000D07CFFFF047F00002B3E00004AAAFFFF1D8F0000CE0200001AE3FFFF62870000E0940000934600003CCFFFFF0168FFFFA2F5FFFF67870000B78CFFFF5B64FFFF666B0000858D000053FAFFFF3BD4FFFFC03B000087B7FFFFB6F2FFFF16070000028A0000EE5A0000E53A0000A27C0000F888FFFF74270000B383FFFF4D220000A33B000050C1FFFFE6350000BB2A00000CD7FFFF8E400000918CFFFF32280000BA8000009ABCFFFF566D00007A490000379FFFFFED7D0000E56DFFFF4D640000236EFFFF078700007D9EFFFF521A0000BE7B00000D93FFFFBAB9FFFF1386FFFFD884FFFF17BFFFFFCD5400005974000096EAFFFF553600006FABFFFFB873000012340000729FFFFFD2B8FFFF88C2FFFFDB4C00009377FFFF6C8C0000062100008DD2FFFFFE7F000008200000BA8EFFFF3B9AFFFF36990000D29600006E2F0000B33F00004D75FFFF6527000074E9FFFFFC9A0000632E000067DFFFFF900D0000DD240000C8240000FF4C0000607EFFFF37910000F35E00004D1A0000A88FFFFF837A0000BAE3FFFF0384FFFF9B270000C19DFFFF153A0000375A0000BE780000CFBFFFFF9CEDFFFFFD8700006F2D0000"> : tensor<43x64xi32>
    %1 = arith.constant dense<"0x00AA110041380600289A172F06F3200482EB05001065A4003D2BC3017CA5D70643371C008AA6A40095CCB30DF8C8A70FCDD304003118DB05741D19075853B21175F9790CE13309002FAF5F031A9B3500D065E41EEF8B2000AE8918001E210700B09F7007934C1211F05FA600320D200D6256B504F55CC609C8D561007C8C0F00C41F010FEEC90400AC9608012EDA180060A1070060DA4B20E05A120150D55A3110A22000E08B8E0FC4B4310090184202105925004E2D7B005A31E709A0C46B114ABA190080AD990B40DBC320809A10239A3DAD03796C410186BB070078015E01A03AFF16D1885721004E020BCAD475005E565D00FA5E0F00947DE500C1CD0200B0F8CA0301163F00B7483E0010DB0A1CD488070050A50C00E6CD8A0C68C4D20010E60C00024579003960C302A8ACEB0AE63E6002ABD3E000E40204000CA3FD0D5253F80BB45C070094C7F2018EDF040060C03201561945007C6C0F00AA66600AA0151200BFBB23014674060056E539004D05100A92184902A92E28005DA90B00009350003A6A7D25125EFE028E232C0190FDE31D00DBC438008D34087ECD11009A612200513EF013B8B40A00E82BEB30ECB46600DCA4A302DAFC0500A0B6030086F5260000BD5E024094290240E4F6023CD21C00773C641C46C0340336D0B70B96BA7B00A335260700601908A4B47C1547D720005CA0870178B38909D9A4D50040A2F9012FFF07002776EE15E3183A00CAB2A901DA6E2401084F300044A2190022014F009F0EA7142C5B1400584E360001397901D1142900FE85430088178115190474060E0B0B0066D9DA03A4940700C08EB507438816004A4F0600A1D7070080BA1300C202EA110C99960068A01E180CFA28072A4B010CEDF4C403B7A2420300DF92018621BC008A83F20762ECC50648BFF10860A1350060FAFC0B64785600E6E902001A28CF00F4F0090014B89B043C0AD402D13224023F832A00A0FCCE09EE630011E0A2E30200F30C00F08E2900ACA5C000EC28F5128F8F2502BE5D130AEA0C8700DC5141000080300007E8C300C2B47102180F180004AC4B02DBEC0300F0000B0469BEFB207A92B300A34C0D006AC403003459F40C99F00C006DD4A914F5ED10006BDC7200AE5C040090080D007229FD1B4AB2C30092647801D0253D00EBD6080640CB7500ADA71400A2AC4801B02E1E00C04EA816DC3404009F0A8100E01929003BAF78007EEE81080E12301636FF2C01AE280600C16A280191C41600A2848B024252550B30430600E33F1000A8F3C204A0931000406845009631150042AB4E00F53907009C6AE40330F208082CAA5103BD440400271B8F00E032050068B6E80D6091A30100141F001075671E501106000E4DAB09E974C5012466A8003EDC2A00980C0A00002C8F05C8D21A00098E6B01D47F0C16D4444B01AC41190D505ADD00FB6D5202B6712800B37F180082EB05009884032EE36C710248B20500528259263B8A9D1522450700E0712B008F3C61009D0E1602F630A701B87DFA05DE26BE00F0D009005A26ED0092EA851460D93C02D210E802F886A818F1C80B0680E12000F548D801CC8BAD0014503401F9E4C801D7E95100FA401109ECD29400CA8C1800EEC90400FEE903003B2B3303707DC509809D7E04C07F5E0A78F410009E3E05008EDBA002E8D24400EED78E00A419B300CD892100B87CF6088078FB02F0039300A0611516002E050000A3090012101C0060E2C200B1BB8303C6740A00FE457B0123BD561400E63E00C8D8E21BB1BE58031EB00800E0661B00F5B2B30150F66102C1F37700695E0F00AECC0900BA03200EFEBD04000805393223D507002E3CEF18D649181691506004FCCE1600F6B76F00E6710E27145C0900F4BA57057A23030261066903FE3F26002E42190300DAB206901438007C5696118FA24A04B0D617000EE194155E452000FEE10400788116027992B802FEC1880C2193C906EEA51F04AAFC5A00D6C226110448D601B0D1881200FEE51E604C1400D0C2B2251A82C921ACDE4900503C400007C16F0058470F000E1906009FD92F02C07404007A6BF119C0C4AB0B401214000049510122DC0900FFCB0800C8171600FED95601FE5DB70405CB080000280F0028F251020B694300A2B20C00F4041600AF849404E0F01717617A59141122AC1567191000DA42FE114C1E330770CD0D00AB86CA038EA3DB01CFEE131C0477C802A08A3B3FC41C7207323646001EC30E016800E8009A0F6A07FA2961067555CB0560512B0000223B0085E14F1CAECE770EFEB52F01B0D1E90D85C43D00F6300C008C7A56065A4D0F01AF010800F4F614003EC60700406E3C00A0B19B02C2B92B050AE8C40040BCC40120E6BB08A090120B02742400566C6604DD65BD17504B0F001716980044560900E95E6C0F95E88D0060665E115E231E0020D2B200002E050060D70A00960D480082054500DDCE0D00E6A27D1AC0E8AE23BA159E130006D70492081600F89B04006C94EC00C0CD3600D0F8080030DD030082700C008C8A9E00D7685E07442A0E015A44BF00463B240074F49600F271930260C60F00E362B90020C6111C3A5C5D0C187C7D008874CB040C7D0D005D9E5B00E356620A87B963019CB5710080592C00CFF9340CEC762D0184B2151430912B0018D5E805D25C13000635FD00E46BBD0157140300E03B8C02CC37F30EFCBACF00E29FA00150F2922D43D62E009057CB0720392E1DA08F2A009C10EF00DE8CC40CE58A9400D8B6F20676532803B4BC6511C45E5500372FB102005E610770E1050080590800C0010B0040D38F05C68F7A0E1E8E52005E50030070D11E000E6424003019140000DA0900C0A71E00E852A100A025B52140D40700E6D94110F0EBCC0166C041006930CC1E153CE62514DC0901A9F3030031722F005CDDC40150027A0330168600AF40E408BC2F2800A9E035041D0538007828380018FA1A00049FF6009EC14F00DA4422056A90AA003013F200EB800200B2B88F00253627001095A30081845B20AA2044007E86310087A5F30308C80E0049FB64013EC607003A710900EEC904006E5355007CC2270958553804E086120000252F0064019C01EC45DC00A38D28033CF1F300E43F560814C58B13997D3700F8872100A08A7A00FE79C00C401E9200409C2300309B6A00E06724000075260A7F3FE518525E1F00885657000F611A0000F22714BDC310005E52AB0214E8E90000E90E0338A94B02004B510ED9C22900233F5E01C86532004875060029628229F5631000D91A0C001D2D3100F4931D0000ED5B0C28797700B0080B00DEDF8B01D4162306C841A70087AF6300521E5700B81E0600ECBD1600B07FB202ADA97100B0E6D028988A5E0580660906A5CFD500C425490060C47A008EFB7D01038B0500EE8F7D048522C5020002FF10AC1F5E02787E2D1F97416C18A8365D04009B360060F42B044AA60701E6E902004FBA430890784C0044150A00981F600D54962400FF3004004038D30802AB1C0060A7070040875714F0EE5D01B6A523004B282100631C48173E4108001E0B0400DF4706000070EC00A49E5E010D4242003C601100D07119003608CC04A0EF09008362D903583D3A00717F2D0070C2980CFBDA0B0066A0080034626900D806B6042F5A0A00E503A904B4562601329493001E125C01FC10DE0288C42500DE383304DDEB3200A6016F11981E8400109C330284225E003EB6070060D01600501EA306AD9AAC0B98175B017E3C4902E4E163004656810011BC3101F862542018CE2A00D0B69E0034082B01EB9B8F07584116002014240040061100C2A0F101E6E902002D0CE800E03A852CD6E5BD008C05AE05E9930E059C46390800D73C2BCC5907006035D00380F4A71610A006009EF33E00212A3800D9BABD05027F8D1B689D6C0358E3E307000E10016510AF0C4004FD0F2C4FAE03D4F32B01A07EA10070EEBF032C342E008B256305CBF9681A56740D00A85206005362331796C5A300185913003708F3002245070074AB2100A3573200D31F9F1356040600E0941500AE6B210009313F001F865505C86EBC0050EDA600A75C880A8411161E153F6000509E0F00DE8442009C037F059CDA9A002C7E28001F0419226B0ADF00D9351B00CA8C180092F58B0250D62B006DCE5A00F0E60800A0C72F00A0E405006675C0018428080050607704ECE120006DBF6F03902F0A00A88B3608FD41FB20800853061096CB2AE0E85202C03C0300F00203004C9E0A00BA16600062C0A0127298430C32C75F01A76D240000100600C5EE0C00F6C20500080508004877180027361703A0BEB100F02C0C1454F4B100E0CA9C00280F4501F27CA1181DEF010190640B00A7A4050022FEA40122450700A09D060793DE2202B8F905000AAE0400D8960C00A77D070048C1B723D4233A002C6A05006013500048B0261D88050E00E09B3D218068DB2F85C43D002E25061972AB3C063802AB088E5FDF02E5AF1302F75F9F0016A30E1DA8D3201D8EB31600176D0C0030AF3600002E020760F7380030C80600F82C810EFAA89717BCA54800E51D7D27E4913907BC52CD1AB4F90B00201942003C3B0D00203A2D00002E0500D0ECFC1A76600B005AAAF7000C770F007CD5E30050A5142FB3D8790000CA0300AA890A00EA27EE02B058050060BE0B00D858A520905E87010B8D0B003EA06F0064FC250158A5BE07D0CD2F059FE6FE0266059301E2C9E90050CC16095848532AA846B001CDD304004A7B0400CA121A0000A7AC0046CF96010B552A00CFA4F4059207570830660F001A010300ECB9D300A7440900504BA0000B410E001A050500F0E785088DAB1B00683BDB2373FB3B00EF78BE00B675010164500C00FEE9030078FB8902D80E040B80B30B0040A84B11C66B37103A839912F5390700642DB200ABD46B0128E20B00445107006262CA008043D605961F5000401712004040190040232400FC8C040085A12A0071041000F44E0E00483D40018943FC090054F91B2F203600378EBD00100A1000407A40185B1FFF0FF0499112EBFB270043C00D000A661D00C487E00A23587700F5631000D49891010D472400D6856700E8D00500CC761200331E270F3FCAE900349E2B03E0214F00CBFC160425EAF01B8FE20600242C7F047011480063820600DC340400C5F4A003E0CB0E00C092C412F65C7B016A0DCD096E3B650002B20300038A640EC5DF21002C618D05EE5A5C0056B14C01AA6A8403C02A3D0360A1350080B74600F4A8EF1E1ECD9B0F48AAC30A38E217011DC520001CB72D116D060E00FF300400A06B2100AC1C130040C8C90000F2241CE05B5C1030FD272C9B541600A7455C1830350D00D83A2804DF4706000084131F595A03005C4D061CD068E8261444331886D21000B01C110098423F07CBEE540081E3EB00B850830071B7040ADE22E708E8C35003A7A40500334AF9016CE242004407681003AB6B04D0AC420104ECD70C3CE40900B8B4AC011C1616006AFD7E0002264719D0963500B3A25E00DC340400EBCC7902D05823002AA8E004F6C6C30040E4C800076B0309C8384C0BE3640D00284680053469381BD87690049671CF00C67F2000D835C30000683E00A0048908B8EB5903461A42129CA20900B8B40A0044150A00AC9B840841AA8000DAFC0500A0F51A013E0812110037822880086B0C50D1990F9AD4C70199EC270092FC3101987C930030780600AC382D00009C0A00A25E0E001D0A390020758316548F99017BDE15002046200287BAD504165442002519250032D09517272E5508D5FE2B0062EF8E1F087306008470B300CB16050000834500B5B78300BD03FB04E402040008FE080044D66D05D9A35C0010851901FAB54C1140F52400419A4700DA6A6C0920F4FA00E01B8602FF476D00089B08004A7AB000F3B63A00B0DA0900E4FFC500BDF84000DABE110A80729703D6960F03ADA11D00687BC40080F79A022024C9251A16162D127D4102DC053D00BC93AA27A47F5804C425910005920E1BD2A7BD0640496A1BA62F2604E05D580040E7300EC07CED11745B0001BEE63C0018D02720A2F24909BA4E92195C1BE20000BA5E00BA949B142916F50526B51000D0EFC4038D5FF908E0F914000BF2B502E4B40900B94C06006E9B0F00FEBD040042E51A090685710315BA2A00D70E6500802B170108E51700BE08BE025A235800A25A0700882CF201BAB9230085611A00C1A08A22D0FE0C001064A9008D0C0B1ADC340400C220D30B40CA770A815A0C0044401B0004854F00CA148601D58D8901F0F31B006587231198AAA300B2E79602423C470056144301A0693500C0D905000031C524A64ECC000A121B05F2912E00E4799D04450C1A0084E3A604191292031D48781A0058C71C8A310D04006BD90680A2A900A08F0F04F4BB6E00BC7E4E00C87CA300F804210070CFF9297289070000960502F9F4AB005F031300440E1F096CAFA6022E32390020850500ADF3A5029A5F9F029BF3601C44B18D0450A50C00A5D2C300F0BF4F007115DC00322881007A1D7507C8452900523D250070F30B00EC350F222030890539495D0429F876042380DD15BCBC2300F0DC110057902C00AC75310367E53600E0A38D12B280090066E02800600BB60544114D1BE49E440A707E66000C6F1800F8960C00D65C2800D4B4820172F5B10198B6900920553E020087630030C8060022670D003E22920014D3D300E6A64204A804CA00870C0300671F111560903B046AF70D00C0232B00004553014069370084128D00E84265279232170062C523000664D5022CA4701C00940700C7F067004B891E00C0BAC10268A59900A1F0950340B41C00B81B0700167AE00126330400241AC10FA56F0D00391DD30322D10C00087306002D4786024AE1C50ED863F307CA3F1D155FAC1200627D74030026F00D47B53920D9A35C00A5A7AD0046053B00705D4E1A1F8308008A9A5104A27F260080C1C5016DD2FB00CAC10A005C3F2B00A4ED1711053D09009BB595194B694A01A2EC06006E23880056E3A503A39E090690F72900801A2300E0DF9900FC9A230042C6C108AB65951E705B860383729B0078A5FD07E8438023B6970300A06B2100B4B1270020A650258005E000F0F4D903F819090068F8D6015E49C6027C82100042E508003C8469000008D42A82C83B141E8FFA16F252B4036870BB0B2E323900E097E31B87676400766FC902C97F11006CCED10CA5C4D700E09A1B006A157F01AB0E7000E28AC40183C81508A430FA262444E908DE710D000A415A0094D66A09B3CB0900816455033BAA2E0052CA030060F1140092020700027668009B6A060060E59800061F4A00440B7700F058800003F026048360540035D7F200950F6A060690830010790500FC2B361CF7C28E0280CDED0AC04BCA0140759E002AEF0500EADA6403EFE95500E4B499008F213202B8644C001A2FAA062AACE7020067FD040C02AC0040E1FB0040166D09802F650046D8362954722C0192249D052A953700981B4204A2A21B0000A8850289F61F12040F28144C4ED50E28AAAB01D485DF1950C48E07FD3426009DAB7300457F3B005AF4E70052E70700300345003D863C00D4B74300864F30005CB90800F4E4200BD239F003267807006045600060235A34C0FEE705DE4FBF08EF488100C0531100800F4000E3C8C6006C87770A845E1F00503A44001315710032CDE901200417017CD5520A0B0064041A727102BDF84000466B6F0058CE560F54022400176D0C00489A8A0F60754E0160D2090036A1070060CCC300F553A201403C0C00A20A050008D62D00A2A8030047FB0800409B5A003E92461360A7070000E61900A072530BB2D24A0C2A39960054701402561432009EC7CB1005CB080000B26303674D1B00E8C51E086C4B9802904F4502EB9C6014B044970D5237530399C1F604EBACFF014EA22C1FFEBD0400127C35007AE07F259480DE0019C7BE004EA01B00106B2C0362AFCA05DDD2670012F35E19E81C5C0B6F1A4D1A9DD387119DD082008E2E4A00A07BD5204E0309007874A5001C548000A046F00BE3A6060020CB0116B2CEC81FE7BDD70175823A0008301C0172E11200CE99D606CC1A0400E2B53A007D560E00A0B70C0000533F1C4046600154DE0B0084B2C7019755320A8C817F1D5FEC0A000053360016BE0B1D4EC6B20AC00B2E0088B7A100203A2D00406E1E00C0F74F1E88702700E3E05100EAD7A90330F9260142E5080080C9A000001C3B0090A53500EAAA3301100A10007C50360077A70A00C0740F000B8D0B00D45852157AFC1E015231C3184C21160097123800E366B30208FFB209D948FB1BCC121403549A0700681C2628E25B22008C899802A0B346029F4B6800EACD93048FB9CA007C103500C08AC80431FB4F017CE1D20840E28800D00A0900815A0C007A7E100062991C003B57172302B20300D41D0C02801447009E81350068ECA600B8B4280041653800289D1C00A0660201408C06004E0BE40018F48D0B29700A00E027B61F21A1600074AD5201A83A62064AB19500406D0700F0314F01807A2F0340E4A502B00E0F00FC8C040044A6AB143C1D6801A8010B001CC8480028A6214900F68A02A17C5B00F2100800B63CA90D484ADD1B687C04009004030209A2C505F2636C002CEAF106F8342D0089D34F0095346300368D340822014F00FEED0400C71325001C6F8C01FF8CF00A56DE8002CA121A00A0DC3205F7064800551F490342A16C009E6D2F0C40B85602D8BA5A124EF830012D761C0140D5BC03F0E120017CE4D11E2A750A029AB98D00B090FA14444DA71CC6C12F005C492507ECA44408E09E3302E33F1000488133002052C901E07A5804A2FB7A0366563202D8F62C0094A606033BD4C422B85320197E765C096C2F0700A03E3300FCA3DC0780C9770200FBBE12A0782C04FC1FAC0213170600CD512800704265007637D80A11365E00004E0500725C2500E8D30D00D27942094C713000692D2B00C0917901984DCC12A2CB110086654700320FA014259A72003D5E1306429A2300BF5EE700FB520C00AC09B517B44A1000CDD30400C527FF28B0223000945BA60007EE1900B557480411DFDA1140FB330040640700139B320B04721D00A89A8129907B19009EB30500F6C6C300FEE1040086F39D06B0ED242365E60900B2E6E00174E21200B29A9D033CFA520050B72A3110A7E40420E00400A0A20B18F26ED102FA92BE1DA8CF390010C4F700F3AADE00902F0A008F36E908CFCA5E108071380048265B0020C2590000AB210050F5811E68176F016D865000CD512800A88F4F1E5E368801569C160000064B00BDC31000C48F4901EA805501B8E9FB0178A68E03D0F539002C342E00591450000F192C0050FF541FFBDA0B00447BD60FD5E54202069F9F00F06F27004E36490AAC7D24026EE50600F47880004ED514024017BB1D6AB376000FD974026F003010B0E42A01F067940A78208708808AFD095A63150080082E005C69170BE4C60F00F8CFDD028BA9630185125800985EE721B359B3184E40DC1F2EAE1A0070CF1901E33F1000C0EB0425C0A73400A065C9120006D900708FEE02760E0E03B0433818A30115003CD31100E9BB2D00F811DC22E019EC0D92C91600A07A030040C22E0260356B00B6A5230094709110B66160014C4D0300E0B140000A29530100CA0300501D521796123D00B8E8620050C90900A3A04007700E70004DDB50008BC657019FE49000A43A030054CF130BFD60FA01C6A88907819A1A00C77D03033FFF070078DC0A008B433E1194F608003C85E023147B160019E6B00064713800380A680098237C1D90C606009FC9C800D09B0500BFF80E0090C93300BDC11700600FC300340BF2018404D30108C80E005D732B04774B5800F22C2A00A04B8E00D80EA80B353E3905E0A0F10060A5D100A04D3C038A02800048424800D8E8BE2E1C791302E7161F00CC9ACE017AA76623AC812D0080E90800F6ED8A0080DCC00F40121400B06B0500186BDB076892F720F45E8210667B3600E81D1E0CD24E7101004A340090A535005D169A0BF259070028727A0A5C64720020593D165F144F00F85A2000B94C0600A43A03007CA5CD028FC3070017A5430071B40D0099A32519390995000C1C8C00B0080B0050DA2300500CEC26F4F63B0F6C5A0B1EA632300945413300CABDE81B40AB3800A781040050378C00107A7D00008BFF0CE3A60600DC2B07008CA1680004182300BD8B9802CECF0C00E7684F00D2F50B002A788D01769EB619CBF3820058812C0520154B0000EB1E267060F907C8F622009E70780028A9670B78423F136C22D809BEF5AB0012444C03C0650A00046D970020F2640100C2B125D0F28F009432FF01986938028DF80400CEF71C023C1608003314A408000C960050ECCE00206E841368B612009C8B5900E6A1CC02C074E40828531500A576F101062F5401684A2000759449019797CE0214995200846142201A812806E8D00500B0192700AA623C029A6CCE1856040600140850003C860B00F8324D08A2302300D2CC7F0EA08DA6017D8309006ACB31216A19D50EE04036004A5AB80060790B008A82DE02EC11AA008318F718B40ACD1ECB2B7500B855A413A6826F0002474A04EC485401D05B0600C0DC7A00A0D988009CFF9D1022EB350899FE3F104CC77A0BB3563D00A80B27002A4B1200E5BCA30140CA1201483C6F2160B8F70D0021120060926100C0F90A01D2313A0021F1E403B6C7C918DAE23F001727B30800940700BDC31000772F0500129B2F0D744F64009AE54800706DDA03C70B9C0C93586800FFA9ED020C4185055C86BA0013EB1F0030527D00381FEF2E1BA63B00368EDB000C526F05F22B0F001A63F016F85E0D00EC112300AAD25100F8E73B05C2B50A006AFBAE0AD0C8DA1FABC024064A88CC0F3ADBC418E0CB0E00A1538C15246AB000909405003DDF1000E8A985038A9C83000D72CD1FCAD85A017221B617304306000D383C00D02C8E0420AD0C00405603032AEF05001E4F0A01B0E293075CF15B01E19D440288AC1200637C040DD2842700003D4D00E6AC0300C04D4D0E00ED450030865B018CE32200B7B52701EB480800643BD014D0286C040B70570300824900D1F203067C8CDF0036BF20003C2B0F00B9AD49037012060008B8BA337C2D1000ADC25D0B9A1208004ADF1A0009BE1A00DA1E07007C27CB00822B3A001273FB018865EE052D70CB00A2601101740E1400ACE2FA0077753609ECFF890FC2B50A00F0540400207A0A1C1C525406821898074E891200B04B3F0041CEC2007C82242890FFA506DB756E01AE81CC06D3CA9E186DC10220E2F2C70200915700EE9FEB002815A637805D8C20408E3800E0330700548B6706304F1700AE532103B044781BA576680480598003F37C0500C315C214E078D009003F3009C0894C00C0E04717E0050600CAF96D007CCD79001C598200A0A9021784CA11003019140000E4860056F2DF01C0DF24008A86F6029437BC1393427801E0F91400AAC321003F778500B660CF012472AF00A7B10800CC40110075154F263A2946267AE34D00FD844600B47A6804F4B3620462F781002E92B5208C432A00A8F28B2181FA7709AE0B6D1576ECE10FD0AF3F0177A3A61B4C3F2201F9029405C0F8F002B30776024AA7380002B0AD0000ED1206437619017C875100F4495809CC461A123CD0370210E3440015FC150008B9050020AE3300E0AFED00EE868802A201D202D8F62C0050E26501BAC71E0ED869CD002EBEDC00319CC50B601C0E00E6C06C04206511008047040140525400FEF681054C597C1A9AD2F801DE473400EC4F4200A1819A00009C0A0082219617364A480EF0B4A00928C046087095000D4068FA070B8D0B0025D215210F192C0046FB2200A85206004D810A09419628006AD69808C6F405032C5B140040BDA5020A8AB30313BC0300BE57030080A1AF0125400103762B411999790B008EDF0400E06F370042112F00A0370B001A044300F0D5D900C9FFAB00A4B9260020B2B616783210001D953500F57C38003B496C0088B21B004AD0A50368D9C509FF053007D81F4900A0968500609504008C76A40090AC8E0704B67802E4E10600F38F07008844C5016E9C1900AAE33500E00CDA02FE6B4100800D8E02403326004027CC01C23AE81CB0D30A00391C260090CD010458EAEE01BD6E8B00002A400906C81B00E11AEF00DE738116A8EDFD06A08DCC06C01A8B00F9530D0063675B00D53E062534251000C014620147AA0E00DE09160233510F00A7C0B30B869AFD09A026D7072F2B4B00EA2F4C0064BCEC1AA4B00B00AB9F9101439F9001BF154400901E861F80972C01198A1B00406F160068349A095072AD0065126604D024C029F66889023C190800177F2A0097402701FE79AA0750DCA5240211CD06FCD307004419280B30E6670180B7A700C0D52D00482C0A0008511000AC46B606E096EE000CCB6412F0F9100005E1B605C49E910760847005DAD8130020A5750180F5EB04002F30006275A6010E133200C75B1B0D34CDAC003CB1AB03555ADD0600CE1A0235722F1AC8098B21C603060008A31000E7AB440180092320EB5926107F96060AB84CC028C66C4500796D0A0231472E2CB792B50058758003A75EDB00648ADF045C02650060111600084A7C2B041A24008CC9E8064EFB0E003DBA5407B028360534883504A0F9CD018C091A00549D100254F61300C03D230C34764F06B4EF37009AE00402B24960015CA74701989C2000AB666300AEF0D404EEC90400140F3D00758CE11C28CF710A80B30B0020830800FC9A2300E60A0D02621C55006C6908005FEC0A00602374077F7742008934C00060FC310BCE04240000DBB70380CD160210D0A000BA3AFB09225E2F001130A00A10670400BA94800008540F0100701E2CD3E12400F082921E4CF57600D48AC50D16758500B00CB901D9C229007C2D1000E0CA9C0084482E00EDB3DE08FF901500439E1E00F9B84901FB520C00F17BA6006CC6090057A31004A7B20C00041A2400DC15110072E5150075D6511108D72A004C2B010A805EDC2361F1C019DC3404009AE67508F0B89D0CA77B620B80B0890070FDAC008CE51200429FC9046FF84200881BED1140018D000A0C820E5C5A140057BF960468B3210040C00900600492007ECD1100CA346208DFAD1500E8E11300DAEA3B0A347F590B56C23B00738CE30B406D0700BA81CC03404F782580921E022042E100BE989509BCCBDE0FF0821A00407E9E00725D0F0061792C02009C0A009EF1A703F6C20500848D5900FC5607007FC43D18D0F36E00B81B07008F484D038C32350062F930006DD63B1CE09A1B009EE57B007EFB3100FE183B140C61562840886F097F38A1011607730082B5E80180E08F00FD2D4900FBCAF3067AD4100052CA0300208D0D001C1E5200A80FAD01E1CBD704D00A0900A5CFD5005698AD031475280060DE56076A2F2600456EE4121543940AEE2E0800C6E3220098BA2F01B1830A00C8542900603B450000311A00120E6F0022670D00BA9AEC04A8A50700BDE105006CC6F819FCDD0901A6F0DF00C05610000895140060A70700C0DB9600403A070022DC09009B52AE11AE260C00CAA44407A6EA910128584600008C04003925B61379879700A2B20C00E0CE7C1CC1CD0200205678003E6D2C00E3218B2382CC17007E49DC012ABF660070CD0D00B5410900E3339D0061E8870129FD14016CC609008EFC7D064A7B0400CA38C500F40F2C004BB21202A39B1B00B52CC701843E100050817F00DB830A00B8690800C321AD02D0F6DB0F18D95237A6AE9E0C92B171028342E22402B20300A92E280035E0F91720371E00A6F1170010E344002C1C170128F6300000341F00A0FBAA040054DE0BE4C6360036913F01302D09000E670800C0940D00F86A3F008ABA2200404F1300E0D96900C0701A0040880400B04C7506D012B922EB800B007C535A0F086C2500C0E019007E1AE00200F60E0474FDFA0045FC4801228841103C7F81026E2CF61C4051C60E83EBF502DB381400FA32120046FFF90B02E80B0B0DAB362FF8697429DAF514006A82CF0A54E42E1BD85D6807048C6000A2E3C010ACE7B70154DE240072219C0B0D4BAC0899790B00D4338500C0B8CA0DE005100088050E00CF9155264035F50B50340F00463F6200F0239C2894155900038B0500C0D8FB1553FE0E007E4A1700306B1000FEE903006508100A1024340040C009008092170000894501125C37008A252800605A1200389C210014DCEE0139FA23008A95EE01E0711C01EE411800C0012000406AE608E009AE011C3A41004517B8032C53E31FD8A75E003C16080005CB0800009E9914702F0F05AEBBE901B22A7403D40D7000E35A1A0010EA0A1D3D86EC070A530B004C660800ACE81A009D6720004DF24601EE6B970E029603012829B31C3FFF0700E0F47000A2276927B2D1A50056040600ACAE14000E8FFF0987850500088D892CB43F0300A09F0800A78104000694560A88FE9900E0F21B00F09C2D00966623101625D600DA250C0013723703FCFC0600C31B0600EC1D260846B32C084E8BB503B6F76C00701E500080897201E0D8D402CEF39C06E6E9020006DD7E005C5A05005FB7530E5C855C0044510700D6C0160080CB1400FA150800C0BD09000079B60330C93000525534007931940078410D0070050A2022264F020A96110000CA03009BB43F0003054800DA439C03D0C2380047A01300E0C426018C4C8302EAE42A02DF7F0A00A43A0300FA390E005A24F2077DF08011CA70D600F2812200D69C090698ED24009C039B0155300914AC080C0008187C00193AD310FF7CA70006E2BD225C58C80060160B004A1CF00DDA572A048ACB20003078F72AE233670106327900ECC80B1B186D4A27387A1904303941009A8D05008E429F00A0132F19FABD0B004B9A0800D0AE120BA06A9F28E0D3AE00EEF76900988DF50256EF24000CD3B900EA162601A0C06A31BFB46C07B8A2F902C09D2216568E0900606D3F02C06A0800E0ACB7016E76A104488C3B0056D88C0214A54A02520F5000A7DFAD07009C0A00228BBB01C9CC9314301E3000E0C92C0EE81D3904608F10009AE98121987806006640170C6AC40300AADEE01A842718005CDDC4017861661D96DF0800E4CD25009C1E0E0025580A00639627005C8140068C36B71CC95C70001F44DF04E07A18005A79980CC08AC80439840B00D40D230002503D004005D907B2800900067E5424E804F90143834500A334CE112C75070253FE0E00901B0F007003D4279230F0295D786306F844A20300CD070080E02D02101DB700100EED21E9400D03502D7100AADD5B01046EB2032906DB017251B804602B08006CB83E2140D04F09C0E48C01303D0A006451111752CF9000BCA0060092111E028A991200B1E27D0600EC7E0888DEA20D3F732500EA6AAA0094BB0D1C49A90F02"> : tensor<43x64xi32>
    %2 = tensor.empty() : tensor<43x1xi8>
    %3 = tensor.empty() : tensor<43x64xi32>
    %4 = linalg.generic {indexing_maps = [affine_map<(d0, d1, d2) -> (d1, (d0 + (d2 * 16)))>, affine_map<(d0, d1, d2) -> (1, (d0 + (d2 * 16)))>, affine_map<(d0, d1, d2) -> (d1, (d0 + (d2 * 16)))>], iterator_types = ["parallel", "parallel", "parallel"]} ins(%0, %2 : tensor<43x64xi32>, tensor<43x1xi8>) outs(%3 : tensor<43x64xi32>) {
    ^0(%5 : i32, %6 : i8, %7 : i32):
      %8 = "kernel.softmax"(%5) {scaling_factor = 10000 : i32} : (i32) -> tensor<43x64xi32>
      linalg.yield %8 : tensor<43x64xi32>
    } -> tensor<43x64xi32>
    func.return %4, %1 : tensor<43x64xi32>, tensor<43x64xi32>
  }
}
