#map = affine_map<(d0, d1) -> ()>
#map1 = affine_map<(d0, d1) -> (d0, d1)>
#map2 = affine_map<(d0, d1) -> (d1, d0)>
#map3 = affine_map<(d0, d1, d2) -> (d0, d2)>
#map4 = affine_map<(d0, d1, d2) -> (d2, d1)>
#map5 = affine_map<(d0, d1, d2) -> ()>
#map6 = affine_map<(d0, d1, d2) -> (d0, d1)>
#map7 = affine_map<(d0, d1) -> (d1)>
module attributes {tf_saved_model.semantics} {
  func.func @main(%arg0: tensor<?x28x28xi8> {ml_program.identifier = "serving_default_flatten_1_input:0", tf_saved_model.index_path = ["flatten_1_input"]}) -> (tensor<?x10xi8> {ml_program.identifier = "StatefulPartitionedCall:0", tf_saved_model.index_path = ["dense_3"]}) attributes {tf_saved_model.exported_names = ["serving_default"]} {
    %c1560650607_i64 = arith.constant 1560650607 : i64
    %c1099511627776_i64 = arith.constant 1099511627776 : i64
    %c41_i64 = arith.constant 41 : i64
    %c549755813888_i64 = arith.constant 549755813888 : i64
    %c1775896262_i64 = arith.constant 1775896262 : i64
    %c40_i64 = arith.constant 40 : i64
    %c22_i32 = arith.constant 22 : i32
    %c127_i8 = arith.constant 127 : i8
    %c-128_i8 = arith.constant -128 : i8
    %c127_i32 = arith.constant 127 : i32
    %c-1073741824_i64 = arith.constant -1073741824 : i64
    %c1073741824_i64 = arith.constant 1073741824 : i64
    %c-128_i32 = arith.constant -128 : i32
    %c0_i32 = arith.constant 0 : i32
    %c0 = arith.constant 0 : index
    %cst = arith.constant dense<[-461, -260, 175, -134, 239, 111, -4, -171, 324, -77]> : tensor<10xi32>
    %cst_0 = arith.constant dense<"0x19CBB321EB0DCDCE041ACFD4FE10D2CCF0050D1306151AD1FEF8F3F8060414C11419F4DEC8C8FE2510C908BFF7D811D010C7E5FDBAE4F1E1DC0F1619F6F4FE12121E1223ED1014F402DD1007FBE4EE1233D8EE18EB1817F21D1702E40832FE04EE0905E005FC09E306F80511CCF5E3F8F6ED080907F4150E0B0FCEBDE40814F1BE0FFF18FCEBF2E7F8E10EEBD2D805FF160FFC1B1829F8F7F003F2F9EE26E0E3E9203CE9EEF6FBCCE2FD0C0EF332B7FAFA0A15FB2D0EC719F9050210F81E370C36EACE13FCDD0206DCFF1BF3120E10341B0406F915F2FB330AD50910C8D8F0E81F0222D302CD0B0ACB13E4F5E9DAE7EAF31510F70716D8DF00D9F719DDF7FEDFB6FB021B1FFC060817F61A09CCF10FF6ED1707F7E424192712BCFCE7DDBA0618191AB900F41BE222D4FA000509F2CDE306A6D40CF2F8E61122EBDEF5FA000930EFF2061C35040B28EED130EF141C12F230281012CAF41CF21F08D1D6FBFAF5F52F182DF30A0EC909FFF9F11CE6E0E8FF17C7EDF21B0B111CEEECF91F03F72AF6D4DAE517EA1018E20C14FE0C0C0900170E1A0106DEF702E402FC0E180DCE0FFEF2EDC1DB09261DCD1F30C11112DAEA40E304F30702C1EC1521CD17070FEEFAD9C4DE07EC21E617E00416EC240AE606F7F7EA13E429D41EFB1700202813C7D9F5DA0ED2D1121EE7FCE11204DC1CF7F60302C7F12014DDF10A17F10704D91EDC1331B61BF113EEF2051B11DA0B25E00F17F6C6ED122909E6FB81FCFAEFDBE3FE13041E1D0D0DAC09E83BE923F104EA13000C172FEB13219913BF1D1FF001CD381206DADEE112F4D429C50711E104FBDD1BF5CC07B10DFCBD25A70FC82FE1EE0006E71D0816F40AFEFC05E2F426FC1D0D0FFE0312C6A7E115CFC4FD02E2E9B921FB0E2AE5AADFF2EACC02DEF6190A1113FB131DC4E2F604FB03162D103E19F9100BF7022DF9F50316C9DE320BE305D61DFC1821360DB8E045FF11130FEFED2803A9E502E1E40005E4C8FE381B0EE4E30DD70C0ADD29D2CFCC13F00F1CAA09C7E9F5FF09DA1BFEE325E6F4CF18D212191208080AE2170800E3FC07FD0424231CF6E60636B9E214FA22080905E8E9D204E2FF04F50B151C16EFFB00140ACAD7010BE81018E21BB2CF270DF6C8FCC5CC210CA6BCEBEDD6DB07FEFADE1B0F0E101BDBE11014E10DEB2016B7F11309F608E71627E719E1FEDB1AD1D2D2FB1607EFF9031D02EED819221BF4E406DFF4E70A1C2000152EEE0EF90CE335E0F3E90A22D60DE43C04291D19040013E11D19D00CD306F0150DFB0A3F25F3090208DC040A04F410C50C151A0A370AFE3AB8170E0BEB1AFA04DFEF07F01F30E322E1F9D3EA1F0CF20FFA0E1DF800DD1FFDE0C4E7F51BDA17EEEDEEF8EDF0FEFD1713E3FBF3F5F5E33CE304FC09E6E3EF0117E30A06FCF4EEDEDA07F1F7FBEC1208FDD917CD1CEA11EBF2CEE801FF0B0A05FB0C14FEF41D1313B2F4FED2B2102B0BEC17D6F2FF14E306D9C4E8F4DEDCF604F3EA0012D613B80F0FD712F1C6DB120A0CD51008EEFE04FCE501FEEEFE05C10DAAD7CF150718C9B20A130BFAF7EFE2F310EDE51126120FDF10270003E51D13050F0DF42E2006061914FA1A081CDFE204050DEAFCE8CA0DECD9F910E7001A09E113BB081309070BF1D71AD6CADD12F20819F81C1F1EEC16EBC51BFA0F98DC0FC736190609F3FE100E090315CC12FCEFBA081DE711F0DF2CD0C509D3D71308D6FEFD00DDD417ED0C19DFF412152822DC0F11EBF40AD2DA03C5F4C4DEB31E1705020D1317F7040BF4E2F90DF5E1C924FAE80905C2350DFC09"> : tensor<10x128xi8>
    %cst_1 = arith.constant dense<"0xD30D000049070000261200008F060000BD0400005AEEFFFFAB0900002A0F00000F0F0000FEF2FFFF770200001B090000A50A0000D90300001F1200001C0700009CFDFFFFBD19000076FAFFFF30F9FFFFBD1A00006207000003F0FFFFDC050000EE01000010FAFFFFDB0B0000DD0C000077010000D50D000002070000CF1A0000E106000034080000441700005A120000940E000032FDFFFFF8FBFFFFBAF4FFFFA409000039F1FFFFAE07000026FEFFFF2FFEFFFFD7FCFFFFC3F0FFFFE1030000D90B0000C71000003C0400006601000023060000D0FFFFFF761E00007B0A0000BCF7FFFF9806000013F2FFFF95FAFFFF91FBFFFFBA0500006B0A0000D9FAFFFF91FDFFFF75070000A5EDFFFF7CFCFFFF9C1700008307000066E6FFFF59F8FFFFD0F9FFFFA30D0000460F0000CBFAFFFFE10300009E080000180C00005F060000F50100006D21000053FDFFFF28F9FFFF05F9FFFFD1EAFFFF960A00003A1C000022F2FFFF760D00009204000072F5FFFF2AEFFFFFCBF8FFFF330100005C01000059110000FC080000F00F0000F30F00001A050000BB030000CC120000C20200007D120000DBF3FFFFDDFAFFFF51020000E9FAFFFF2A0A0000680B0000AB1400001D1700009B0F0000E8F3FFFFAEF6FFFF0BFEFFFF8C0300009AEDFFFF8F1600006EFEFFFFA9010000D2FEFFFFD8110000B6110000A3FEFFFF320D00002F000000"> : tensor<128xi32>
    %cst_2 = arith.constant 